3d
ae
d5
d5
12
37
18
1f
3d
0e
f9
48
18
f9
2c
f8
f7
0b
f8
07
ef
ca
23
d5
ca
e6
0a
f4
c9
13
2d
ed
3d
07
ed
ce
dd
d6
0a
32
e3
f4
26
37
f0
5e
f2
47
f7
07
36
f7
fe
da
05
10
0d
07
e6
10
04
52
11
da
3b
ef
11
27
2a
36
2b
50
2a
47
e6
27
c9
08
1a
0a
fd
d2
f1
f5
f6
2a
ef
2c
3d
da
3e
33
f8
3f
fc
06
15
2e
fa
04
dc
11
16
fb
2a
01
20
21
14
ed
ea
c5
e6
c9
f3
05
fe
ec
c5
51
32
02
13
fb
36
07
fc
0e
