f4
ff
df
ff
05
c4
fc
e6
2b
cc
01
fb
04
37
0e
17
0b
2c
d9
d4
00
c7
09
dd
0a
09
d6
03
17
18
23
fa
1e
27
f4
1b
c7
fb
1a
18
23
26
0b
02
e1
ed
e3
f8
0c
06
08
ee
00
09
d5
f4
01
27
e3
fa
d9
f2
34
10
01
15
1d
1a
1f
21
f1
12
f8
e4
f7
f6
23
ec
1b
12
eb
dc
d7
01
e0
2c
f7
0a
eb
0b
e2
ef
22
14
06
1f
26
16
fd
1c
f8
02
d7
dc
d6
15
10
f8
01
15
25
1a
2c
3a
eb
21
0a
f4
dd
fd
07
22
11
ff
0f
29
15
06
28
cc
ef
f8
df
e7
02
10
11
08
e4
15
12
09
eb
22
09
28
17
c5
1c
00
3e
e6
07
00
32
09
3b
1d
10
24
f4
d4
f6
e5
dc
03
ef
29
1d
e8
ea
e7
ec
e8
df
0e
e2
f8
13
f0
16
12
2d
f9
f3
47
1e
1f
1c
fc
f7
e8
1d
20
12
02
29
01
f0
1a
19
27
02
09
11
23
0a
13
fb
11
1f
fa
16
ef
f1
16
01
09
f4
ee
dd
ff
ff
07
02
fa
3a
ca
eb
f1
f2
04
09
ea
e1
25
cc
fa
fe
f2
df
06
16
d0
f6
fa
16
07
db
22
f1
e5
14
fa
36
e7
01
ec
09
08
d1
29
02
10
d6
e5
dd
e8
12
d7
1d
22
fb
03
d3
2e
0c
fe
e8
2c
05
f0
13
df
ed
05
04
08
04
db
05
e0
d3
0c
12
eb
e6
dc
fa
d8
19
2d
eb
df
10
dc
fa
f0
ce
c8
fd
d6
22
03
e3
f4
d7
15
d5
fe
e5
e2
0d
ed
05
f8
e5
05
0f
11
09
31
00
03
0e
09
0c
f9
01
08
17
f3
d9
09
c8
ce
f8
d3
ef
d8
e0
e8
11
0d
fe
0e
11
d7
1f
2e
f1
e1
f9
01
03
1e
08
f9
23
e6
cf
ec
f1
22
c2
21
05
f2
2a
e0
e5
08
17
f8
f3
f5
07
68
eb
fa
d4
0e
1d
26
04
01
e6
ed
ed
0e
d9
06
ff
20
17
11
26
03
04
e3
ff
0c
1a
38
d4
03
fb
2b
12
03
28
21
15
28
10
1b
dc
fb
f6
ef
49
ea
e9
04
1d
0a
db
fe
cf
1f
f5
12
fa
1b
26
21
00
f8
05
ee
f5
fa
04
16
26
26
ef
19
fa
28
00
1f
f4
1a
c8
08
08
00
d4
1c
28
00
11
03
36
08
f4
e1
18
04
09
e4
14
dd
ff
1d
0f
f5
4b
fb
14
f6
2b
ff
e1
08
e8
1c
03
06
17
dc
e3
11
ef
ec
28
e7
18
0e
f0
0f
1b
06
f7
1f
09
23
f1
1a
20
cf
38
0f
ec
03
e8
12
db
f5
2c
f1
d4
25
21
dc
14
0c
12
33
1c
08
31
0a
3b
13
da
29
e7
1b
1f
f9
36
16
21
22
01
26
ee
f3
f3
e8
0e
2b
da
e4
07
de
14
06
ff
00
0d
03
1c
db
2c
00
c6
f3
db
f2
27
f9
28
ca
f3
d0
17
23
01
de
f6
f0
fd
06
3e
07
e4
03
1d
16
0c
0b
f6
1b
fc
e3
1b
cf
3b
ec
02
33
eb
ff
0c
28
f7
fd
34
33
27
05
1e
15
c5
08
bd
00
03
00
17
01
05
1e
ee
00
06
07
12
09
1d
ec
ea
fb
c9
e6
1e
fe
f3
21
1f
11
fd
f4
12
37
f7
03
cc
00
00
e3
12
e6
2a
1d
e5
ef
02
06
fb
1a
03
21
dc
e2
0c
da
02
f5
1e
e7
2f
d0
fe
16
02
06
03
0f
01
15
02
04
1e
dc
0b
f4
ef
06
23
00
dd
11
c9
e4
ef
1f
d4
eb
ef
02
0e
f1
18
0b
ea
f8
24
f6
04
05
11
2b
f9
d8
f0
25
06
ea
f2
1e
f4
1d
13
f9
e2
ff
fd
25
ed
0b
ec
01
f4
19
20
e2
00
e8
e3
ed
f8
26
eb
14
ec
11
0f
15
03
1c
09
0e
d5
cf
2a
ed
0e
ff
ef
0c
0d
0f
06
e8
dd
de
31
ed
19
ee
00
00
00
00
00
00
00
00
00
00
00
00
00
00
00
00
00
00
00
00
00
00
00
00
00
00
00
00
00
00
00
00
00
00
00
00
00
00
00
00
00
00
00
00
00
00
00
00
00
00
00
00
00
00
00
00
00
00
00
00
00
00
00
00
00
00
00
00
00
00
00
00
00
00
00
00
00
00
00
00
00
00
00
00
00
00
00
00
00
00
00
00
00
00
00
00
00
00
00
00
00
00
00
00
00
00
00
00
00
00
00
00
00
00
00
00
00
00
00
00
00
00
00
00
00
00
00
00
00
00
00
00
00
00
00
00
00
00
00
00
00
00
00
00
00
00
00
00
00
00
00
00
00
00
00
00
00
00
00
00
00
00
00
00
00
00
00
00
00
00
00
00
00
00
00
00
00
00
00
00
00
00
00
00
00
00
00
00
00
00
00
00
00
00
00
00
00
00
00
00
00
00
00
00
00
00
00
00
00
00
00
00
00
00
00
00
00
00
00
00
00
00
00
00
00
00
00
00
00
00
00
00
00
00
00
00
00
00
00
00
