f2
0b
0f
0f
07
01
f9
d3
f9
d7
e0
fe
e7
14
27
f1
e5
e7
16
d8
0b
44
ee
d6
f6
34
e3
ec
f5
ff
21
1a
0a
0b
21
38
0c
14
f3
03
07
eb
ef
ee
05
06
02
1e
04
07
32
26
e7
d9
d7
2c
f4
17
d1
0f
eb
f5
00
18
0e
19
fc
cd
23
ea
10
1c
03
f1
0d
03
01
f9
f6
f2
02
06
ea
06
10
03
f2
ff
1b
11
ef
0a
f1
f9
f9
f7
ff
0b
ee
15
18
07
01
0e
25
03
d7
29
ff
28
f0
e9
f7
fd
03
2a
08
0c
15
05
fa
f0
0c
0d
f3
db
f0
fc
0a
0e
01
f9
f8
05
dc
e8
08
13
28
ce
26
ef
36
d7
e5
f6
0a
dd
ec
10
f6
ff
d1
ee
dc
ff
e2
01
fb
f3
09
f5
01
0f
1d
2a
0c
31
f5
29
e8
d6
e1
eb
fd
11
1f
e0
fd
d7
f7
06
20
e3
d1
27
eb
d8
02
d6
fb
fc
24
1b
f0
11
0f
15
d7
f6
01
0d
ec
f9
00
fe
e0
00
f9
fd
14
02
fa
f8
b8
e1
e1
44
f4
08
2a
29
cf
e7
3a
1b
01
05
e2
e7
de
22
0c
ca
fc
34
06
19
fb
08
c8
07
04
f7
c7
11
03
ed
1c
32
01
fa
13
f6
27
c9
f5
f5
e0
38
ed
19
04
d1
0f
e3
ff
ff
21
0b
ad
0b
ea
1d
10
b2
23
1b
00
e1
da
1a
f5
03
ff
29
d6
de
e5
07
00
06
37
18
f9
08
12
ef
fc
ef
0c
e8
cf
06
2d
10
e2
16
e8
2c
ea
16
09
08
1a
1b
c3
18
17
e3
f5
c2
00
e5
0c
cf
b5
21
e2
1a
0a
d3
2f
0e
2d
f8
d8
21
25
f8
e7
e3
1e
19
03
de
07
f3
ff
16
03
42
00
18
fb
e0
ed
05
00
03
f9
2a
10
f2
00
0b
df
23
05
12
19
01
f3
f0
10
fa
db
34
f5
ee
26
24
26
09
05
26
2a
d1
f9
dd
e0
08
ec
14
f7
08
d4
db
be
0f
01
09
1a
f6
fb
b9
2c
cc
18
e3
04
03
11
17
e9
22
f9
ea
eb
16
19
e9
15
fc
d6
04
e2
1d
20
01
dd
14
e0
dd
f9
08
ec
2d
20
b8
e2
f9
13
2f
eb
bc
03
dc
22
0f
06
10
da
fd
01
01
f2
06
10
c6
1e
00
0c
ec
e0
f9
f0
0b
18
f5
0b
12
23
16
e2
2f
f9
db
f4
04
f5
b9
15
fe
21
f8
26
04
f7
ee
eb
01
00
e9
24
51
e4
0c
e9
18
e8
e7
da
13
06
c5
ed
23
fc
26
e1
b0
da
0a
f4
fa
ff
18
db
d4
fc
ff
ec
03
ff
f0
fc
31
fb
ee
0d
f3
ec
f8
d5
c2
0b
fe
22
1b
f7
fd
11
11
ea
3a
20
ea
08
e9
03
29
08
fe
1c
0f
fb
f9
ea
d9
11
25
f7
26
16
16
24
1c
10
04
a8
0c
d5
00
d4
f5
f1
eb
11
3e
0c
1d
ea
e3
f6
e6
e0
00
ff
10
15
ee
da
fa
f0
f2
dd
05
e5
06
14
ea
ea
27
ef
ee
fd
eb
19
f0
04
ef
c7
e8
f4
26
f3
f8
e5
29
2a
16
ef
01
f5
f6
0b
00
db
2a
d7
eb
d7
11
f3
15
e2
00
fa
ff
e6
0d
2b
15
31
ed
11
00
cb
e3
f3
06
30
24
04
f3
1a
0c
ef
06
f1
fe
f3
fb
29
2f
07
fa
19
21
fe
fd
e6
fb
ef
28
16
1d
0e
4f
de
1b
ef
e6
0b
eb
ee
24
c4
f3
de
11
41
df
da
04
d0
ed
0f
17
b7
07
03
e9
e3
f5
e9
df
ec
e2
e7
15
ea
1b
fd
1b
14
ed
f5
f4
0b
23
fd
19
b5
f3
d6
0f
32
f5
ed
23
e9
e2
0c
22
ff
eb
03
17
35
df
03
17
f3
02
ec
01
f6
20
f5
e8
1f
0a
44
1d
c9
f8
38
f8
2d
06
32
21
1a
f3
1b
0e
0a
bd
ff
ee
f4
1a
4c
e2
d8
d5
ff
de
e6
1e
e6
30
00
00
00
00
00
00
00
00
00
00
00
00
00
00
00
00
00
00
00
00
00
00
00
00
00
00
00
00
00
00
00
00
00
00
00
00
00
00
00
00
00
00
00
00
00
00
00
00
00
00
00
00
00
00
00
00
00
00
00
00
00
00
00
00
00
00
00
00
00
00
00
00
00
00
00
00
00
00
00
00
00
00
00
00
00
00
00
00
00
00
00
00
00
00
00
00
00
00
00
00
00
00
00
00
00
00
00
00
00
00
00
00
00
00
00
00
00
00
00
00
00
00
00
00
00
00
00
00
00
00
00
00
00
00
00
00
00
00
00
00
00
00
00
00
00
00
00
00
00
00
00
00
00
00
00
00
00
00
00
00
00
00
00
00
00
00
00
00
00
00
00
00
00
00
00
00
00
00
00
00
00
00
00
00
00
00
00
00
00
00
00
00
00
00
00
00
00
00
00
00
00
00
00
00
00
00
00
00
00
00
00
00
00
00
00
00
00
00
00
00
00
00
00
00
00
00
00
00
00
00
00
00
00
00
00
00
00
00
00
00
