2d
13
d5
d6
ff
f4
f7
10
d3
12
e9
16
ee
f5
08
1f
f9
12
0b
f1
1f
e2
e4
14
11
27
11
1a
fd
f9
d2
0f
0f
03
0b
17
0f
e2
03
0a
14
24
20
f6
11
04
1a
fe
f5
25
12
06
c1
12
fb
0e
24
46
06
0c
fd
fc
f6
00
09
18
14
1f
f0
f9
19
12
ed
f6
03
08
f9
32
16
fc
c2
f8
e4
fa
e1
0f
d6
ec
e0
2a
f7
05
fa
2c
05
ee
11
e6
d9
04
de
d3
eb
07
f6
cc
ed
f0
26
21
d8
d6
ce
14
e4
f7
1d
09
07
13
33
f1
e5
20
1a
0d
2c
01
f3
14
fe
15
04
e9
39
fc
32
d4
3b
f1
0c
fb
fd
ee
ec
05
34
0e
db
23
10
18
2e
d8
de
05
fd
09
1c
f7
fc
ee
01
01
1c
10
33
cd
f4
f0
f0
fd
b4
2c
fe
17
f5
e9
f7
08
40
0b
10
01
e1
fc
eb
fe
e7
1b
d5
10
f8
0a
f6
f9
0f
0c
00
1f
f5
fc
e2
fa
e7
d8
02
33
f1
f0
0d
e7
e7
06
d3
f3
fa
ec
e9
22
09
09
fc
e5
db
e9
ee
e6
32
b1
da
32
f2
fb
0f
ee
12
e1
05
fe
f5
0d
f2
ef
22
01
10
e7
0c
e4
13
fb
19
fe
f4
fd
f7
08
1c
e7
d7
18
d3
fa
38
01
d4
ee
f8
1f
16
16
12
06
f7
ef
00
00
03
27
db
2d
10
fe
23
f5
d8
f9
06
ff
c7
bb
07
c5
e9
e7
d7
08
22
f3
0e
14
e6
1e
ea
e5
c1
f2
e2
07
1e
b7
c5
48
0b
ed
30
0e
00
03
58
08
0f
e2
db
15
dd
e5
14
e4
22
ad
e7
e0
12
da
06
c6
f1
b8
f8
f8
13
df
e6
f1
f1
e2
ec
cf
10
fe
07
dd
04
e2
df
01
fc
16
f8
de
0c
e9
35
e7
03
f3
0d
fe
2c
f9
fc
04
1f
d8
e5
19
e1
50
0e
e8
dc
ff
33
0e
fd
15
0a
10
f0
e4
ea
15
0a
fc
04
f2
23
06
e9
f2
0b
0a
e2
0a
21
e8
e6
e1
e0
e3
3c
fa
ff
0c
f1
f0
0c
15
3f
12
e4
0a
db
1d
0b
1f
e9
f6
db
d4
fd
e4
12
be
e3
05
d9
ff
07
1e
15
c2
0e
e8
d1
04
da
1d
1e
fc
dc
04
d9
cd
0f
32
15
d0
15
e0
00
34
1a
d2
cb
d5
f3
f5
e4
ed
d6
d8
fa
f5
de
f3
e5
22
f4
09
00
d9
05
0f
e4
1b
fd
1d
0a
20
e6
13
06
16
16
1c
1e
f2
df
f8
f4
09
f2
14
08
f7
fb
07
10
15
eb
0c
d3
fc
f9
15
0e
1f
fa
f7
19
29
19
c6
36
d6
e5
f3
1c
f8
f9
e1
f6
0c
f8
ee
06
ef
18
f4
17
ee
1a
e2
e7
f7
06
00
e4
f4
e4
d8
e2
17
ed
02
c9
0c
18
fa
fb
f1
20
01
f2
0f
07
0c
e4
f9
0c
fd
f0
07
db
45
e7
16
16
b6
e6
10
07
05
38
f9
07
1e
f2
f8
08
28
f8
fa
f7
10
05
1e
f2
e2
01
ee
ec
2b
cc
fa
15
14
1e
3d
c2
ff
f7
e6
0d
f0
00
e9
0c
d7
e8
df
fa
23
fd
ee
1f
00
3a
12
05
1c
eb
cb
0a
04
11
e4
db
1e
d3
01
21
d9
1a
fe
1a
fb
2c
0b
18
d6
04
14
de
04
1a
0b
f6
07
ed
ff
2f
d2
06
06
34
ff
47
fe
01
0d
18
08
da
fc
d8
fc
07
03
24
d2
cc
12
ea
37
d0
ee
28
08
cb
fa
12
1b
17
0b
0d
08
ff
18
1d
f6
24
1b
22
0f
e8
ec
2a
25
f6
03
f4
e9
20
e3
24
0c
ff
10
d3
ed
2e
08
26
fd
e4
d5
23
1b
f2
13
23
b0
11
ec
1a
12
15
fd
e1
fc
09
db
ff
26
fa
1a
27
f6
f9
fd
1a
ff
f0
ff
ce
0c
0d
1c
2a
da
05
0f
33
d1
17
07
0a
0e
da
e6
ed
ea
1c
06
10
f6
fe
f8
ee
d8
00
00
00
00
00
00
00
00
00
00
00
00
00
00
00
00
00
00
00
00
00
00
00
00
00
00
00
00
00
00
00
00
00
00
00
00
00
00
00
00
00
00
00
00
00
00
00
00
00
00
00
00
00
00
00
00
00
00
00
00
00
00
00
00
00
00
00
00
00
00
00
00
00
00
00
00
00
00
00
00
00
00
00
00
00
00
00
00
00
00
00
00
00
00
00
00
00
00
00
00
00
00
00
00
00
00
00
00
00
00
00
00
00
00
00
00
00
00
00
00
00
00
00
00
00
00
00
00
00
00
00
00
00
00
00
00
00
00
00
00
00
00
00
00
00
00
00
00
00
00
00
00
00
00
00
00
00
00
00
00
00
00
00
00
00
00
00
00
00
00
00
00
00
00
00
00
00
00
00
00
00
00
00
00
00
00
00
00
00
00
00
00
00
00
00
00
00
00
00
00
00
00
00
00
00
00
00
00
00
00
00
00
00
00
00
00
00
00
00
00
00
00
00
00
00
00
00
00
00
00
00
00
00
00
00
00
00
00
00
00
