c4
47
08
17
36
d4
e0
dc
2f
1d
fb
f5
eb
e7
fd
ff
02
fe
0f
ef
cd
c2
e2
18
cc
19
18
e2
07
f9
e8
15
36
e3
e9
24
d6
23
20
2e
3b
fe
38
cf
08
d4
00
f5
f5
f9
0b
be
12
de
27
04
f5
04
f6
6a
4a
0d
b3
22
fe
fc
05
0e
dd
49
e4
e3
10
fe
f7
d6
e3
35
15
64
e6
16
f3
eb
28
09
0a
ee
33
fc
f2
0b
d9
2b
90
0f
e7
fd
fd
0a
d2
e2
53
eb
11
07
c2
ca
19
ce
e8
16
41
07
11
98
20
f0
10
10
d5
01
f3
0f
0b
0c
f9
0e
