e8
e9
03
06
fc
f1
f3
e6
fd
f0
05
d1
1e
de
0a
07
03
c5
ff
e9
3a
d7
0c
03
29
00
79
dd
0a
11
ef
14
12
0e
27
01
e7
12
ed
1b
f2
d6
eb
fa
00
18
00
24
0e
0a
07
de
0c
13
eb
1f
21
f6
df
26
dd
ee
da
d9
f0
09
fc
07
12
d2
17
02
f8
fd
17
06
d0
09
07
c3
02
ea
1e
05
f8
f3
02
e6
14
05
12
13
19
2c
09
07
ff
f1
df
fb
05
3c
1f
f5
ed
0d
db
34
d3
e9
df
e7
17
f8
e6
16
dd
03
c5
d3
f0
f4
f5
21
fa
f9
00
b8
f6
2d
28
2e
f8
0e
e6
ef
db
e8
1e
25
e4
2a
12
01
f9
e0
06
dc
43
28
1b
fe
fc
fd
e0
fe
3b
f9
ed
16
1d
e8
dd
15
13
d6
1c
19
27
28
ef
30
10
de
09
f7
f8
11
0e
ec
e2
f0
3b
19
31
0d
35
f2
eb
5e
fc
ee
0d
0a
ea
17
e7
26
0e
0e
f4
2e
17
09
f8
04
17
15
09
ed
ca
07
05
f1
07
eb
ff
12
1c
fc
29
00
dc
07
0d
16
e2
14
37
16
14
f6
e9
f2
d5
fa
3c
e6
12
1e
26
2e
e6
05
2a
ec
fd
08
eb
11
07
da
e4
18
21
f3
03
d7
c9
eb
d3
29
18
1f
09
ef
d0
f8
23
de
11
07
f9
eb
15
df
f5
0e
0c
dd
e6
3a
37
e0
0c
29
e8
e1
01
01
e1
09
00
fe
16
cd
fb
05
11
e6
da
12
ea
11
08
01
e7
f8
f4
f8
03
0a
18
3a
03
f0
2b
35
04
fe
e6
2c
1f
07
01
d9
30
11
db
ff
e6
1a
1a
fa
07
ef
41
06
fd
36
ff
f7
2c
13
15
12
08
09
da
e5
05
28
08
16
08
0b
25
16
30
0e
13
fd
eb
e0
1e
04
32
00
fb
ec
1e
00
1d
cd
f1
27
f6
ec
1a
d9
23
e3
2b
05
f4
f5
db
29
e3
03
f6
3b
1e
0c
16
0a
02
fb
d1
03
16
11
05
fe
04
0a
05
34
00
ea
e3
ee
05
06
ed
28
13
f8
36
00
fa
23
f5
ef
06
0c
f1
06
fd
23
04
1f
03
25
f8
0e
dd
25
e7
5c
dc
1e
0b
2f
18
07
15
dd
de
07
f7
de
ec
0f
ea
d6
1f
ef
4b
09
0b
f7
fb
22
00
04
17
e4
1a
ee
fa
f7
3d
f2
29
0f
11
fd
38
4d
03
c4
08
13
24
0f
30
fb
13
0e
d0
ce
fa
2e
15
07
ed
f3
13
b4
db
e1
e6
17
11
1c
ee
d5
02
01
e4
de
f8
10
1a
06
1b
0e
00
e4
12
e5
08
1a
09
f6
df
f4
12
e6
fa
10
2b
20
e1
fa
de
ef
f5
0f
12
fd
de
c4
1f
2b
f9
d7
fc
15
e8
f1
0d
fc
2b
ec
23
e4
fe
16
0e
ec
f4
ec
db
23
09
ed
36
39
fb
f4
1e
e7
04
e3
ca
f4
e5
fc
31
e4
07
35
0c
09
29
cf
09
ea
05
0a
e3
f5
b5
eb
13
e8
03
d4
be
ea
f4
06
e0
eb
f5
17
2d
f0
af
ef
2a
2c
08
f8
24
f0
3c
22
e1
f9
22
0f
00
13
0a
d8
11
fb
23
cf
11
1e
fb
2d
0f
eb
e2
17
fb
05
e2
12
0b
08
2c
1d
d1
dc
ef
05
0a
04
e4
dd
21
f9
f5
e6
09
d0
da
00
16
18
f4
05
f4
c7
c4
0e
cf
f7
e1
24
0a
36
27
e8
04
0a
e4
0f
01
ce
0d
fc
de
f2
01
2c
19
19
f9
0c
f8
33
07
f4
1b
e0
03
00
ec
fc
fd
fc
11
00
12
14
09
1b
f9
13
ec
04
db
d9
d0
24
2e
22
e5
f9
fb
0d
1e
04
1f
00
f0
0d
ff
16
f0
10
f3
0f
ea
e4
f6
0d
da
1b
10
f5
fe
f1
29
e5
eb
f6
06
0f
16
32
fb
f3
04
43
e3
04
ef
c6
ef
0b
f4
b9
20
eb
ce
fb
05
49
08
17
d7
ed
f8
d5
e3
f3
00
00
00
00
00
00
00
00
00
00
00
00
00
00
00
00
00
00
00
00
00
00
00
00
00
00
00
00
00
00
00
00
00
00
00
00
00
00
00
00
00
00
00
00
00
00
00
00
00
00
00
00
00
00
00
00
00
00
00
00
00
00
00
00
00
00
00
00
00
00
00
00
00
00
00
00
00
00
00
00
00
00
00
00
00
00
00
00
00
00
00
00
00
00
00
00
00
00
00
00
00
00
00
00
00
00
00
00
00
00
00
00
00
00
00
00
00
00
00
00
00
00
00
00
00
00
00
00
00
00
00
00
00
00
00
00
00
00
00
00
00
00
00
00
00
00
00
00
00
00
00
00
00
00
00
00
00
00
00
00
00
00
00
00
00
00
00
00
00
00
00
00
00
00
00
00
00
00
00
00
00
00
00
00
00
00
00
00
00
00
00
00
00
00
00
00
00
00
00
00
00
00
00
00
00
00
00
00
00
00
00
00
00
00
00
00
00
00
00
00
00
00
00
00
00
00
00
00
00
00
00
00
00
00
00
00
00
00
00
00
