e7
17
19
2f
23
18
20
d4
0c
c2
e7
f9
d8
19
0e
de
22
e3
0a
23
f9
b6
d7
ed
06
06
0a
38
0b
f6
18
e1
25
1d
f8
18
e7
fb
fd
0f
f8
0c
34
ee
23
03
10
11
fd
ff
f0
16
17
ee
26
1f
19
fc
10
19
fa
fd
d8
f4
17
e8
ff
e6
ff
33
14
1f
20
28
2e
f4
0f
3c
ff
ef
00
f5
d2
11
1c
0f
f9
fe
19
32
c5
f6
c1
0d
40
16
25
0f
09
10
2b
1a
1e
f9
e9
f9
01
04
fb
ca
fc
e8
eb
13
0b
08
0b
e4
a9
e5
0d
f1
f5
02
35
20
08
e9
0e
2e
1d
f6
31
1a
f6
f9
f0
f2
e8
1e
1c
02
31
e5
04
e1
13
17
14
19
0f
ef
02
0b
1b
e4
e5
f9
24
d7
02
e1
ff
e6
dd
fb
e7
ea
21
06
1d
ec
d6
03
0c
dc
d3
df
1b
fe
f5
e1
07
f8
03
ec
f0
0b
fd
ce
dd
0f
ec
fa
e0
ca
f7
d6
02
fe
df
00
eb
f1
02
e2
fa
26
dd
e9
f4
10
f6
fd
0d
06
ec
f3
0d
fc
f1
de
00
0e
02
ff
d2
ec
0b
df
0b
da
ed
fa
04
05
2b
07
da
eb
fd
f9
c4
1e
0c
f4
e5
21
da
d0
e3
ee
b6
fb
10
f6
fe
f0
1b
0e
12
f9
db
12
01
3a
ef
e4
01
dc
0d
fb
c9
dc
cd
df
1d
ec
09
4a
fe
ed
17
27
f6
1a
26
ba
fa
d6
0b
f9
06
be
0c
21
e3
1c
01
c0
01
0b
00
15
0e
18
15
fe
34
11
02
f9
ed
fb
c9
ff
00
1b
f1
c9
03
38
0f
e1
00
fe
0e
0e
14
03
e1
1c
11
05
03
5c
ed
1c
0c
02
16
ed
1d
f9
09
e0
05
cd
03
e3
14
fa
12
f0
05
c8
d8
b6
19
ea
ec
fd
dd
22
19
1e
0e
2e
f8
04
0e
16
fb
c2
09
08
ec
e4
f6
04
ea
01
f9
11
08
e0
05
eb
f8
fd
20
f3
cc
08
19
e3
f4
cb
12
18
f8
10
09
e3
16
09
02
10
e4
ef
f4
14
fb
f5
ff
e6
0c
0b
ff
f2
1f
31
09
e0
fc
f3
06
03
ff
21
00
e4
e1
fe
ef
f9
09
04
f0
e8
0e
1b
d2
cf
13
fc
ce
f2
fe
e5
fc
f1
12
02
28
11
2c
ee
fd
b2
45
fb
e5
03
f3
0c
f9
f9
fc
10
29
de
fe
18
ff
f4
ef
e3
dd
f7
04
03
d6
db
d2
17
1f
c6
f8
0d
1d
18
e3
fc
d6
41
29
f2
1b
22
e7
25
fe
ee
08
00
b7
28
ee
da
fd
0f
1c
13
07
f8
21
ff
21
e0
d9
04
f4
fa
e9
fb
1b
13
e3
09
df
12
2d
1c
c1
05
04
05
f9
cb
e1
f4
bc
14
e6
0d
f5
24
f2
19
23
02
f8
d6
ec
d7
37
0d
1a
f8
fc
ea
07
fd
01
2c
20
01
19
0a
19
c7
df
18
16
f4
09
ce
0b
f3
28
1d
12
02
f5
ee
0f
0c
2c
17
29
10
fa
d9
02
10
d2
be
1e
e0
0f
ff
f4
11
10
12
f6
ed
08
14
b9
c0
f6
fa
e4
e1
0e
fb
f1
e1
fe
0d
ee
06
32
aa
fb
ff
da
01
12
cc
fc
df
da
34
29
eb
ed
f9
e8
fb
d1
06
18
17
24
f5
fb
00
13
df
ec
f8
e0
e3
de
1e
06
26
0a
e4
f6
da
e9
16
ee
f3
2b
d8
34
22
f9
18
0c
ec
be
bd
0e
eb
2b
0c
04
05
18
e8
01
da
ef
0d
0b
ee
cf
12
2c
e6
0e
0b
f1
04
e2
fb
dd
02
fe
e4
18
fe
40
0a
1e
f7
ea
06
fa
03
e5
15
03
08
cd
fc
0d
1e
df
ea
f7
01
e0
29
f4
fb
ed
17
2d
e9
18
16
ed
e5
d0
eb
fe
e7
0b
f8
15
c4
df
cf
ee
12
30
f2
19
d3
f8
e0
ba
0a
e3
c8
15
16
d8
06
0c
1e
e7
da
28
1e
fe
27
02
38
07
e9
fa
f0
1d
e0
f3
e1
00
00
00
00
00
00
00
00
00
00
00
00
00
00
00
00
00
00
00
00
00
00
00
00
00
00
00
00
00
00
00
00
00
00
00
00
00
00
00
00
00
00
00
00
00
00
00
00
00
00
00
00
00
00
00
00
00
00
00
00
00
00
00
00
00
00
00
00
00
00
00
00
00
00
00
00
00
00
00
00
00
00
00
00
00
00
00
00
00
00
00
00
00
00
00
00
00
00
00
00
00
00
00
00
00
00
00
00
00
00
00
00
00
00
00
00
00
00
00
00
00
00
00
00
00
00
00
00
00
00
00
00
00
00
00
00
00
00
00
00
00
00
00
00
00
00
00
00
00
00
00
00
00
00
00
00
00
00
00
00
00
00
00
00
00
00
00
00
00
00
00
00
00
00
00
00
00
00
00
00
00
00
00
00
00
00
00
00
00
00
00
00
00
00
00
00
00
00
00
00
00
00
00
00
00
00
00
00
00
00
00
00
00
00
00
00
00
00
00
00
00
00
00
00
00
00
00
00
00
00
00
00
00
00
00
00
00
00
00
00
