18
ef
11
27
09
18
0b
fc
10
0d
17
07
fe
24
09
08
14
fd
ee
f4
1e
04
15
14
c6
11
bc
ea
05
e6
de
eb
fb
f3
c9
df
47
11
17
1c
e3
ce
2a
fa
d9
fc
0a
de
3a
f5
3f
d5
f8
dc
1d
16
14
f3
eb
e4
dd
21
eb
0f
c6
06
0a
07
f8
01
f8
18
fa
f6
e3
10
d9
f2
3c
04
fa
06
2c
eb
fd
3e
0a
05
04
fb
f0
0c
fb
06
e5
da
0b
d1
fb
37
f7
06
07
f2
e2
0b
07
0a
ee
07
ea
f0
dc
0e
1a
17
18
12
25
30
f4
0f
20
07
f6
fe
e1
fc
e8
fd
dc
bd
d4
f6
1f
f0
28
ec
21
42
1a
c3
10
03
d9
fe
fe
05
e3
be
c9
e3
e9
06
23
08
00
12
df
f2
f0
01
34
fc
e1
19
00
eb
02
1c
04
16
03
05
14
dc
f6
1a
e7
eb
fa
39
0f
19
23
e3
f2
fe
02
ee
fc
f1
11
df
f4
c9
d3
ea
fc
e4
f5
2d
0a
f5
f3
d2
fd
ea
0c
04
f4
07
de
14
0f
20
f8
fb
00
23
3a
41
14
d9
15
d9
e6
26
16
23
2e
f7
fc
37
01
02
de
18
d2
d2
e8
36
f0
fc
eb
f3
d7
0f
f1
fc
04
08
e0
20
e1
00
ff
07
08
f7
19
22
d5
2c
00
ff
d6
f8
ea
f1
0d
e0
e1
dc
df
02
17
f8
48
de
0f
0d
ff
e5
f6
ed
fe
05
15
3c
eb
0e
08
0e
0b
ed
09
de
f1
ce
16
e8
f3
38
ed
03
02
ed
e7
22
1d
fe
2d
eb
e8
1e
0a
13
f3
f6
fc
fd
00
ea
0e
df
d6
e3
17
10
e4
00
f4
13
1c
10
3c
16
ec
f0
cf
f8
14
f9
ef
3b
11
24
02
00
cf
ea
36
05
e8
c5
fa
25
ff
13
f1
01
e0
d0
fc
1d
29
dd
1d
0f
1e
10
dc
e1
dc
f3
ec
23
09
04
1f
d0
11
09
00
0d
ef
e1
26
ff
ec
fc
eb
0c
44
e0
de
13
27
ff
0d
1d
02
0b
d3
f4
13
e3
04
fa
02
d1
0e
1a
11
1c
f8
11
0d
16
f2
1b
fa
f4
0d
fa
bd
fd
1d
da
01
24
cb
22
a5
e9
e7
e2
f8
cb
07
e3
bf
ef
d4
04
e0
e9
1b
e3
f3
1c
fb
1b
06
35
07
15
02
12
f4
2b
f5
e4
03
4d
18
e0
18
bd
08
0a
e6
fa
fa
dd
db
1f
f1
0c
fe
12
21
ec
2d
dd
e2
f3
f6
1f
f9
d7
25
0a
ff
0d
45
25
21
c5
0d
d1
0f
e7
f6
32
de
0b
f4
0e
f8
08
2b
0d
cc
df
07
21
21
fe
f5
f8
0e
d9
f1
34
01
f1
07
00
02
e2
2f
eb
fa
2c
2d
e2
fb
03
eb
f2
05
e4
1a
fa
e2
f3
fd
34
d0
e9
f0
2c
e4
e8
bb
01
fb
0c
00
cd
e1
e9
23
22
05
08
13
15
f3
3f
e7
01
1d
f3
0d
00
07
e4
f8
ee
eb
35
e5
ee
07
da
f1
ef
22
f6
ca
01
e8
ee
25
1d
ef
ea
ed
c2
2b
f3
f9
03
fa
14
ea
07
f8
14
15
10
e0
fc
0a
f3
f1
f2
03
03
d5
ea
12
2d
ea
ee
f1
1d
f0
02
e5
16
18
f7
30
0c
d4
24
c7
1c
10
18
06
21
00
14
f3
28
fe
0c
0e
04
02
dd
e6
00
e5
1b
01
e8
ed
e1
02
f9
0c
d4
19
1e
fa
e1
ea
03
f6
01
d7
0a
0f
0c
e8
ea
f7
f7
f6
1d
d9
e7
45
0b
37
b1
17
08
d1
02
34
e2
e1
de
2b
e1
15
f8
17
fe
f7
e3
02
db
f5
0c
fc
fe
15
f8
12
f0
ed
30
3b
f8
c2
29
fd
06
ed
04
db
07
e8
e5
e8
dd
ea
29
d5
fe
1a
03
f4
17
1a
e3
09
d3
02
23
28
12
f2
ed
08
1f
fa
f6
28
eb
b3
04
ec
f2
0b
24
1e
f2
f2
17
23
f2
ee
eb
22
2d
1c
f5
e5
04
3f
f0
fd
0b
1e
15
00
00
00
00
00
00
00
00
00
00
00
00
00
00
00
00
00
00
00
00
00
00
00
00
00
00
00
00
00
00
00
00
00
00
00
00
00
00
00
00
00
00
00
00
00
00
00
00
00
00
00
00
00
00
00
00
00
00
00
00
00
00
00
00
00
00
00
00
00
00
00
00
00
00
00
00
00
00
00
00
00
00
00
00
00
00
00
00
00
00
00
00
00
00
00
00
00
00
00
00
00
00
00
00
00
00
00
00
00
00
00
00
00
00
00
00
00
00
00
00
00
00
00
00
00
00
00
00
00
00
00
00
00
00
00
00
00
00
00
00
00
00
00
00
00
00
00
00
00
00
00
00
00
00
00
00
00
00
00
00
00
00
00
00
00
00
00
00
00
00
00
00
00
00
00
00
00
00
00
00
00
00
00
00
00
00
00
00
00
00
00
00
00
00
00
00
00
00
00
00
00
00
00
00
00
00
00
00
00
00
00
00
00
00
00
00
00
00
00
00
00
00
00
00
00
00
00
00
00
00
00
00
00
00
00
00
00
00
00
00
