ff
37
28
b5
15
dc
fa
15
f9
ee
fd
1a
2d
d5
d8
e8
02
fc
03
02
f4
11
01
ff
2b
f2
06
c4
07
08
07
fe
e0
ef
1b
36
e5
18
3b
da
df
30
f8
39
32
1b
e3
ef
e0
2a
27
0e
16
dd
e7
09
d7
f3
13
dd
06
09
fe
c0
c3
0b
20
08
1c
f5
02
e8
16
e0
f9
df
2b
f6
df
13
ee
f5
0f
31
34
eb
f3
f8
cd
f2
0a
bd
08
fe
f9
3c
21
dd
03
08
12
ee
25
04
fe
2c
fd
0c
cb
cb
25
cc
1b
f1
f2
16
01
cd
46
36
0c
07
25
0c
f9
eb
c0
09
53
cd
17
09
cb
03
0a
20
dc
29
12
05
eb
02
f9
31
0b
1b
1e
2c
08
10
b4
ff
f1
f4
fd
13
26
de
20
24
e3
f1
e3
14
27
d2
fb
e8
f0
ee
ec
40
d0
ea
3f
ff
27
d7
de
0c
07
df
f5
e0
03
e7
e3
fd
23
16
01
f0
ea
fa
e3
03
b8
f2
d2
06
cc
e2
02
00
0c
f9
3d
17
f9
df
21
2f
1b
f4
15
fe
3b
07
fe
ed
08
fc
08
e0
f0
2a
0a
ef
2c
f3
f7
fe
d9
f7
01
c5
eb
00
28
ec
f1
15
2e
f3
0d
01
bb
05
ed
fe
01
55
38
1a
e8
14
d9
24
f9
f3
e1
fb
0a
f9
03
fd
f7
21
10
2e
2d
02
c2
11
04
1b
e5
0d
35
f2
1a
f4
02
40
cf
d1
19
3e
f2
d7
d1
d5
1e
f6
0f
ed
1d
03
ea
ef
e4
d5
18
c9
1e
09
03
f9
fb
e4
00
62
2d
e6
f5
f1
1a
e0
ec
d3
f2
e7
0f
4b
37
12
f8
f2
fa
c7
19
11
e6
05
22
dd
04
1e
cf
1d
bc
fd
09
12
16
1c
d7
ec
d0
06
36
ef
ec
0c
14
21
ef
ea
0d
e5
19
24
1f
e8
07
f6
e8
ff
f0
08
fc
d0
e2
fe
1c
ea
e9
fe
ec
e7
21
cb
f4
e9
00
db
ef
0f
dd
dc
43
2d
11
f9
ee
0c
08
e4
42
fd
e4
f0
f8
e8
e7
37
13
10
ed
ff
0e
ce
07
33
ec
29
ee
0d
14
09
01
2b
1f
20
cf
f2
29
2c
06
0e
e9
da
11
f1
f9
ef
15
df
eb
f9
e0
f4
f0
0b
13
04
f8
e9
29
f1
e3
17
fd
d9
d1
09
de
f7
d1
1e
ee
07
1f
d1
b7
dd
ca
fb
00
24
f7
13
f0
2e
1b
0a
07
05
17
c9
14
0f
16
c9
0c
e1
1a
32
32
39
ec
e1
01
d2
ec
0b
fb
d8
09
22
f9
13
ef
03
ea
19
1a
29
d1
2c
d5
d9
fc
12
f5
f1
21
26
2a
ea
ee
fe
d7
d4
19
00
38
0d
d2
0d
13
17
d2
d5
f5
e5
0b
1f
03
18
0d
02
c9
0e
15
1c
f9
b2
ef
ec
dd
e9
0a
e7
21
03
e5
fb
1f
f9
01
28
02
ca
35
21
f6
f0
ca
3c
d0
21
18
f3
15
ff
f9
d2
f5
ea
ed
f4
1e
fc
10
e6
f1
15
fb
10
33
06
f1
19
1e
fd
29
2f
14
e7
fb
cb
c6
29
11
fb
eb
04
26
f6
2d
10
0a
14
f0
d7
e2
eb
e9
f0
f7
e4
05
17
f7
00
01
eb
18
04
35
cc
fd
10
f8
e8
c7
de
29
01
4c
cf
0e
00
29
11
20
e0
0a
16
f0
21
f9
f9
15
27
e9
ef
15
e8
17
2b
08
2b
da
09
04
20
1c
f8
04
e9
f8
17
c8
e4
00
e0
06
ef
19
0e
cb
b8
e2
f5
f6
dd
d8
06
31
24
eb
08
35
fb
f2
f0
dc
f5
0b
05
f0
f5
13
11
e6
05
1a
ea
19
f9
dd
11
08
11
ec
0c
01
e6
a3
ea
f6
07
d0
1e
de
e4
1d
04
f9
fc
c5
ed
a6
f5
04
dd
f7
17
25
1a
00
3d
16
f3
33
04
fb
e8
0e
0c
15
dd
e0
fa
05
07
fb
06
0a
f8
28
07
25
fd
ec
04
01
da
cd
12
0c
23
12
fe
c6
fc
0f
f3
dc
ec
e0
f0
00
00
00
00
00
00
00
00
00
00
00
00
00
00
00
00
00
00
00
00
00
00
00
00
00
00
00
00
00
00
00
00
00
00
00
00
00
00
00
00
00
00
00
00
00
00
00
00
00
00
00
00
00
00
00
00
00
00
00
00
00
00
00
00
00
00
00
00
00
00
00
00
00
00
00
00
00
00
00
00
00
00
00
00
00
00
00
00
00
00
00
00
00
00
00
00
00
00
00
00
00
00
00
00
00
00
00
00
00
00
00
00
00
00
00
00
00
00
00
00
00
00
00
00
00
00
00
00
00
00
00
00
00
00
00
00
00
00
00
00
00
00
00
00
00
00
00
00
00
00
00
00
00
00
00
00
00
00
00
00
00
00
00
00
00
00
00
00
00
00
00
00
00
00
00
00
00
00
00
00
00
00
00
00
00
00
00
00
00
00
00
00
00
00
00
00
00
00
00
00
00
00
00
00
00
00
00
00
00
00
00
00
00
00
00
00
00
00
00
00
00
00
00
00
00
00
00
00
00
00
00
00
00
00
00
00
00
00
00
00
