fc
01
3e
03
d5
d0
ee
f9
1b
27
2f
cc
ee
0b
f4
23
04
12
0a
e2
ff
de
0c
07
d0
06
12
0f
d3
fe
e2
d4
dd
fd
f3
e9
f6
f5
24
08
cb
10
11
fd
2e
03
ed
0c
00
22
d7
01
20
14
ef
2e
1e
f4
c0
1d
e1
1f
de
01
eb
05
cb
32
f9
e3
12
09
e7
08
37
48
0d
fd
e3
0b
fb
fc
2e
33
eb
e2
e7
0f
10
0e
24
04
19
f4
0d
0c
07
1c
e3
f7
22
32
fa
06
d7
f8
20
0d
f2
15
f2
10
07
dc
07
fa
16
f3
0c
d0
e2
e9
fd
e9
e4
27
1f
f3
da
f0
2d
22
0f
06
0b
17
14
d4
ec
dd
38
21
f6
df
54
4a
25
07
f2
19
f0
f6
10
1a
e9
fe
0c
0d
18
01
09
25
18
00
09
f2
11
f3
e2
e8
ec
de
1e
ea
1e
1c
b1
00
e5
f6
01
15
e3
00
bf
e7
0a
18
ef
e8
e6
ff
f0
18
06
fa
01
d5
f6
ed
f9
e2
cd
cd
42
0d
08
c6
e3
f8
f3
06
05
ea
07
12
18
c8
39
1e
fd
17
1e
09
1a
ee
1b
da
e1
f4
01
e4
0b
f4
e2
e5
d5
ec
2c
fa
14
d4
0a
cd
d8
f7
ef
f1
28
42
c4
0a
01
22
da
20
17
c8
12
ed
0d
fe
ed
c1
12
24
fa
04
10
cc
e1
04
0e
e4
0d
f5
d5
f3
eb
04
0e
07
1b
ce
02
e7
0e
e4
d5
19
e7
0f
0c
15
29
fd
df
ec
ef
bf
df
29
b0
01
f6
0f
ea
24
e1
49
fb
fe
15
2a
18
d9
fd
2c
f9
f5
09
e0
f5
03
16
34
04
2a
c7
fd
07
11
26
0c
fa
35
d2
d8
ff
d0
f2
fd
f9
30
db
25
fb
39
f8
fd
f8
f7
d5
12
e9
ff
f7
11
0c
f9
08
18
04
28
fd
d7
e3
02
ea
29
ff
0c
d9
15
0e
26
28
ea
f8
2a
0d
09
03
e3
f0
00
01
fa
29
de
17
1e
2a
db
e7
00
08
f5
05
24
2c
eb
1d
f8
f1
0c
14
ce
e6
0c
ed
e5
e3
e9
11
fc
33
35
05
de
f9
c1
1f
2c
ee
14
e2
18
e7
f3
14
ec
03
1f
58
f0
20
04
d2
12
12
f6
11
02
c3
0f
0f
00
0b
f7
13
11
ee
d9
ed
10
24
2c
0e
4c
f5
18
e4
e8
08
fc
cb
21
fe
37
0b
09
09
09
2f
08
15
e7
f2
02
2f
00
28
c3
e5
23
14
fd
05
31
05
0d
fa
05
e9
dd
f3
f8
fd
f1
0c
30
0a
f9
ff
01
3b
f1
fb
fb
d5
db
f6
1d
fd
08
fe
fa
13
f0
06
e4
43
fb
19
f7
1c
1b
c2
ca
0a
04
03
0d
f7
0f
fc
1e
fe
e2
13
d5
0d
e5
0f
f8
0d
ee
de
ee
3d
0e
eb
f7
ef
ca
16
d7
f6
12
f5
c2
f9
f3
1f
1f
0c
ec
f3
ea
f7
23
04
f4
30
ee
0d
eb
07
ee
f5
fa
de
09
c5
1e
f8
0c
f0
f5
09
d1
ee
df
cc
f9
20
e0
21
34
3b
38
04
1d
fe
0a
0e
09
d4
15
1a
40
04
26
ca
fb
0c
f0
0b
11
06
e3
dc
e9
10
c0
f6
f5
fc
17
ec
25
d1
f3
0b
fd
ce
fc
f9
e5
ef
14
07
2c
44
f6
fa
db
2c
e0
23
14
0a
e2
f7
03
f6
0f
ef
da
fa
16
1b
dc
c9
f1
1a
27
fa
f9
d4
13
0a
dd
e8
1a
af
fa
06
fe
f6
d5
2a
d7
e1
02
e2
09
1b
dd
d8
f5
aa
df
f8
0c
f7
10
ff
fe
f6
0b
13
fb
19
17
f2
f8
23
12
f2
2e
1a
1e
26
e1
20
12
e7
1c
fc
c4
f4
1d
1d
1e
13
b4
d0
05
e0
e4
f5
02
17
23
06
dc
ee
fe
10
11
ff
e5
f5
da
0e
08
f6
f3
25
06
05
05
0f
db
29
f9
0e
15
f5
14
2d
e9
14
e7
15
f8
fa
d3
1a
c3
26
fb
01
d2
f3
de
18
16
f9
34
19
eb
00
00
00
00
00
00
00
00
00
00
00
00
00
00
00
00
00
00
00
00
00
00
00
00
00
00
00
00
00
00
00
00
00
00
00
00
00
00
00
00
00
00
00
00
00
00
00
00
00
00
00
00
00
00
00
00
00
00
00
00
00
00
00
00
00
00
00
00
00
00
00
00
00
00
00
00
00
00
00
00
00
00
00
00
00
00
00
00
00
00
00
00
00
00
00
00
00
00
00
00
00
00
00
00
00
00
00
00
00
00
00
00
00
00
00
00
00
00
00
00
00
00
00
00
00
00
00
00
00
00
00
00
00
00
00
00
00
00
00
00
00
00
00
00
00
00
00
00
00
00
00
00
00
00
00
00
00
00
00
00
00
00
00
00
00
00
00
00
00
00
00
00
00
00
00
00
00
00
00
00
00
00
00
00
00
00
00
00
00
00
00
00
00
00
00
00
00
00
00
00
00
00
00
00
00
00
00
00
00
00
00
00
00
00
00
00
00
00
00
00
00
00
00
00
00
00
00
00
00
00
00
00
00
00
00
00
00
00
00
00
