c4
f2
32
e1
d5
e9
05
e3
e7
cf
f2
d1
13
06
d3
fd
5a
0e
fd
dd
17
e0
1f
fc
22
01
2d
19
13
ee
e2
d3
fe
08
f2
fe
f7
07
e6
18
15
fb
12
f8
f6
0f
e8
dd
15
d5
01
ec
ff
10
f7
41
15
f6
bc
cf
49
ff
18
f3
1e
1a
14
fa
f9
ec
fd
d3
3a
0b
12
04
e1
d3
04
0d
25
dc
02
da
05
32
01
f2
e1
16
ef
e2
f6
e6
2a
f8
f2
06
e8
e7
d2
0e
b5
cc
e3
01
0f
e5
18
07
01
dd
06
22
c4
fd
20
18
f1
0d
e5
e4
03
03
13
31
29
da
f7
e0
f6
e9
f2
ed
fc
e0
2b
e1
0c
ee
ca
23
3d
0c
f1
e9
fa
e4
ef
f6
f5
48
fa
05
10
0e
f2
01
06
13
c3
ec
f5
04
05
f7
0d
e9
fc
c5
e5
1b
2d
12
d5
10
ed
27
18
15
dd
fa
1f
06
d6
db
11
ed
de
ce
ee
f3
43
18
d5
17
11
4f
d6
fd
10
25
f0
11
f1
e5
3d
fa
0d
22
04
e9
f3
e4
f9
22
05
11
0c
03
ec
e1
d6
40
d9
dd
f2
fc
05
21
ec
fe
19
de
3c
f7
05
2f
06
02
1f
06
1b
19
f2
1e
ee
d6
04
00
ff
34
ed
e1
fa
01
f1
dc
37
f9
f3
e5
30
fd
fc
df
15
fa
ee
dd
1e
f7
05
d2
e8
1f
15
fa
ec
13
f0
f9
f6
1e
d7
19
01
e0
01
f7
15
c0
fc
1a
ed
db
fb
0d
0d
0c
fb
22
08
f1
d1
0f
f1
ed
fe
15
27
c3
09
cc
ef
32
1c
d7
08
31
13
e5
19
d8
e1
f1
35
f4
03
e8
f9
17
df
e2
ca
2b
05
40
ef
e5
dd
f6
d6
f4
00
e4
f4
ba
c8
e2
01
fa
11
e0
dc
0e
dd
1a
f5
15
e6
0c
fe
e9
d0
d4
de
df
e4
08
2f
0c
03
f6
e9
04
9a
03
14
d2
ef
f9
4a
0e
18
f8
e8
19
0d
fc
ea
13
dc
df
1a
4e
fd
17
de
1c
c8
f0
1c
10
e8
ff
cb
10
f0
f7
ee
96
10
0e
0b
02
17
70
d5
e3
1a
d3
12
12
19
11
e3
d7
bf
e4
d8
98
ef
e7
de
f6
21
d9
f2
19
0f
22
c7
0e
e0
df
1b
fc
1f
1e
d9
fd
fa
c7
f1
08
11
d7
d8
f5
09
ce
0a
17
f9
f4
26
11
f3
d1
0a
f5
21
be
f4
da
42
fc
13
d4
0c
fd
c7
e7
00
00
f3
00
fb
29
e7
3b
06
d8
d6
d7
f2
0c
16
08
33
02
fc
21
f1
fa
f8
1a
04
22
f3
f2
07
12
ff
00
1f
31
2e
f4
23
0c
c0
fa
f0
ea
23
ea
fc
fd
fb
ec
e8
ee
fd
12
14
f2
f2
d7
ed
e7
09
4b
f4
22
07
f5
07
e5
04
03
ee
06
b7
01
ec
00
21
1f
05
22
18
eb
18
26
0f
fe
f6
fe
06
f4
25
09
31
2a
1d
02
01
1f
f0
f1
f6
fb
f6
27
0e
dd
16
1e
12
01
0b
e9
de
10
d7
f9
e3
23
04
25
fa
22
f1
17
ca
26
18
ee
30
04
0e
e0
d8
3a
22
b8
f7
eb
1c
0e
fa
28
df
cc
35
f2
ef
03
32
21
02
18
0b
13
15
0e
e6
14
23
3b
4f
f4
bc
b4
1a
fe
e1
e4
f9
17
1e
ec
0c
15
d4
1d
f1
17
ff
05
f6
0b
ce
5a
05
32
e1
0c
f5
f2
13
13
e0
28
28
db
f8
00
0c
e4
0b
1b
21
09
3c
1b
18
15
10
35
16
d0
ff
00
1a
37
cd
19
28
f4
35
fe
f7
15
fa
03
16
1d
05
cb
1c
ef
f3
01
14
15
0d
1c
eb
c9
02
12
01
03
04
0a
e8
fb
01
e0
01
ef
04
f0
f9
00
f9
fc
02
fd
02
20
29
1b
f9
d0
db
1e
f2
e6
09
34
f9
fd
09
f8
2e
30
22
de
2d
1f
09
3c
fd
e8
ce
1e
eb
ec
fe
20
f8
07
01
07
dc
14
1f
f3
f0
07
00
00
00
00
00
00
00
00
00
00
00
00
00
00
00
00
00
00
00
00
00
00
00
00
00
00
00
00
00
00
00
00
00
00
00
00
00
00
00
00
00
00
00
00
00
00
00
00
00
00
00
00
00
00
00
00
00
00
00
00
00
00
00
00
00
00
00
00
00
00
00
00
00
00
00
00
00
00
00
00
00
00
00
00
00
00
00
00
00
00
00
00
00
00
00
00
00
00
00
00
00
00
00
00
00
00
00
00
00
00
00
00
00
00
00
00
00
00
00
00
00
00
00
00
00
00
00
00
00
00
00
00
00
00
00
00
00
00
00
00
00
00
00
00
00
00
00
00
00
00
00
00
00
00
00
00
00
00
00
00
00
00
00
00
00
00
00
00
00
00
00
00
00
00
00
00
00
00
00
00
00
00
00
00
00
00
00
00
00
00
00
00
00
00
00
00
00
00
00
00
00
00
00
00
00
00
00
00
00
00
00
00
00
00
00
00
00
00
00
00
00
00
00
00
00
00
00
00
00
00
00
00
00
00
00
00
00
00
00
00
