28
e6
17
cd
60
f8
1e
db
de
f7
f8
c8
5d
1a
f4
fe
eb
0e
f9
dc
da
f8
f2
1c
0d
32
ff
df
da
0b
ed
12
fa
c9
16
d5
d8
3f
45
10
fa
fd
07
1e
fb
e0
55
20
e3
14
e2
31
c4
e4
17
ac
2f
38
27
f7
00
f3
f6
f5
33
bc
e1
0f
0d
2e
fe
f6
58
23
fc
09
05
ca
f7
e3
0f
14
cf
da
ca
11
d9
13
44
12
e7
f2
21
32
ed
d0
03
33
1c
0a
02
24
2f
2a
ef
1a
d3
20
0b
28
08
f7
bf
0d
e1
19
f0
45
cb
0c
27
17
c0
03
ea
f7
1a
e8
