11
11
06
db
f6
19
0d
26
07
fe
f5
ee
0f
ff
f6
13
ff
0f
d0
e4
24
eb
0a
f4
04
e6
d9
49
19
21
cb
07
f4
00
f3
f8
35
00
1e
0f
e5
d9
13
14
30
29
35
0e
e1
d7
33
0c
d0
09
25
1b
19
11
ed
07
f6
13
03
fd
1f
19
e1
f7
1e
de
21
24
39
20
10
e4
05
ed
d8
0e
fd
00
c9
03
15
22
18
20
f0
0b
d7
00
0b
f4
1e
de
15
f0
e0
e2
0e
32
01
1b
e1
00
f6
f8
e7
07
23
0f
03
1d
fa
f1
fd
f6
1f
cd
21
ef
d3
16
10
f5
fb
19
e1
e1
3d
09
1a
2b
f2
23
d3
f3
28
fa
ef
fb
14
d6
f5
ce
25
f2
f7
f9
00
16
ee
3d
f2
30
14
eb
02
10
22
04
2a
eb
33
03
f2
f6
db
f8
01
df
fb
2c
eb
28
03
c7
df
f8
08
1c
02
f0
ec
a7
19
fa
d4
12
fe
f2
0e
fd
de
da
26
2e
d6
34
10
e0
0b
ce
f7
17
24
0f
d1
f6
1a
cc
2c
d9
ed
fd
f4
2c
f3
e5
e5
36
f1
20
fb
13
e9
f8
08
f2
e0
da
df
f8
08
03
c3
f9
29
23
d4
ed
03
cf
e5
07
02
15
1c
e4
0f
fa
de
e1
1e
0c
00
db
28
bc
14
fa
dc
ec
02
f9
31
ea
fa
04
e7
f6
0e
2a
11
ff
11
2b
16
fb
d1
02
fe
ec
26
fa
f4
10
3c
0e
22
f9
1f
e2
58
32
0d
e6
f2
e6
4b
de
17
00
e8
f8
1c
34
da
30
f4
fe
0c
fb
fc
ee
fb
f0
e0
f7
f0
fb
43
1e
21
ec
0a
e6
f4
b0
06
0c
06
38
ef
1d
f2
f3
fc
d4
05
14
25
e3
ef
e2
e2
ce
18
04
f1
ea
f8
f5
e3
c6
ec
17
2e
dc
e7
35
ec
0b
c6
f1
03
3e
d4
ee
b0
ea
ea
f6
03
f6
eb
19
d6
fb
06
06
11
ec
f6
12
03
03
0c
ad
0b
0e
44
fd
f5
cf
f9
16
03
e0
dd
27
e9
3b
e1
1f
13
b4
d6
03
ab
11
1e
ea
ec
ee
20
1c
f4
f1
db
c0
04
fb
e4
fd
18
06
fa
19
13
fd
ef
3d
dd
0a
f8
e2
f6
04
ca
05
59
fb
fc
01
ca
fc
ec
0f
20
09
18
3a
cc
dc
13
fa
f4
f6
e0
fc
3d
21
0d
2a
e5
e1
2c
e8
1a
fd
fa
fc
1f
fa
21
24
d7
15
dd
12
28
f8
18
ce
06
e2
0b
0a
e7
16
c8
cf
de
23
eb
f4
03
1d
22
1f
ee
48
ef
d7
06
36
23
ec
ba
1e
e8
ec
d6
06
07
0a
eb
0f
1f
c3
fd
06
fd
ca
3e
e7
2b
fd
f3
08
dc
09
18
de
0a
12
fa
0a
12
05
f5
2d
13
1a
09
40
12
eb
1f
ba
f9
06
ea
f3
d7
37
df
e2
0e
cf
e6
07
41
03
f9
ee
0e
f7
00
e7
e4
07
ec
db
0e
07
0d
ee
0a
ae
0b
04
e2
0a
ef
09
45
10
f3
07
e3
c8
03
e4
e7
da
d0
1c
ca
04
23
22
f4
e7
ef
14
f8
d1
f3
1d
09
ee
dc
d1
fb
34
ea
f6
0b
f0
f2
32
f1
13
d2
25
1f
0a
09
0c
fc
11
09
0a
2d
eb
1d
fc
f3
29
f2
02
0a
07
e7
f5
1b
0e
10
ca
ce
c4
f8
01
05
0c
2c
df
f3
f4
c0
e9
27
0b
b8
ff
ff
14
01
1b
44
cf
fc
e6
1e
e6
e7
f7
17
05
36
18
fc
f7
0f
2e
dd
de
ff
30
e4
dd
11
28
2d
f9
21
16
f8
1b
33
dc
05
1a
22
1e
25
e5
19
0d
25
2d
db
20
ff
01
fa
01
f4
04
fb
0a
fe
1e
2c
e0
da
ca
10
1f
c6
e9
d5
0d
f4
f0
a2
e8
f7
e6
19
ed
f5
ef
33
16
e6
01
06
eb
d2
e4
1c
0c
0c
d6
e9
f6
04
2e
15
02
42
04
08
17
e9
d9
02
04
0f
e7
2a
02
ef
da
13
2a
18
09
eb
03
00
00
00
00
00
00
00
00
00
00
00
00
00
00
00
00
00
00
00
00
00
00
00
00
00
00
00
00
00
00
00
00
00
00
00
00
00
00
00
00
00
00
00
00
00
00
00
00
00
00
00
00
00
00
00
00
00
00
00
00
00
00
00
00
00
00
00
00
00
00
00
00
00
00
00
00
00
00
00
00
00
00
00
00
00
00
00
00
00
00
00
00
00
00
00
00
00
00
00
00
00
00
00
00
00
00
00
00
00
00
00
00
00
00
00
00
00
00
00
00
00
00
00
00
00
00
00
00
00
00
00
00
00
00
00
00
00
00
00
00
00
00
00
00
00
00
00
00
00
00
00
00
00
00
00
00
00
00
00
00
00
00
00
00
00
00
00
00
00
00
00
00
00
00
00
00
00
00
00
00
00
00
00
00
00
00
00
00
00
00
00
00
00
00
00
00
00
00
00
00
00
00
00
00
00
00
00
00
00
00
00
00
00
00
00
00
00
00
00
00
00
00
00
00
00
00
00
00
00
00
00
00
00
00
00
00
00
00
00
00
