04
05
f3
22
14
e5
d8
f7
01
c6
cf
07
12
ee
d1
12
b1
2f
0b
e0
05
11
2f
cb
1e
e4
d7
ff
f5
1d
1a
fb
e7
20
20
01
df
21
e1
04
e3
0f
0d
de
00
30
f7
0b
0f
0a
e3
0f
00
0a
0b
2a
f2
1e
ea
f3
21
1d
06
f3
10
fb
01
f9
fd
17
1e
b1
3b
fd
db
0b
d8
de
ff
08
3d
02
fa
e2
25
fc
25
18
fe
e9
e1
fd
11
05
04
d3
1f
f4
14
ef
0e
0e
e4
0d
36
24
07
04
da
41
1b
f2
31
e3
f8
ee
cc
d8
49
22
dc
1f
1b
cb
16
1d
f8
f3
d9
1c
f2
2e
0c
f5
11
21
ea
13
23
f6
2d
0e
1c
fc
d5
e9
f8
06
12
dc
3a
ea
c7
f2
fe
2e
03
e1
f2
f5
16
25
1f
05
dc
17
e4
02
e1
f0
ea
fa
10
ea
ef
d9
e3
ef
1a
d9
04
02
01
fe
fb
d9
12
df
0b
11
f0
13
f5
02
ed
eb
e4
f3
f4
05
f6
fc
fb
13
fa
03
00
09
13
fb
16
1b
f7
1e
f3
e6
28
15
03
03
33
cb
e6
cc
e2
d8
1c
2e
fa
dd
19
18
1d
0e
ec
f3
36
c0
04
1b
0a
27
ce
05
02
f0
e5
23
d7
e9
0c
17
e6
e8
e5
f8
13
d7
d9
e0
04
00
eb
21
2c
07
ec
f7
db
15
17
06
05
d0
06
11
fc
d4
2c
f0
e2
fc
fc
da
34
fe
19
e9
ec
f4
fd
d9
ff
07
07
eb
ea
d8
04
f3
e5
f8
0e
e6
01
ff
1a
e8
20
f8
ef
f5
fb
00
f6
dd
f8
e0
16
0d
f7
3a
08
f1
05
da
03
ee
ff
d5
1d
07
dd
ec
1f
03
33
13
ea
ff
02
21
07
e4
e7
df
12
06
f1
05
09
cf
10
01
2c
0f
15
f1
f7
d8
ee
cf
e7
dd
f9
ee
10
0b
23
27
ff
fd
e3
03
fa
1b
f1
19
da
17
0f
00
fe
13
d4
eb
eb
dc
f1
0d
0b
13
f2
fe
07
04
4f
e7
f2
03
fd
ea
0d
27
ff
ee
f3
1b
d7
0c
f1
04
17
15
28
f7
f3
00
de
0b
ea
08
e4
fd
ed
00
12
1d
c8
f9
d4
b3
02
fb
00
fb
fa
24
ee
d6
e2
0f
04
d2
15
f6
f6
e5
f2
21
ed
2d
14
16
12
ec
0c
09
12
21
c9
25
e7
f5
f7
f8
1f
e3
09
fb
fd
dc
4b
38
f4
10
25
fc
10
f1
01
3b
d8
2f
eb
03
e3
e7
13
2f
d4
ef
e6
08
13
fb
15
01
ee
0e
e8
fb
37
01
02
21
07
3c
0e
d8
0b
e3
28
a8
f2
04
20
05
e4
e1
28
09
2e
f8
e2
e8
ff
09
04
e6
2d
f1
d3
05
e6
f3
ff
ce
f5
0b
f9
f6
11
b7
f7
00
c4
20
f4
26
f5
e8
1d
e5
f9
0d
25
e3
ee
0c
06
2d
fe
03
00
d4
09
eb
40
01
09
11
3b
00
13
17
0a
42
05
19
3a
fc
01
06
e9
0d
17
ee
02
ef
f4
03
01
10
2d
f5
07
04
01
20
0d
f8
05
1a
f7
fc
e6
0c
01
1b
0d
f1
18
11
22
0e
01
df
f5
c8
f5
0e
0a
13
0a
15
10
00
03
2d
20
eb
00
30
f0
14
e4
13
ee
cd
1a
ef
fc
db
ef
06
f8
22
1f
13
d7
de
1e
10
1f
13
f1
0c
0c
d9
12
0e
da
fd
f7
17
0a
fd
ef
12
12
1a
0e
b3
25
00
07
1e
e6
14
1b
11
e5
09
fe
da
08
07
ef
17
e8
05
18
2a
ee
0e
f3
e2
d4
fa
f3
17
ca
d2
cd
0c
e2
04
e6
32
01
1a
f1
f6
fd
e5
24
50
d9
0f
1a
0f
f3
eb
13
f6
fc
e8
f9
ec
f5
d5
27
f8
e9
cb
1f
02
22
0c
f8
1b
09
00
d9
1c
09
1a
ea
08
02
d8
f2
00
32
27
08
fa
02
ee
fe
17
10
d9
07
0f
f1
0d
13
f4
20
17
1a
3a
15
1e
f2
f6
0a
f4
4a
f3
d5
ee
00
00
00
00
00
00
00
00
00
00
00
00
00
00
00
00
00
00
00
00
00
00
00
00
00
00
00
00
00
00
00
00
00
00
00
00
00
00
00
00
00
00
00
00
00
00
00
00
00
00
00
00
00
00
00
00
00
00
00
00
00
00
00
00
00
00
00
00
00
00
00
00
00
00
00
00
00
00
00
00
00
00
00
00
00
00
00
00
00
00
00
00
00
00
00
00
00
00
00
00
00
00
00
00
00
00
00
00
00
00
00
00
00
00
00
00
00
00
00
00
00
00
00
00
00
00
00
00
00
00
00
00
00
00
00
00
00
00
00
00
00
00
00
00
00
00
00
00
00
00
00
00
00
00
00
00
00
00
00
00
00
00
00
00
00
00
00
00
00
00
00
00
00
00
00
00
00
00
00
00
00
00
00
00
00
00
00
00
00
00
00
00
00
00
00
00
00
00
00
00
00
00
00
00
00
00
00
00
00
00
00
00
00
00
00
00
00
00
00
00
00
00
00
00
00
00
00
00
00
00
00
00
00
00
00
00
00
00
00
00
