b6
03
3c
c9
20
e4
16
fb
06
f7
ff
2f
f4
02
03
fa
07
28
cc
de
f2
e9
e2
01
fa
aa
12
fc
0a
1f
33
e9
ed
10
ee
2e
ed
b2
01
03
d9
12
d6
fb
f9
aa
26
01
d9
4a
1f
1d
fb
3d
c1
10
e9
05
e8
cc
2a
f6
f6
39
ea
00
f2
d5
29
dd
32
28
b2
31
e3
f9
f1
f8
ff
bb
0f
f4
f3
08
0e
f9
f8
12
0b
0a
40
20
fc
e8
c9
01
cb
fe
e8
e9
0b
17
e8
dc
e6
13
07
62
f2
10
d2
29
fa
25
3c
04
1f
14
43
ea
0e
13
ef
02
33
08
37
0f
