f7
b6
38
23
e3
07
ce
1b
df
52
fe
16
ef
fa
fc
fb
09
02
19
d5
0c
a3
3d
f5
bb
e8
cc
35
2d
bd
ba
eb
3c
0f
e8
39
1a
e4
03
f1
1d
e6
07
e7
26
20
f7
1d
cd
4c
bb
e0
fd
ea
0d
ff
16
08
c3
07
df
04
67
01
e0
d8
01
10
fa
12
36
08
f9
17
ed
2c
0b
ec
d9
da
e0
0e
ee
1c
fa
f5
f4
1d
0a
3c
0f
f8
1b
eb
db
f7
0a
dd
d0
ee
db
1d
fd
e3
07
06
fe
35
11
c0
1e
41
19
0c
f7
f7
26
3c
45
1e
ec
de
f3
d3
1c
07
ff
12
