ed
1f
18
fb
2c
01
fd
12
f0
ff
eb
e9
da
f7
3f
0d
f8
07
fd
1a
f0
c8
04
38
e9
eb
fe
34
14
d0
09
08
f1
b4
f3
2d
ec
19
0e
26
18
f7
14
f9
f2
21
32
24
ea
ee
f9
e2
07
ec
df
f1
e3
ee
ec
14
1d
13
07
fc
21
1a
d5
0c
e1
f6
2c
e5
fe
0e
bf
ff
1c
e1
ef
e6
e9
e8
ef
e6
05
f5
02
f1
eb
ea
fd
d4
fc
1c
d8
37
0a
f3
fd
eb
02
ee
1e
e6
f3
f7
f6
fb
fe
1b
e2
11
fa
1c
48
1a
02
db
2f
df
03
05
01
f7
ee
18
c7
fc
00
f9
13
14
28
f8
0d
bf
ff
08
e2
05
ee
d5
30
fb
e4
28
08
06
1e
16
0a
1f
44
ee
e3
ed
14
1b
5f
0f
f9
24
02
14
f0
e0
0a
14
f9
f7
ce
ee
e2
d6
25
07
da
0b
00
d4
f1
b5
e0
06
e8
fb
1d
fa
0e
23
28
d5
0a
eb
c3
0b
06
1f
0f
fe
f9
eb
eb
dd
22
e1
15
0d
ff
d8
f2
06
fb
31
04
ed
10
ff
bd
dd
f6
ff
ee
11
da
df
06
1d
ca
f7
fa
fc
16
10
fd
12
fb
b5
9d
18
27
31
15
dc
05
ed
f3
04
18
d2
fa
29
f4
09
e5
13
f1
2a
15
0b
ef
df
de
e2
00
e2
fd
e9
fa
fd
f3
f2
25
c9
f1
19
07
dd
e4
f6
04
ff
15
eb
f8
10
1a
1c
2c
10
fe
1f
f0
df
19
f8
11
3b
ec
ed
dc
f1
ff
f7
23
01
1a
1e
d0
fa
f4
ff
27
ed
e8
0e
0f
1e
29
1a
00
f3
1b
23
04
df
22
cc
08
0f
01
ec
40
e1
ee
07
c7
08
fa
14
08
52
ff
0d
2a
f2
fb
ec
0b
f4
fa
23
1d
ef
10
11
f2
f0
f7
d4
07
21
0c
01
f9
cb
fd
05
07
20
0e
19
e6
08
17
05
fb
1c
e9
26
fb
0f
1d
db
08
08
07
0a
d4
f2
1b
1d
30
14
e8
f2
d9
f3
f0
d9
02
e4
12
01
0b
e2
48
e6
23
ed
f5
ed
03
0f
05
16
da
e1
fb
d7
f8
e9
07
e3
fe
13
f5
1b
1d
16
f6
dd
25
23
e9
ea
0d
d7
de
fd
de
2e
06
f0
0a
dd
18
01
09
46
05
f1
02
09
0e
f8
e7
f5
1d
e8
1f
3e
25
e1
1e
17
0b
ea
09
05
d5
ce
c6
03
05
02
20
d5
fa
f5
0c
57
02
24
df
01
28
f1
57
f0
d7
3c
0d
d9
fb
fb
f2
19
09
da
1d
29
2b
27
e0
fc
e1
20
e4
05
d4
ed
e9
0c
ef
04
0f
e9
c3
d9
f0
f6
ea
0c
03
18
f0
26
be
f7
e8
e2
06
f9
15
f8
0e
12
35
eb
e9
19
17
ee
d3
fa
ee
13
d0
e7
e1
1c
eb
fa
18
00
e1
0d
df
2b
ee
fa
15
03
f6
12
11
fe
f4
d9
f7
fd
13
00
fe
1b
f6
01
12
eb
ae
28
17
c0
fe
f8
e1
11
e9
d7
00
03
f2
e6
28
09
23
e4
ea
0e
12
f7
f1
d6
0a
ef
fd
f0
e8
07
eb
d1
08
26
ed
41
cd
11
e0
0b
e7
04
cc
e8
e7
f2
f7
12
0b
12
d5
d2
f1
13
eb
f2
04
16
1b
0a
ff
19
0c
03
25
03
17
ea
f0
fc
07
ff
bf
f6
03
fa
04
f3
d5
05
0c
02
2d
fd
e8
d3
20
00
d3
12
12
fc
f3
f5
1b
44
e5
fc
1c
ae
09
0a
e6
ce
2a
05
fa
ea
19
f0
e8
fe
0b
09
ff
00
fc
0a
07
cb
09
fe
1e
db
e5
0f
e5
08
04
ef
f1
0e
c6
f0
fc
fa
1c
ff
2c
32
ea
fd
29
e7
27
f5
c6
e9
d5
ee
f9
e8
0b
08
be
19
f2
04
fd
17
c1
f6
de
2e
1c
f6
33
e6
02
f0
0b
2f
f7
da
0b
ef
09
0d
19
16
cd
f8
fe
05
2e
0a
0c
f7
18
ec
cf
ff
3a
03
00
21
18
0d
f9
d9
fd
07
07
0d
00
00
00
00
00
00
00
00
00
00
00
00
00
00
00
00
00
00
00
00
00
00
00
00
00
00
00
00
00
00
00
00
00
00
00
00
00
00
00
00
00
00
00
00
00
00
00
00
00
00
00
00
00
00
00
00
00
00
00
00
00
00
00
00
00
00
00
00
00
00
00
00
00
00
00
00
00
00
00
00
00
00
00
00
00
00
00
00
00
00
00
00
00
00
00
00
00
00
00
00
00
00
00
00
00
00
00
00
00
00
00
00
00
00
00
00
00
00
00
00
00
00
00
00
00
00
00
00
00
00
00
00
00
00
00
00
00
00
00
00
00
00
00
00
00
00
00
00
00
00
00
00
00
00
00
00
00
00
00
00
00
00
00
00
00
00
00
00
00
00
00
00
00
00
00
00
00
00
00
00
00
00
00
00
00
00
00
00
00
00
00
00
00
00
00
00
00
00
00
00
00
00
00
00
00
00
00
00
00
00
00
00
00
00
00
00
00
00
00
00
00
00
00
00
00
00
00
00
00
00
00
00
00
00
00
00
00
00
00
00
