11
16
f1
12
f2
e4
eb
dd
05
ea
26
16
d1
fc
c2
1d
eb
fc
f0
16
09
1b
01
0c
1c
2c
25
d2
03
f8
f9
ec
15
bd
50
fc
eb
d3
ec
03
12
ee
f5
0a
e4
06
0e
fb
28
19
e9
db
02
f4
33
07
15
2a
e2
d0
e9
df
20
fb
06
30
fa
f5
1f
1c
12
ea
e8
11
f1
eb
a3
da
14
e2
0c
ee
df
d5
01
f0
f7
0a
f4
d6
3f
ae
fd
22
ee
f9
09
a9
f0
c5
23
cf
ee
5a
e3
ea
cc
18
0e
26
15
bd
ff
dc
ea
fa
f5
ed
40
b8
0d
fc
11
fb
05
00
d8
13
