e5
40
f4
f8
08
04
09
20
e4
11
f1
33
08
14
e0
d7
ce
00
c6
02
0d
f4
c6
0b
ff
e2
f0
ff
f4
ce
0b
04
db
f7
ea
16
e7
eb
c9
fd
04
f2
ff
29
12
d1
ed
fe
e5
43
fa
d0
22
f6
14
01
40
1f
d9
f9
fc
e2
e0
0d
fb
2b
06
18
0b
2d
2d
12
ba
f1
ec
ee
f4
f1
df
08
21
ec
0c
1d
d7
f0
e7
c2
fa
01
cf
ff
0e
03
14
11
e6
20
df
05
f3
cb
d9
11
1c
0e
02
09
0e
19
04
ef
1d
ff
1c
d3
0f
33
09
f0
eb
f9
09
2c
f1
e5
0e
d8
e4
e6
05
dd
19
03
20
24
04
3b
1a
23
03
14
08
e6
4d
0a
da
2a
ea
06
09
e5
ef
d9
e1
d5
fe
e8
1b
e5
13
ec
e5
08
f2
d8
f6
29
f4
ee
cd
15
ff
1b
08
ff
f8
ea
e5
17
07
ec
10
22
14
47
f9
15
fd
fe
1c
2a
19
14
15
0d
29
05
31
0c
13
03
ef
10
e2
21
05
01
0b
15
2c
e1
fb
3d
fc
f3
06
0c
00
fb
06
02
1e
0c
f2
15
fd
f1
f0
07
fd
f7
0e
d9
f0
e7
2f
14
08
1e
fd
13
fe
dc
14
0b
17
e9
03
f4
f1
cc
d3
01
d4
f1
0f
fa
db
e8
16
11
16
e3
ca
f6
1a
17
00
04
09
0d
02
0c
1e
29
09
da
c9
ee
f5
23
34
ec
e6
0d
15
f5
0d
ff
fa
ee
16
07
d1
3a
1c
0f
f5
ef
f1
0c
b3
f3
5a
0c
c2
00
e0
25
1d
f3
fb
02
05
01
ea
12
ed
1b
ec
0d
e0
ed
f9
f4
17
11
e5
e6
d8
ff
fb
fc
04
e3
03
08
39
f0
05
04
fb
e9
0b
d5
fe
18
04
04
11
b5
05
12
d5
e2
e5
2a
f3
01
f9
f6
d0
24
e5
01
27
00
f2
eb
21
ed
01
05
13
f6
d3
b3
fd
e1
dc
e7
d0
ff
f2
17
ef
17
2d
fe
ed
e9
e1
0f
ef
f8
0a
19
f9
f5
0c
f1
fd
e5
e9
ea
ef
11
05
0f
24
ec
f0
ea
00
14
fd
e9
fb
17
0e
f1
17
02
01
f7
f7
05
02
d2
df
04
e4
cd
0e
1a
13
22
24
18
20
ef
11
00
e3
18
29
f5
18
0a
f8
da
05
c1
db
fb
c4
02
f8
f0
e0
08
dc
f9
29
09
16
f4
25
e5
15
f6
ec
e3
1b
f5
f5
ed
03
f5
31
08
f3
ec
09
e6
11
ca
07
0e
c4
1b
ec
eb
05
f9
e6
ea
20
f0
f9
16
14
d1
19
f2
23
fb
1a
d4
20
f7
dd
03
03
26
ed
e3
58
f7
1b
2b
db
e3
21
0b
08
e8
0f
05
14
1c
61
cb
df
ee
16
fc
fa
f9
e3
f3
df
f3
08
02
33
12
f7
f7
08
d1
f0
e3
d4
04
08
0b
26
fa
e5
ec
d7
f8
f0
ff
e9
07
25
a6
02
fd
fe
e4
de
0f
00
fc
1f
e7
b8
fe
0c
00
0e
00
e7
24
f5
e1
ec
e5
fe
f0
1f
ed
c8
05
14
1b
05
e3
25
04
1c
09
df
f1
bc
1b
2f
f2
00
10
32
1d
1b
d6
10
c6
f8
e6
ea
e4
fd
13
fc
d0
09
2b
e1
f6
0c
fc
fa
0b
27
1f
14
fc
e3
29
0a
f5
fe
28
2c
12
d4
f4
1c
0a
da
17
f6
df
1c
38
f4
22
cc
00
fe
10
e3
be
f3
f3
37
f5
f9
2d
e5
18
45
12
fe
f7
06
ff
fd
00
b6
fe
f2
fe
e7
01
05
02
24
ea
11
3b
15
1a
fb
23
f0
e0
26
05
17
37
f8
0a
ec
00
44
cb
05
10
ee
12
ed
3c
fb
d6
cd
11
17
27
0f
fe
1a
e6
32
19
e7
fb
f8
fc
d2
16
fe
03
04
0f
e6
ed
ed
f1
32
11
f4
e0
f2
1e
09
20
d7
fb
2f
fe
07
d5
f0
fe
17
e0
16
29
23
47
26
0f
23
fd
0c
f9
00
e8
11
e5
dc
12
1b
05
f0
06
17
22
1b
28
00
00
00
00
00
00
00
00
00
00
00
00
00
00
00
00
00
00
00
00
00
00
00
00
00
00
00
00
00
00
00
00
00
00
00
00
00
00
00
00
00
00
00
00
00
00
00
00
00
00
00
00
00
00
00
00
00
00
00
00
00
00
00
00
00
00
00
00
00
00
00
00
00
00
00
00
00
00
00
00
00
00
00
00
00
00
00
00
00
00
00
00
00
00
00
00
00
00
00
00
00
00
00
00
00
00
00
00
00
00
00
00
00
00
00
00
00
00
00
00
00
00
00
00
00
00
00
00
00
00
00
00
00
00
00
00
00
00
00
00
00
00
00
00
00
00
00
00
00
00
00
00
00
00
00
00
00
00
00
00
00
00
00
00
00
00
00
00
00
00
00
00
00
00
00
00
00
00
00
00
00
00
00
00
00
00
00
00
00
00
00
00
00
00
00
00
00
00
00
00
00
00
00
00
00
00
00
00
00
00
00
00
00
00
00
00
00
00
00
00
00
00
00
00
00
00
00
00
00
00
00
00
00
00
00
00
00
00
00
00
