ed
d9
14
3f
f5
1e
d9
ec
f1
14
ea
24
22
d6
f6
22
3d
1a
14
e8
f5
00
bc
d4
0f
15
ad
ff
26
cc
f3
02
f1
09
dc
3e
0b
42
0a
14
c5
07
c8
c7
e2
cd
3f
ee
df
24
b6
12
14
e1
ee
00
21
d8
db
e0
07
f7
13
f2
f6
3b
fd
0b
fb
d9
f4
d6
ff
18
d8
2b
cf
d8
fb
29
6e
b8
f2
2c
c3
df
26
26
f1
09
f7
d3
f6
2a
c7
c1
b4
1c
eb
be
f5
1f
07
f7
dd
32
1d
09
ea
27
42
fa
0b
f2
06
fc
20
00
f2
e5
d0
fb
d0
22
e3
23
fd
12
