fe
14
f3
fa
f9
02
2d
44
24
d5
27
2f
e4
1f
df
02
3f
27
23
fa
13
05
1b
38
1e
12
22
0f
2a
b8
1d
de
4e
16
fa
f2
0f
2f
1e
d7
e1
23
1b
12
e5
e4
fa
2b
df
e0
0c
f7
1c
06
00
1f
0e
5b
28
f9
03
0b
e5
35
eb
d9
21
20
b7
bb
fa
d2
df
f0
cd
15
ea
0f
0b
33
fa
19
0a
ea
e5
00
09
06
0e
01
e6
38
19
c3
05
09
0c
d6
ff
d5
fc
f7
eb
0d
0d
0c
f1
0a
13
20
e4
12
1a
29
35
22
d2
fa
e2
03
cf
12
27
ef
25
15
b3
e2
