f6
f0
d9
f2
0d
14
1d
03
e4
07
ee
12
df
1f
0d
0b
41
d0
15
1f
e6
1f
1a
0a
08
21
fa
21
25
f3
06
0e
29
0c
39
20
e7
0e
2f
16
f5
f8
11
e2
2a
15
07
08
fc
21
02
09
e5
14
12
d4
fc
13
d0
06
06
ed
06
e6
12
26
32
f7
d8
f6
ed
f1
f1
ec
0f
fa
fa
fe
0c
39
fb
fc
e6
e9
22
eb
36
e8
f9
dd
ed
0a
cf
d6
fe
c6
f9
09
d5
30
c9
eb
e1
e9
d9
15
01
24
26
1d
e8
de
34
f7
d8
08
08
ea
34
f6
17
eb
29
95
ec
ef
0f
01
18
0a
24
f6
1c
24
d4
ed
ea
36
23
fc
00
dd
eb
fe
1b
b4
0d
1b
f3
ff
0b
0f
b1
0d
12
ea
dc
e6
d3
00
05
05
f9
19
22
dc
ec
15
10
df
3a
f8
d1
45
0a
03
02
ec
0b
1f
32
15
da
f8
f7
15
06
11
25
e9
c8
17
e4
e2
ff
ff
c1
2b
f2
d4
26
07
e5
f2
ea
0c
e1
13
27
27
fc
0d
06
f0
22
11
08
0a
10
20
11
c8
f3
fc
f1
13
09
03
00
16
1b
02
08
19
d3
bd
df
25
fa
13
00
13
01
e7
07
12
24
cc
fe
e6
03
da
ef
03
fd
16
17
0c
e1
1e
0b
12
04
cf
d4
f3
e8
fa
f3
01
13
e7
0e
59
fa
1b
f0
1d
f5
1a
16
2c
2c
d5
fd
d1
0a
02
d9
dc
1d
13
0b
09
c2
f1
1c
f3
0e
45
f7
2b
f1
f1
c4
e1
f0
36
e1
dd
0f
1b
26
ec
1f
ea
25
e3
08
f5
df
fa
fd
ff
28
1f
13
c7
0e
ff
14
e9
11
46
f0
06
11
f7
4f
0f
f4
ee
e9
ed
f9
d6
01
ea
2b
d7
fb
e2
e5
f1
fe
0e
ee
da
ec
fc
cc
e6
37
e9
24
1d
fd
07
fc
fb
0e
23
f5
ee
f4
ec
32
b4
10
14
1d
32
0f
04
e9
0e
09
06
0f
f4
01
eb
13
e6
01
e7
20
ed
e6
ff
fe
02
07
ec
2c
f8
1a
f8
21
05
fd
e9
fc
0c
c9
fc
02
e6
15
00
32
f0
da
05
07
d6
c3
e1
2d
f5
e1
f4
ec
cb
ee
05
1e
eb
0d
da
04
f8
f7
29
fa
f1
f6
dd
1a
f4
bf
e9
2e
1a
f3
e6
08
da
f7
f1
13
e1
21
ec
fc
f9
f7
f1
45
c4
ea
0e
24
1e
c7
15
01
ff
cf
1d
f1
c6
05
f4
15
fa
3a
19
02
d5
12
dd
f9
08
ca
16
dd
ef
ed
f7
e5
16
0c
16
eb
b7
fd
e9
e5
e9
dd
16
0c
f9
33
f1
02
f7
db
f7
f7
1c
0f
c1
00
0f
ce
0f
0b
17
e0
ed
fa
dd
f9
f0
cd
f2
fa
05
37
f5
ed
f6
0c
ce
20
25
2d
fd
bf
ce
f3
32
f0
d2
de
fb
0b
fa
fa
ea
1f
ed
f1
38
f2
35
00
f2
fd
f0
4c
f7
ec
01
21
f3
ea
de
d6
f5
04
ea
20
08
0a
fe
d1
e1
f9
f2
f9
02
46
0d
f5
16
01
c4
d2
cb
0e
ed
f1
f0
fb
15
f0
fd
25
e8
23
16
e5
12
1c
f2
b1
34
21
0e
fe
f3
0e
d7
09
03
05
e9
d3
05
ec
f5
2f
f0
1f
2d
ef
08
1b
0e
f6
fb
11
07
11
27
1a
15
26
0f
0e
36
2f
06
0e
30
45
11
03
04
d4
15
f1
01
0e
05
03
ff
f5
1d
18
d6
ef
e4
f5
e2
d0
ef
3a
04
07
dc
e4
0c
03
e8
22
d9
fe
f6
22
ed
fe
ff
20
d7
2c
ff
0d
fd
1c
f7
d0
13
f9
f4
e6
d3
e4
d9
e3
f1
f8
e3
14
f0
0e
00
16
f4
fc
cd
27
1a
32
04
04
03
32
e0
ed
f2
e0
22
c0
fc
ff
fb
05
07
0e
fb
07
e0
ed
0d
1a
f5
0e
ea
27
10
fd
01
2a
0f
fa
f7
ff
c9
eb
ed
28
dc
1e
18
00
10
0e
f7
02
df
f8
bf
ea
1d
0d
d4
08
f8
11
d6
00
00
00
00
00
00
00
00
00
00
00
00
00
00
00
00
00
00
00
00
00
00
00
00
00
00
00
00
00
00
00
00
00
00
00
00
00
00
00
00
00
00
00
00
00
00
00
00
00
00
00
00
00
00
00
00
00
00
00
00
00
00
00
00
00
00
00
00
00
00
00
00
00
00
00
00
00
00
00
00
00
00
00
00
00
00
00
00
00
00
00
00
00
00
00
00
00
00
00
00
00
00
00
00
00
00
00
00
00
00
00
00
00
00
00
00
00
00
00
00
00
00
00
00
00
00
00
00
00
00
00
00
00
00
00
00
00
00
00
00
00
00
00
00
00
00
00
00
00
00
00
00
00
00
00
00
00
00
00
00
00
00
00
00
00
00
00
00
00
00
00
00
00
00
00
00
00
00
00
00
00
00
00
00
00
00
00
00
00
00
00
00
00
00
00
00
00
00
00
00
00
00
00
00
00
00
00
00
00
00
00
00
00
00
00
00
00
00
00
00
00
00
00
00
00
00
00
00
00
00
00
00
00
00
00
00
00
00
00
00
