dd
0e
11
06
28
e3
1d
f5
16
1c
3b
e1
d0
fc
ef
3f
ef
08
e4
f9
30
fc
2c
0a
0c
e8
db
0d
0f
f0
f5
21
14
33
0f
ff
2c
ef
e4
e2
2b
df
f5
42
0d
f3
0c
f1
fa
eb
e2
13
f4
fa
12
02
0d
f4
f1
ec
0b
bc
f2
24
f8
df
02
02
26
ed
0b
08
00
06
20
0b
e0
f1
28
24
1c
10
03
18
ff
27
f4
10
d2
07
0b
f9
05
e6
ef
e3
ef
4f
fe
ed
ef
2e
06
fc
da
2e
fd
13
15
f0
14
14
3d
0a
f3
36
2a
f7
0a
f1
ea
ce
e2
0b
e0
f9
db
ff
0b
1a
c4
0b
07
21
fd
0a
14
16
eb
d7
ec
e3
f9
01
18
06
f9
de
fc
d6
0a
15
f9
ed
2d
f3
ed
dc
1f
11
15
0e
d2
f9
f6
fe
aa
38
d8
d6
c6
fc
11
0a
29
fc
f6
08
25
fc
ff
f7
14
fa
ee
00
15
e5
00
ea
13
0d
02
cf
ef
f9
24
12
e2
00
f1
e7
e7
03
15
0c
0a
e0
fb
0c
12
ef
18
02
03
cf
1c
3c
ee
fe
eb
1d
00
f0
ed
2f
1e
ff
0c
0b
ea
de
22
1f
fe
ce
00
06
ee
fe
04
f8
1a
0c
f4
00
f3
0d
f9
eb
09
24
11
de
f8
e7
12
07
ff
fc
0d
ef
29
09
28
eb
ef
c3
cf
38
e9
e8
ec
3a
07
f8
0e
fd
06
ff
19
ed
c8
14
04
f6
fb
e6
fa
ef
1c
02
13
ed
dd
e8
f6
0e
f9
20
01
f8
ef
14
e3
d7
ef
04
31
14
d2
07
02
ff
f1
ef
0d
fd
33
ee
02
e9
01
f7
fa
fb
ec
0f
d5
f8
0e
2f
dc
ff
11
2d
e7
18
1c
f6
f3
01
16
c9
d0
17
ca
10
2a
da
ed
cf
e9
ed
ef
e6
eb
45
3a
e0
1b
d4
e0
2b
00
da
fd
00
cf
4f
5e
20
e4
ea
03
e3
09
23
06
fb
e9
e9
d7
0e
f5
fb
0a
f3
e5
ce
23
27
02
ee
1e
e8
f7
11
1e
f5
16
00
f5
1f
f0
1f
d5
21
ea
f9
0f
fb
d2
fe
14
06
25
3f
fa
eb
02
09
01
06
0c
ee
20
0b
28
fb
c8
fb
f1
e4
eb
df
30
0e
bf
15
e7
1d
30
16
f8
fb
17
26
03
ad
27
10
d9
15
ce
0e
d3
fd
d3
d2
11
ec
fa
14
f1
03
f5
f0
ff
44
da
e6
fd
de
cc
d4
0e
1f
11
f8
f7
f1
d7
14
f9
18
d2
f2
ea
0f
09
f5
00
c7
10
ea
d6
d0
09
0c
e2
05
ef
dc
2c
db
eb
27
d0
f1
19
d9
28
08
0c
f9
e7
e9
10
15
d7
0e
11
03
ec
09
0c
19
e2
04
15
ed
2a
03
ea
ed
f9
0b
f3
02
04
2c
fd
c1
c9
e0
19
1f
f3
dd
23
27
16
e4
0a
1d
16
fc
05
d7
29
f1
e8
06
18
25
f3
13
25
10
dc
2c
e3
f5
e5
34
d6
21
fd
d0
c8
ef
06
04
ec
08
0e
01
ef
17
e2
0e
fd
41
41
ee
f9
f9
04
f6
e7
8d
1a
c8
14
f3
e4
10
26
01
f3
d0
04
2a
f6
ce
f4
dd
00
eb
ee
ea
be
c7
ef
e1
15
2f
2e
c6
0a
14
dd
28
2f
24
02
02
e7
01
06
09
c6
2f
e3
e3
ee
f8
d3
10
e5
02
da
31
26
23
1a
f3
0e
15
fe
1b
ea
05
3e
0d
25
ea
fb
f2
1c
d2
05
1b
2f
16
e4
07
29
f2
e6
10
45
ea
4f
e3
06
e8
06
fb
fb
f2
ce
0e
f7
f1
1c
e1
d5
d6
39
0b
ea
fa
fc
f8
dc
e3
fe
d3
d7
0e
24
09
f4
e7
d3
17
1f
ef
11
f3
df
f8
f9
f1
06
22
f6
00
13
07
de
02
e6
04
0a
fe
1b
e1
d6
c8
0b
24
f6
1f
fc
02
e2
2c
e4
05
3c
1c
1b
0c
ee
f3
e9
df
13
ee
df
f3
1c
db
f2
02
f5
e5
1c
da
ee
fd
c0
06
f5
e3
d9
f2
f5
01
df
06
00
00
00
00
00
00
00
00
00
00
00
00
00
00
00
00
00
00
00
00
00
00
00
00
00
00
00
00
00
00
00
00
00
00
00
00
00
00
00
00
00
00
00
00
00
00
00
00
00
00
00
00
00
00
00
00
00
00
00
00
00
00
00
00
00
00
00
00
00
00
00
00
00
00
00
00
00
00
00
00
00
00
00
00
00
00
00
00
00
00
00
00
00
00
00
00
00
00
00
00
00
00
00
00
00
00
00
00
00
00
00
00
00
00
00
00
00
00
00
00
00
00
00
00
00
00
00
00
00
00
00
00
00
00
00
00
00
00
00
00
00
00
00
00
00
00
00
00
00
00
00
00
00
00
00
00
00
00
00
00
00
00
00
00
00
00
00
00
00
00
00
00
00
00
00
00
00
00
00
00
00
00
00
00
00
00
00
00
00
00
00
00
00
00
00
00
00
00
00
00
00
00
00
00
00
00
00
00
00
00
00
00
00
00
00
00
00
00
00
00
00
00
00
00
00
00
00
00
00
00
00
00
00
00
00
00
00
00
00
00
