e3
04
08
fa
d7
dd
0e
e0
e4
14
1d
c9
0e
26
15
50
10
08
e8
06
25
ea
ec
e1
f5
f6
fe
15
15
fc
03
22
14
ff
e4
06
ed
06
f4
01
05
18
03
06
e9
df
0f
09
f6
1a
03
1d
f6
fd
00
f5
e9
11
f8
07
05
f5
11
40
d3
05
e9
1f
18
14
f8
dc
e1
25
0b
10
03
04
f6
1e
09
ca
20
1b
0a
11
11
e2
e8
13
f5
0f
fb
06
42
04
db
11
0a
27
f9
b1
0f
fc
ec
26
e4
2a
2a
14
db
19
0d
17
ff
05
d8
f0
32
e8
df
ff
e8
cf
e5
cd
da
11
c4
03
09
f2
03
0b
d6
09
37
f2
f6
d3
07
d4
3d
3b
e6
eb
c5
01
f2
0d
f9
3d
16
e2
ff
df
f0
d8
19
dc
07
13
3d
1c
f4
ff
de
03
20
4a
f3
14
d7
01
ee
07
f2
ff
22
e5
fc
e6
ef
11
21
f9
ff
fe
ef
19
c0
0d
07
15
f6
fb
09
fe
07
02
09
0f
ef
fd
d9
03
db
ef
f2
ea
f8
43
3e
0d
f5
16
02
eb
03
e0
e0
ed
fd
17
1d
1b
fc
d9
03
23
f1
ec
14
09
47
17
fe
65
05
1e
0a
d8
17
1b
ff
fa
f9
dc
10
d5
f4
08
f8
2a
ff
0e
f8
ea
fc
0b
ed
0a
ed
3a
13
0e
15
ee
fd
0a
19
00
e3
fc
f1
03
16
e2
bd
b2
fb
1c
f1
07
4d
f9
01
1b
0e
11
0f
02
ef
4b
fb
20
e0
20
e3
20
1c
fd
01
1c
1e
03
fb
31
1a
f4
cf
0f
23
0b
04
22
01
38
23
ed
0c
0c
0a
f3
e7
e3
07
cc
19
da
d9
e8
f1
1a
dc
fd
23
21
0d
25
ca
2c
0d
d3
3d
1f
0a
ce
d8
0c
df
fd
cd
40
f0
e7
f0
33
16
ef
05
e4
cc
2a
0c
09
16
12
08
0e
fc
36
2c
eb
1f
d0
cf
d7
c8
e2
e1
01
09
f9
e0
11
00
bd
da
04
1c
15
24
00
d4
0c
e2
e9
ea
08
ee
bd
fc
f2
e8
fe
24
16
ed
16
e8
f8
0d
f2
1c
15
06
ff
28
17
cd
15
e8
fe
0f
f2
f4
f1
1b
16
2a
d5
e8
e2
2f
02
0a
05
28
fa
ec
ca
fb
31
ee
14
fa
f7
eb
f8
02
f7
f3
0d
f1
fd
ee
e6
12
21
fb
f8
02
07
31
5d
0d
04
16
13
f5
e8
29
fc
f9
17
09
08
0b
f4
f1
17
d9
e3
ff
08
cf
1a
37
dd
e1
e9
0a
15
e3
07
d7
d3
ff
1f
0a
0f
d3
e0
1a
16
35
e2
e7
1e
15
e0
eb
dc
dd
fb
cf
17
db
db
f6
fd
ec
28
e0
1e
f3
d6
18
d6
0e
e3
35
ed
f5
eb
ee
fb
ea
27
e9
e3
de
30
fa
2a
df
27
c4
20
dc
04
1a
f8
0f
d8
be
11
ff
3d
dc
e2
eb
29
f7
de
0a
f6
fd
f2
24
e0
d3
16
07
1e
00
1e
f6
dc
0a
e1
10
cb
f9
22
f1
e7
21
cc
30
fb
22
0b
d1
fc
c6
a6
d9
d7
16
f4
0b
e4
22
fe
06
10
04
e1
03
0c
14
08
19
c6
fd
de
e2
00
d6
10
df
1e
fd
f9
08
e6
03
cb
1a
f2
39
1d
34
e7
01
03
f1
19
0e
1c
2d
fa
12
ed
f7
f4
1c
db
ee
0a
f5
ea
ee
35
f0
db
e7
e2
fa
ed
44
02
18
2e
0b
1b
2a
28
d1
ca
09
bc
03
f1
38
23
22
e5
2d
06
07
17
03
1a
25
f2
e5
10
f2
02
00
fc
ed
35
2a
f9
fd
0a
e0
fe
1c
04
f2
19
38
f7
03
13
04
0b
ff
04
ec
22
20
3e
36
f2
f3
0b
49
fc
38
f0
19
23
f9
f7
f6
17
e5
18
f7
04
f5
eb
0c
ef
06
ed
18
0e
44
c4
ec
e0
2d
18
f2
0a
f2
00
fb
f4
ef
38
0e
f5
ea
0c
0f
f7
23
c7
e3
e2
0f
04
e0
02
38
fc
ee
f5
2b
08
db
f2
08
15
f1
0e
00
00
00
00
00
00
00
00
00
00
00
00
00
00
00
00
00
00
00
00
00
00
00
00
00
00
00
00
00
00
00
00
00
00
00
00
00
00
00
00
00
00
00
00
00
00
00
00
00
00
00
00
00
00
00
00
00
00
00
00
00
00
00
00
00
00
00
00
00
00
00
00
00
00
00
00
00
00
00
00
00
00
00
00
00
00
00
00
00
00
00
00
00
00
00
00
00
00
00
00
00
00
00
00
00
00
00
00
00
00
00
00
00
00
00
00
00
00
00
00
00
00
00
00
00
00
00
00
00
00
00
00
00
00
00
00
00
00
00
00
00
00
00
00
00
00
00
00
00
00
00
00
00
00
00
00
00
00
00
00
00
00
00
00
00
00
00
00
00
00
00
00
00
00
00
00
00
00
00
00
00
00
00
00
00
00
00
00
00
00
00
00
00
00
00
00
00
00
00
00
00
00
00
00
00
00
00
00
00
00
00
00
00
00
00
00
00
00
00
00
00
00
00
00
00
00
00
00
00
00
00
00
00
00
00
00
00
00
00
00
