0e
0a
2e
23
fe
13
06
f3
e2
12
00
d2
1b
1d
f0
db
e0
e5
d7
ef
00
ec
eb
f8
2a
13
0b
02
fe
0e
09
ea
2b
11
f1
16
d0
d8
01
f9
1e
d4
35
e1
0a
ec
18
11
fe
14
08
e4
23
07
dc
01
e3
ef
01
01
f2
df
ee
08
3a
16
ee
e3
f2
f0
22
17
18
fa
16
f9
01
d6
22
d9
f4
e1
1a
24
2b
cf
f1
38
07
3f
f4
f4
ec
24
08
e4
e6
07
e3
fb
ec
ce
ff
32
1a
03
e5
f7
d6
fa
04
d8
e8
f0
12
e2
e0
11
15
fe
0d
f1
04
b6
39
20
ff
e8
fa
f2
ec
14
ee
ef
16
f6
01
fc
3b
f9
fc
fc
21
15
ec
14
f2
f0
00
d5
06
1b
da
d7
23
d9
ff
07
ea
02
f0
fc
0f
22
f1
07
ec
ef
fa
12
ec
16
18
fc
ef
1f
0c
eb
3b
09
11
2e
f9
f0
df
17
01
dc
0f
1e
01
f6
10
f8
b5
02
fa
fa
ee
eb
f2
e6
c2
1f
fd
f6
00
1b
28
2c
f1
03
f0
f3
f0
10
0b
06
22
de
c6
e7
e9
da
1b
31
09
f8
ea
07
fc
e1
eb
eb
03
06
06
ce
ff
27
fa
2b
10
0d
f5
06
e7
0c
dd
fc
fd
26
f0
dc
08
f7
0b
14
0c
10
35
15
25
25
ec
f3
15
00
1e
a9
e8
0d
d4
f5
0b
27
0a
f3
ee
0b
28
10
f0
f5
15
e5
23
00
fd
ff
e9
1d
38
27
f2
fc
dd
01
0a
ec
07
04
cd
00
0d
c2
03
25
b1
1b
f8
07
0d
f7
20
15
f4
f6
f2
1e
e0
d5
d8
02
ea
32
1e
ca
f3
1d
5a
26
14
23
ec
fb
27
01
12
0e
f6
12
17
1f
1d
c8
ee
3c
01
ea
ff
fd
18
ed
2d
e5
04
f7
23
f3
e0
21
d6
db
ce
0e
ed
13
14
d0
e7
0f
20
10
ea
fc
24
01
12
f1
06
fd
20
ff
e5
13
0f
1f
05
2d
df
d6
e4
0e
2c
1e
ff
f9
f7
f8
ec
db
cd
fc
f0
0c
4c
e5
dd
06
2c
fb
f3
da
f1
fa
e2
ed
e5
fe
1e
ff
f0
17
e8
e9
df
13
b1
e3
de
02
16
d3
f9
21
d2
eb
f4
16
23
1c
f1
f4
ed
46
10
1d
e4
ef
2d
e8
12
06
f9
33
ef
e5
0f
fb
1a
0c
fd
02
19
11
d1
f8
e2
49
cc
1b
ff
27
dc
ed
ec
15
df
fc
d5
ed
e1
1f
f6
de
c0
f3
13
f4
10
ed
24
06
24
51
19
23
e1
f9
0f
e8
1b
c5
f8
0f
01
2c
08
f1
06
ef
b6
e0
17
f2
28
12
14
2a
e0
19
ea
f8
1d
f7
ff
3b
55
ff
c0
f8
fd
f1
0f
e5
de
de
26
12
00
e7
ec
02
e9
d1
f7
13
ea
10
07
1f
fd
f7
3f
e0
11
cf
10
25
10
3d
01
17
c5
08
fc
0a
eb
04
d1
2d
fe
21
32
f6
f3
f4
20
29
1c
1f
ed
fa
10
d8
2e
f7
01
f1
09
e3
ed
f9
00
fe
04
b9
c1
ff
cc
e9
f3
ef
04
fe
ef
f7
08
0b
d9
0f
0a
0d
04
f7
f9
03
1d
ff
13
2d
04
eb
d9
f4
e8
c0
e5
fc
1a
03
df
d5
01
17
13
19
eb
e9
fa
10
e5
14
11
de
e9
01
02
09
35
1c
d5
cc
d8
d3
e2
28
fa
df
e7
31
c7
e5
09
be
0a
25
15
df
d9
23
f5
05
1b
f3
05
d1
1f
03
1b
0f
c8
05
02
16
04
11
e3
d6
20
19
f2
de
02
1b
f8
f0
3a
05
fb
cd
cb
18
01
d9
0a
18
16
f4
fa
03
02
f1
0b
0d
f9
ea
f4
e2
02
1e
08
ed
fa
c5
10
f1
09
01
1d
02
f4
00
ec
f2
35
fd
e3
c2
e5
1d
28
0d
08
de
07
08
03
d7
24
12
fe
f5
da
e9
21
24
dd
ed
f6
06
e6
05
2d
d4
1e
10
c8
14
e3
b3
ef
05
f1
f7
0c
04
18
23
03
ff
0a
d8
00
00
00
00
00
00
00
00
00
00
00
00
00
00
00
00
00
00
00
00
00
00
00
00
00
00
00
00
00
00
00
00
00
00
00
00
00
00
00
00
00
00
00
00
00
00
00
00
00
00
00
00
00
00
00
00
00
00
00
00
00
00
00
00
00
00
00
00
00
00
00
00
00
00
00
00
00
00
00
00
00
00
00
00
00
00
00
00
00
00
00
00
00
00
00
00
00
00
00
00
00
00
00
00
00
00
00
00
00
00
00
00
00
00
00
00
00
00
00
00
00
00
00
00
00
00
00
00
00
00
00
00
00
00
00
00
00
00
00
00
00
00
00
00
00
00
00
00
00
00
00
00
00
00
00
00
00
00
00
00
00
00
00
00
00
00
00
00
00
00
00
00
00
00
00
00
00
00
00
00
00
00
00
00
00
00
00
00
00
00
00
00
00
00
00
00
00
00
00
00
00
00
00
00
00
00
00
00
00
00
00
00
00
00
00
00
00
00
00
00
00
00
00
00
00
00
00
00
00
00
00
00
00
00
00
00
00
00
00
00
