bd
f2
5a
08
fc
f8
0b
2a
09
d7
0b
ed
39
d3
25
11
fe
e9
f3
04
08
d7
10
ae
09
53
2a
19
fa
ef
17
24
0f
e3
d3
3e
b0
e7
fe
a5
2d
db
18
0d
0a
28
16
ef
13
f1
f4
d3
22
ec
b9
ce
0c
e9
cb
19
fc
13
3e
28
21
1b
ec
1d
ea
de
15
f1
0f
1c
09
02
4d
db
01
c7
33
03
f8
ff
18
09
f6
fd
05
2a
2e
09
ef
4e
c6
d5
0a
16
09
27
26
fb
d6
0e
22
1e
05
4c
f1
24
ec
f9
fe
02
e7
fc
17
28
1f
f9
d9
fc
f7
de
d7
c3
34
d3
