ea
01
ec
f1
1a
d6
ea
2e
f4
04
f0
28
f4
fe
f8
17
1e
19
19
09
fe
0a
ea
f7
ef
f2
04
ee
07
1a
21
b5
01
e5
14
f1
e7
06
dd
df
e8
ef
02
bc
10
e5
eb
0a
f1
ec
ef
30
f5
13
dc
18
fb
ec
10
00
ff
0b
f1
2b
32
dc
f7
0b
16
f9
d1
23
2b
13
f7
e3
08
08
1d
e8
fd
29
e4
0c
f9
29
f9
1d
cb
0b
f6
db
ff
23
d3
fd
0e
f2
d2
05
e5
fc
1b
12
00
19
e6
03
2d
05
1f
19
24
10
fa
c6
c4
03
dd
07
d7
f4
ed
ec
26
fe
f1
f4
ef
02
c9
2c
ee
16
fe
da
11
f7
43
f5
f7
04
f4
12
c4
f3
ca
2c
09
f3
fb
1e
11
2b
19
12
0a
fd
27
00
00
22
0b
10
0c
27
22
08
0a
0f
fb
fe
f4
13
02
e7
f0
f8
01
04
f5
da
16
e1
27
3e
05
31
dc
2c
14
29
14
25
d3
30
09
fe
d4
23
ea
e7
ef
05
eb
1c
ee
32
e0
f8
21
f9
d0
0c
f4
ea
ec
01
04
17
f4
14
ff
e5
21
f1
05
11
f9
ec
00
13
f7
de
0e
0a
07
0c
f6
e7
fc
f5
2a
10
00
f4
27
05
15
f0
e9
f6
38
18
05
1e
f7
39
0a
21
e8
0d
f0
2d
f0
e6
e4
c9
01
eb
10
dc
fb
33
0e
b8
c2
20
bb
e5
25
1e
f7
ec
f6
fb
10
2f
e9
06
39
13
02
06
cf
f4
eb
e4
fd
f5
df
ff
f6
09
32
ff
03
f4
24
e3
37
ea
1a
16
39
11
0b
1b
32
2e
12
4e
b6
f7
c9
fe
db
fe
fd
1c
0d
b6
de
f9
f3
f7
e8
eb
ff
03
15
f6
2f
46
05
3a
16
38
3b
10
09
0a
29
dc
19
1e
ff
e0
33
e9
f5
19
ea
ea
fa
06
11
dc
0f
f2
08
50
e5
5c
0a
23
04
18
f8
fe
00
08
28
fa
ee
ea
06
26
0c
18
f3
f1
ef
06
1f
c2
e7
0f
da
fa
23
f2
45
03
1f
1d
29
12
f7
03
e9
e0
17
14
0f
fb
ee
e5
f7
03
ef
f3
f6
34
11
fa
0e
13
e6
f7
ea
10
1d
10
f4
ec
fe
09
17
e7
19
cb
04
4d
25
0e
be
23
e7
d7
49
17
2e
cf
05
ec
dd
0b
27
0a
21
e3
f5
fa
e8
e6
f7
1c
e9
20
d7
05
df
f1
08
e9
f0
f1
3e
e2
f7
e9
1b
03
d5
19
fb
d9
fa
f9
eb
32
da
3c
1c
2c
f3
f1
1b
04
00
1d
a1
00
13
04
07
21
ea
f4
22
37
dd
1f
f9
18
ff
00
dc
0c
f3
18
13
ea
04
da
18
f2
10
c4
e3
d5
01
f6
27
1e
12
18
3f
fa
e3
1e
ec
cf
e5
01
08
ee
f9
fc
f2
d0
00
0d
ee
f7
1b
18
fb
0b
1e
f7
15
e4
d0
cb
fd
e4
03
0d
f8
21
e8
d5
df
f8
11
11
1c
14
ce
e7
07
f9
fd
ee
ef
17
de
fe
ff
2b
02
00
e9
db
dc
1f
f4
12
22
ee
f4
08
09
fc
03
f1
e8
f7
f6
02
1e
d5
22
fa
27
17
e4
00
01
f3
2a
27
1f
18
d9
04
1b
1d
29
1d
01
10
1d
e1
e9
2c
3f
e1
f1
bf
f9
a7
e0
c8
08
fb
f8
0e
ff
dd
29
13
e4
49
0a
01
08
4e
1b
14
34
12
fa
fb
de
08
09
f0
fe
1a
d7
00
18
17
0f
fc
d5
ec
f6
17
26
04
16
21
0f
fd
ef
03
ec
ca
15
10
26
ed
ee
00
df
04
40
25
e5
ee
f3
d4
21
35
f6
11
f4
f0
dc
05
27
ee
09
1b
11
ee
d1
c8
df
28
0a
04
17
10
09
fc
0e
f5
0d
18
f5
fe
17
1b
d4
13
0a
fe
2d
cd
1b
15
f5
0b
ce
4c
21
f7
c8
d8
e9
d9
d8
00
f5
d5
e0
15
08
e4
05
ef
09
fc
0c
db
01
0a
f9
2e
d3
17
44
0d
22
ff
21
ee
f3
01
00
00
00
00
00
00
00
00
00
00
00
00
00
00
00
00
00
00
00
00
00
00
00
00
00
00
00
00
00
00
00
00
00
00
00
00
00
00
00
00
00
00
00
00
00
00
00
00
00
00
00
00
00
00
00
00
00
00
00
00
00
00
00
00
00
00
00
00
00
00
00
00
00
00
00
00
00
00
00
00
00
00
00
00
00
00
00
00
00
00
00
00
00
00
00
00
00
00
00
00
00
00
00
00
00
00
00
00
00
00
00
00
00
00
00
00
00
00
00
00
00
00
00
00
00
00
00
00
00
00
00
00
00
00
00
00
00
00
00
00
00
00
00
00
00
00
00
00
00
00
00
00
00
00
00
00
00
00
00
00
00
00
00
00
00
00
00
00
00
00
00
00
00
00
00
00
00
00
00
00
00
00
00
00
00
00
00
00
00
00
00
00
00
00
00
00
00
00
00
00
00
00
00
00
00
00
00
00
00
00
00
00
00
00
00
00
00
00
00
00
00
00
00
00
00
00
00
00
00
00
00
00
00
00
00
00
00
00
00
00
