09
08
1b
02
00
f1
1d
22
10
20
dd
01
0a
0c
08
31
ea
1e
eb
26
02
09
19
d9
e1
01
e9
14
0c
f3
f7
15
1b
da
e7
fe
3b
1a
f9
e5
11
e8
fb
21
03
2e
e6
06
24
1c
0f
0f
0e
f1
f4
ed
17
06
07
f1
e8
09
d9
08
cf
fe
f0
e4
01
16
02
e3
f6
e9
32
08
19
ef
fe
0e
ef
03
0c
06
c1
10
fc
eb
24
ca
d9
f7
13
e7
d7
06
17
e9
dd
05
43
ea
dd
06
0a
e6
11
20
17
f9
25
00
0d
0d
e6
1b
f2
fd
c0
ef
da
fa
20
0e
09
ed
39
1c
ec
1b
dc
14
13
06
f5
08
06
fb
15
05
1f
14
f6
15
43
1b
ff
f9
36
0e
e2
11
40
ff
bc
f9
d8
28
54
e6
e8
f7
23
26
0d
1b
04
15
34
24
0b
c4
d1
17
e0
39
d1
de
08
de
e6
10
0a
cd
30
02
f9
f5
2a
15
f1
30
41
0f
f8
1e
22
f2
f2
ff
df
dc
f3
f0
e8
09
e0
0a
ef
17
fd
d8
0e
ea
e9
c0
d5
e6
07
03
c2
f6
09
19
1c
0c
ff
ca
de
11
16
15
1b
12
14
11
de
df
f9
fd
15
16
e1
ec
2c
3d
fd
09
04
10
f0
28
bd
37
13
f0
1d
fa
eb
1a
eb
0b
0c
16
f0
02
d0
03
1f
ca
e7
17
ed
fd
f0
12
cc
f0
f2
23
ff
20
ea
0c
01
19
fd
f8
21
d8
38
f7
ea
e2
e1
f4
13
0f
34
fd
e2
f4
11
43
0a
24
0d
0a
24
ef
08
ec
21
25
00
22
e8
09
1c
18
e9
df
dd
f4
16
02
0f
ed
e5
fd
1e
25
f3
f8
ee
ef
05
04
fd
11
08
1c
f9
d3
02
d1
09
fa
2b
01
13
f7
08
d3
0e
1f
24
2a
1e
ed
c9
e9
fe
25
08
d8
fd
ea
d1
07
09
0d
09
03
ee
02
12
40
e8
0f
cd
f8
01
05
fd
fd
fd
24
d8
f3
f3
d7
0c
0a
11
06
03
03
0c
00
dd
f7
15
00
21
19
1f
2f
f1
00
23
cb
e2
30
f8
08
f0
0a
2e
fa
40
eb
13
26
04
dd
10
dc
0a
ff
96
ee
ee
ea
13
01
17
e6
cd
e7
e0
0f
f7
11
e1
f4
29
e9
08
ef
fd
d7
c6
1a
14
2e
f2
03
0a
e0
f1
f8
dd
e7
da
cc
d2
11
f1
00
ee
10
01
f2
ed
0e
f9
2c
bb
06
fc
d0
0b
19
2a
fa
1b
dc
0e
06
0b
df
ea
f8
cf
e5
3e
d3
ff
f7
09
06
02
2a
fb
2b
0c
09
e0
0d
c0
ee
fa
12
d9
f5
e7
04
39
d4
e4
22
29
ed
05
ce
d6
12
db
20
f4
2a
33
46
e1
f0
27
d8
e8
f4
12
03
da
e0
d6
13
2a
e9
f4
f8
e0
00
f2
27
f6
dd
e7
f2
19
f6
0d
2c
fa
1d
17
09
f5
12
0e
fb
fe
e9
f0
f7
00
f7
1c
c4
0e
dc
13
15
e6
e2
17
04
06
0b
1e
f7
d3
02
0b
31
ea
0e
06
f5
f5
e2
01
e9
02
1a
ff
25
08
ee
06
e8
1d
b5
f0
1e
d1
14
0c
0e
d5
1b
13
e5
01
23
c2
c1
da
fa
08
0d
f9
e2
e5
f2
f4
f8
c7
07
26
16
0b
f8
19
cc
0e
1c
dd
1b
e8
ee
17
0d
0f
1e
fb
01
f9
0b
fe
01
12
f9
d7
db
fe
f7
11
fe
06
15
e1
e8
f4
e7
ec
28
31
f8
df
e0
f9
ef
cd
27
cd
0d
f9
d3
18
19
d3
09
f4
bf
f8
10
dc
e5
03
04
fb
09
28
0e
d9
e5
03
0a
05
f5
f9
e8
10
21
e2
fa
e9
b8
23
11
05
f8
f1
0e
60
d6
f0
1e
cf
df
12
3c
fd
f0
f8
15
e1
15
ed
18
fa
f4
c8
ff
df
e7
f9
05
48
eb
e3
f9
1c
f2
1a
17
eb
2c
05
10
0b
10
18
04
eb
24
12
03
d1
19
f2
14
2b
00
2d
e7
04
11
ee
13
c4
08
2c
3d
00
00
00
00
00
00
00
00
00
00
00
00
00
00
00
00
00
00
00
00
00
00
00
00
00
00
00
00
00
00
00
00
00
00
00
00
00
00
00
00
00
00
00
00
00
00
00
00
00
00
00
00
00
00
00
00
00
00
00
00
00
00
00
00
00
00
00
00
00
00
00
00
00
00
00
00
00
00
00
00
00
00
00
00
00
00
00
00
00
00
00
00
00
00
00
00
00
00
00
00
00
00
00
00
00
00
00
00
00
00
00
00
00
00
00
00
00
00
00
00
00
00
00
00
00
00
00
00
00
00
00
00
00
00
00
00
00
00
00
00
00
00
00
00
00
00
00
00
00
00
00
00
00
00
00
00
00
00
00
00
00
00
00
00
00
00
00
00
00
00
00
00
00
00
00
00
00
00
00
00
00
00
00
00
00
00
00
00
00
00
00
00
00
00
00
00
00
00
00
00
00
00
00
00
00
00
00
00
00
00
00
00
00
00
00
00
00
00
00
00
00
00
00
00
00
00
00
00
00
00
00
00
00
00
00
00
00
00
00
00
