b8
c2
35
e9
06
f3
f3
14
f6
f5
d0
0e
ed
30
15
d1
12
1b
ff
04
0a
f4
d6
2d
04
ec
e7
e7
fc
d4
2f
07
cb
43
cc
c8
28
ca
f7
df
02
1a
0d
f5
fa
14
d7
f5
0d
d1
05
e1
05
ea
0e
ab
22
11
f3
1f
e9
08
18
f6
c2
ef
01
fa
19
14
f6
19
0c
f1
2f
f6
20
f7
fd
29
e1
fe
07
11
f1
0c
09
ec
2a
03
2b
e9
de
37
01
f9
fa
c6
fc
f0
49
d1
fc
e2
04
32
c8
47
db
fc
09
16
de
c4
e3
07
0a
0f
21
13
00
31
41
3a
32
2b
08
d9
