09
f6
fd
fb
0b
fe
0d
e5
14
25
29
15
1e
10
c8
e2
02
07
eb
fd
0f
ed
07
09
f2
ff
f1
ea
f1
11
cf
be
f0
16
fb
ee
f0
2b
14
e6
e4
f2
1f
02
f1
f6
fc
dd
e6
37
06
0a
08
38
06
2e
f7
04
f9
2a
f3
eb
08
29
31
22
ed
25
1b
11
e3
e5
f7
0d
f8
e3
25
ef
27
f9
f0
08
0e
1d
cd
d6
e5
f5
ee
0a
fd
f2
02
25
03
16
12
da
0a
34
cc
cf
ef
0d
1b
f5
fb
01
f3
06
f3
13
2d
f3
21
07
f1
de
e2
e5
da
c5
13
d4
f8
05
f6
2c
e9
2d
02
20
ef
cc
13
d2
ed
00
f6
15
15
f0
e2
35
cb
16
d3
f3
1a
f1
fa
05
db
36
15
0a
02
02
f6
ec
db
fb
f1
f2
14
16
0d
f1
f9
ff
cc
05
f0
d7
dd
06
d1
f1
05
1a
d6
0b
06
cc
35
04
12
19
18
06
f7
fe
08
f3
07
0e
24
37
25
e8
3c
f8
04
fb
dd
0b
fb
04
20
03
00
14
f7
02
07
fb
00
15
28
0f
f6
11
02
e8
ef
da
0a
01
20
1b
cd
00
14
17
05
f9
d7
14
03
11
03
0c
07
00
fa
28
ee
f0
f2
dc
c1
07
d1
e1
ce
ef
e0
ea
4e
03
1a
f8
04
f9
1e
2a
eb
e5
10
08
e6
0f
fa
e3
0f
20
22
fb
d7
d3
14
06
43
fc
e7
fb
25
2d
ee
19
0b
02
ec
f8
ca
37
af
fa
00
08
30
eb
04
1a
0a
3a
f1
ed
de
00
dd
29
e5
d8
00
f7
ed
18
1f
17
2f
1b
11
13
f0
f7
13
14
fc
04
17
f8
1e
09
df
fe
fe
19
1a
0d
0d
dd
e9
28
24
01
3e
08
fe
c8
fe
d5
2c
0a
f5
cd
e7
16
35
1d
e2
07
02
04
fc
14
de
29
0a
f6
04
08
e5
11
e8
fe
12
3e
fe
ec
f3
16
00
b9
fc
33
e4
07
e6
be
d2
0a
09
16
0e
12
2a
1d
0f
16
51
14
10
05
03
0a
eb
14
62
1b
1c
16
fb
f9
ef
fe
f3
de
04
1b
f4
f8
e0
ff
27
06
19
ff
20
04
0f
31
03
1d
fe
2d
f0
1a
ed
e1
16
0b
02
03
12
16
e9
de
0e
01
eb
25
eb
fa
2b
0e
00
13
19
28
16
d8
f3
e4
1c
1a
ee
fc
1e
15
db
1e
fb
c9
d0
03
05
d0
07
0e
0a
e1
1e
09
1a
18
07
ee
3f
0d
3b
14
fb
0a
23
0a
0e
ea
f3
d0
ff
28
e7
0b
01
e8
0e
eb
e1
03
e7
1b
13
41
fd
12
fe
0b
08
22
26
13
e1
c2
de
fa
ee
01
f3
00
19
07
d4
f1
f7
d3
28
c4
f7
fe
28
0d
fe
02
d6
ec
17
1a
0b
e8
e1
12
01
29
13
e3
2b
1b
f1
c7
d3
f5
fe
e7
0d
f1
30
e8
ec
fa
3c
ea
0f
fc
eb
d0
f7
d3
fe
10
ec
e8
41
08
ed
15
14
f9
1f
36
13
cd
dc
07
f8
20
14
09
e8
e2
00
e6
15
cd
fc
03
24
fa
eb
06
13
fc
c3
ee
fc
fa
e0
1b
30
1e
e7
0e
08
ef
eb
ff
0a
04
26
13
e2
18
0e
f2
05
42
fd
f5
ec
0c
2e
d7
0e
e1
d8
0e
06
0a
e2
03
0c
07
ec
26
06
04
ec
e5
01
b2
3a
12
db
fe
24
fb
06
ff
ff
10
d8
fa
01
04
f9
fc
36
e4
07
1f
ee
06
e3
06
e8
07
da
dc
31
0a
ff
23
ed
ca
04
18
df
bc
1e
20
e3
e9
16
d0
1d
04
11
13
de
b8
37
f2
e5
00
e5
28
47
f7
12
13
d0
da
f2
33
f4
20
1a
12
e8
db
f7
05
d5
29
21
0f
06
fe
f1
09
fc
19
d4
38
f8
eb
fc
32
26
1d
34
2c
03
28
1d
08
e9
dc
28
29
1c
09
f9
06
04
e3
bf
41
02
ee
e9
cb
e8
ea
f8
3d
28
44
21
f1
27
02
fe
02
00
00
00
00
00
00
00
00
00
00
00
00
00
00
00
00
00
00
00
00
00
00
00
00
00
00
00
00
00
00
00
00
00
00
00
00
00
00
00
00
00
00
00
00
00
00
00
00
00
00
00
00
00
00
00
00
00
00
00
00
00
00
00
00
00
00
00
00
00
00
00
00
00
00
00
00
00
00
00
00
00
00
00
00
00
00
00
00
00
00
00
00
00
00
00
00
00
00
00
00
00
00
00
00
00
00
00
00
00
00
00
00
00
00
00
00
00
00
00
00
00
00
00
00
00
00
00
00
00
00
00
00
00
00
00
00
00
00
00
00
00
00
00
00
00
00
00
00
00
00
00
00
00
00
00
00
00
00
00
00
00
00
00
00
00
00
00
00
00
00
00
00
00
00
00
00
00
00
00
00
00
00
00
00
00
00
00
00
00
00
00
00
00
00
00
00
00
00
00
00
00
00
00
00
00
00
00
00
00
00
00
00
00
00
00
00
00
00
00
00
00
00
00
00
00
00
00
00
00
00
00
00
00
00
00
00
00
00
00
00
