2d
fb
f1
15
fe
15
0f
17
36
12
1b
11
20
06
fa
dc
1e
ff
f3
01
27
04
16
02
00
16
f6
e0
f5
ff
f1
ea
d6
f2
ea
f1
e1
03
f9
f4
fc
18
fb
07
2d
0d
df
0e
02
c2
1c
fa
05
5b
fc
db
ff
0b
f5
ea
1e
f8
05
e5
1d
fe
f2
e7
2b
fc
d7
d8
ed
05
26
24
e5
f1
bc
19
fe
fc
f6
18
00
f3
fa
f8
07
2f
07
ee
05
0d
03
3c
f6
2a
15
26
31
ea
f1
06
e9
37
05
0c
00
0f
11
0c
f2
f9
01
1c
03
07
1e
12
07
e4
ec
e9
fd
11
f3
0d
e6
1c
e3
0f
f0
01
e7
29
44
e1
27
ff
11
e4
e0
fe
f0
ee
eb
f3
f5
08
1a
f7
e5
e2
fa
fb
cc
dc
00
eb
d3
04
0f
1a
d7
06
ee
db
f3
ef
2a
25
f4
3c
05
cc
38
fa
15
0a
0b
12
07
ea
f8
d1
19
ea
d1
d3
ec
2e
17
15
28
e1
19
23
f5
38
db
f5
27
2e
f8
24
13
f1
14
f2
ec
27
d6
dd
ff
0c
d8
39
ff
ee
32
35
e3
e6
ed
13
16
27
14
e4
05
df
2a
f6
f7
0f
f9
ea
e1
f6
27
06
10
44
14
e9
04
0d
d5
0f
df
fd
0a
c8
db
1c
f3
2c
ed
21
e4
3b
f1
0f
eb
1a
16
05
1b
2a
08
05
e1
19
17
dd
da
12
10
ca
54
1d
ec
f1
12
0e
12
b9
d9
e6
fd
09
02
32
02
14
f4
0a
ff
fb
34
cc
e0
f5
f8
21
16
ff
f3
09
1a
cd
dd
e8
fd
f4
d3
e0
10
e1
17
e0
f8
44
f9
02
14
18
fa
0c
f0
1a
01
ea
02
c2
08
03
04
04
f7
ec
f7
14
fe
0f
08
07
ee
02
09
10
11
04
19
f4
dd
fb
ff
f8
07
e3
e4
17
f6
23
02
da
ea
0c
e6
40
17
f0
01
2e
e0
e7
f5
fd
02
ff
e4
dd
08
08
07
40
01
ee
04
0c
12
37
da
0c
cd
bc
ed
f7
12
ef
12
14
fb
19
0e
3c
e9
1d
dc
ff
01
14
15
0f
f9
00
23
f1
d2
25
fe
dd
18
37
fe
e6
28
0f
e3
1b
d3
11
fc
16
ed
09
04
07
eb
03
f7
05
06
25
ec
da
04
02
21
c7
1b
01
14
20
0d
0b
18
0c
22
07
2c
f9
13
19
0c
1f
eb
0d
15
ff
e3
00
1b
08
dc
f3
1d
15
f0
f5
df
e6
f5
e9
0c
09
15
ec
16
00
3e
1c
00
ea
f2
17
0a
f9
ee
d1
ed
35
07
11
00
e4
01
27
d1
0d
09
e7
f4
ee
f2
12
3d
fc
e3
ff
0b
e7
1d
e2
10
06
e8
dd
14
fb
f0
4e
c3
1c
00
cb
0c
e2
f6
2a
f0
22
22
eb
17
06
f3
ef
d5
f6
f6
06
d7
38
64
22
e6
02
e6
11
2f
cb
3c
08
bf
05
ea
05
c9
fc
1d
10
09
0f
28
06
06
29
f5
fc
fc
e2
05
ea
0b
31
1c
03
fd
eb
0e
34
e0
26
d5
16
08
05
da
f0
e1
03
e9
df
d3
fc
ef
e8
fa
e9
24
33
f6
1f
20
c9
17
da
f4
f4
f2
f5
09
0f
c6
d6
fa
1a
d6
08
e9
0c
f7
e3
fe
0a
14
f1
12
fb
2f
28
d3
e4
d2
0d
d4
f3
08
ea
f5
28
18
1c
03
df
ee
e3
da
eb
ef
08
0f
e8
1f
0a
fc
e9
1c
ee
1a
07
db
25
0d
d1
df
14
00
1b
16
e3
08
df
f6
f2
03
fc
ea
11
f9
12
ee
17
00
05
09
1c
30
cc
c9
f9
19
00
19
08
ed
17
1a
bb
17
f2
ed
02
04
fe
07
12
d1
c5
02
db
fe
f5
e1
ca
dd
10
0d
0e
de
fb
ce
cf
12
e9
f2
e7
04
e9
2d
03
1e
d3
1c
05
08
d5
28
e2
da
d8
d3
f2
e3
ef
0d
12
32
1a
c7
d6
fd
09
33
f4
08
f1
f1
05
ed
0e
fd
d7
1d
da
d9
04
fc
0b
fb
05
00
00
00
00
00
00
00
00
00
00
00
00
00
00
00
00
00
00
00
00
00
00
00
00
00
00
00
00
00
00
00
00
00
00
00
00
00
00
00
00
00
00
00
00
00
00
00
00
00
00
00
00
00
00
00
00
00
00
00
00
00
00
00
00
00
00
00
00
00
00
00
00
00
00
00
00
00
00
00
00
00
00
00
00
00
00
00
00
00
00
00
00
00
00
00
00
00
00
00
00
00
00
00
00
00
00
00
00
00
00
00
00
00
00
00
00
00
00
00
00
00
00
00
00
00
00
00
00
00
00
00
00
00
00
00
00
00
00
00
00
00
00
00
00
00
00
00
00
00
00
00
00
00
00
00
00
00
00
00
00
00
00
00
00
00
00
00
00
00
00
00
00
00
00
00
00
00
00
00
00
00
00
00
00
00
00
00
00
00
00
00
00
00
00
00
00
00
00
00
00
00
00
00
00
00
00
00
00
00
00
00
00
00
00
00
00
00
00
00
00
00
00
00
00
00
00
00
00
00
00
00
00
00
00
00
00
00
00
00
00
