fe
39
04
de
f2
db
fe
e8
22
fe
02
f1
08
0f
f5
14
26
da
f5
05
e0
d2
0f
0e
ff
ec
d1
02
07
c5
f4
f1
21
0a
0f
db
0c
f8
df
f3
04
1b
fb
d9
24
f4
00
2f
05
0b
0b
27
1d
01
fb
f1
fe
05
19
f3
26
0e
47
c0
03
05
08
0e
db
0a
22
f5
d0
08
f7
04
fa
19
ef
f8
e4
ff
02
37
ef
f8
19
e3
ea
fa
d1
df
00
ed
0b
eb
0d
23
06
18
1e
03
de
d0
09
fc
fb
23
1b
ce
e7
13
01
17
35
11
df
1b
09
d1
f8
f9
e8
2c
de
f1
3c
1e
32
cd
20
e6
f5
ee
0e
dc
c2
f3
ee
01
dd
24
ed
1b
dd
fc
04
31
e8
fc
e7
e2
0e
f8
e5
07
0d
f9
04
e1
02
ea
f6
07
e2
14
1c
0c
00
18
06
05
df
be
13
18
ee
e0
ef
fa
15
21
0c
ff
0a
3a
00
dc
01
fb
03
0d
ee
3a
01
f6
dc
d5
34
2f
f7
3c
04
e1
f5
0f
2f
0a
fd
f0
21
17
0b
1e
f4
14
01
09
04
d7
3c
18
0d
33
e6
c9
09
d4
14
f6
12
f6
02
10
1c
db
f8
30
ef
f9
e9
38
cd
17
e8
15
01
e5
11
fb
08
13
f9
fb
26
f2
0b
ff
fa
35
2d
1a
f6
0d
eb
22
11
ed
e9
ef
cb
d0
f1
36
fa
04
0e
29
f2
e7
f6
f7
d7
16
e8
19
0f
f3
17
e1
eb
f3
24
fb
f0
01
1c
2d
f2
f8
15
0a
0c
d2
04
fa
ec
e9
fa
4b
fb
f0
10
29
2e
0f
1e
0c
ed
0e
0c
ea
e8
d6
ac
e6
2d
1f
f1
e1
12
56
00
d2
1e
ec
23
e0
02
c6
ec
d8
ff
03
17
e2
1c
09
19
18
09
23
2c
14
e6
fd
c0
3a
43
f3
10
06
ee
cb
1a
1a
ec
19
f6
06
35
f0
23
1d
fe
2c
23
16
fc
e8
de
f5
09
20
ed
14
42
ce
f4
f0
fb
d8
d9
f1
f3
23
ec
0c
11
29
13
f3
e2
ee
ba
1d
f8
fd
f8
27
09
13
f8
07
f9
f6
e6
11
d9
f4
16
fc
e6
31
12
06
f5
ee
f3
f1
ee
2d
2a
0e
e8
1e
06
f7
f0
02
27
e5
0e
1c
d9
e9
0d
f5
1a
e9
04
1c
19
08
fa
13
29
b0
f7
f8
fb
f2
eb
43
09
16
dd
f6
0a
fc
eb
25
37
e2
f3
15
f4
2f
15
1c
c1
00
e5
fb
02
31
15
22
ec
1b
0d
05
1a
2a
c7
05
fd
fb
e4
fc
f3
f8
e6
0f
f1
f9
f7
da
e2
de
f9
22
32
22
e0
e6
fe
1e
f2
cc
e1
04
e8
09
f6
cf
05
f3
c4
fe
21
f1
ee
f4
ce
22
f0
05
ec
5d
ea
fd
de
04
00
fc
fd
eb
ab
2e
ee
f3
0b
e4
f1
0b
19
23
0f
42
f1
02
0b
22
28
f0
33
f5
bf
0f
e7
0c
00
d8
f4
f4
fd
ee
ec
02
f1
fb
04
ad
3a
e4
fa
f4
ef
3e
09
06
ed
06
e5
de
10
f7
f7
eb
25
d9
fa
ef
38
1e
f5
f9
1a
15
de
fb
f8
f9
0e
21
11
f9
f9
fb
08
f4
00
df
f1
f9
f3
fb
f1
10
e0
c7
17
01
00
01
01
08
e1
00
07
f2
e4
f2
13
ef
fe
02
30
2a
ff
f1
f2
2b
d1
d3
d4
08
2e
f6
ee
12
e0
e0
04
13
25
fb
ff
02
db
ed
20
da
ee
0f
44
c3
0b
fc
ee
3f
12
23
c3
d1
2a
e8
11
fd
f0
ba
e5
27
03
e0
10
fe
e5
ed
0e
1a
f9
e4
3a
f5
04
16
c0
03
05
f3
06
e2
f0
10
e4
e6
16
26
fb
31
23
cf
1d
04
ea
3d
01
ff
00
06
06
23
ed
16
0b
ee
ef
f8
d4
15
e9
f1
c9
e1
0d
02
2f
17
d8
16
cc
0a
fd
e7
20
ec
fa
26
08
21
fa
ef
fb
eb
1e
ff
f6
23
0e
f9
0c
1d
21
f4
14
0b
11
f5
05
07
cb
cd
00
00
00
00
00
00
00
00
00
00
00
00
00
00
00
00
00
00
00
00
00
00
00
00
00
00
00
00
00
00
00
00
00
00
00
00
00
00
00
00
00
00
00
00
00
00
00
00
00
00
00
00
00
00
00
00
00
00
00
00
00
00
00
00
00
00
00
00
00
00
00
00
00
00
00
00
00
00
00
00
00
00
00
00
00
00
00
00
00
00
00
00
00
00
00
00
00
00
00
00
00
00
00
00
00
00
00
00
00
00
00
00
00
00
00
00
00
00
00
00
00
00
00
00
00
00
00
00
00
00
00
00
00
00
00
00
00
00
00
00
00
00
00
00
00
00
00
00
00
00
00
00
00
00
00
00
00
00
00
00
00
00
00
00
00
00
00
00
00
00
00
00
00
00
00
00
00
00
00
00
00
00
00
00
00
00
00
00
00
00
00
00
00
00
00
00
00
00
00
00
00
00
00
00
00
00
00
00
00
00
00
00
00
00
00
00
00
00
00
00
00
00
00
00
00
00
00
00
00
00
00
00
00
00
00
00
00
00
00
00
