f9
17
e3
ed
3e
36
29
de
1d
10
c8
eb
d6
f2
1e
06
05
fe
f7
13
35
00
c4
1a
1f
1d
1c
99
10
3b
2d
e8
99
ac
0b
c7
28
11
13
c2
f8
35
b2
cd
ef
0d
29
15
c4
04
14
ed
15
0b
01
33
b2
05
18
f8
de
d9
13
da
24
f3
fe
f9
ee
d9
12
d9
11
1b
04
c2
f9
e2
01
ec
c7
f4
09
d6
17
05
15
16
f0
0a
16
22
0b
01
f9
db
ec
e1
e3
ba
41
f6
0a
2c
0d
e1
df
fa
02
c0
01
f7
0a
04
fc
10
f7
f0
e5
31
15
e1
12
cc
fb
f6
9d
cf
