29
0c
f7
f2
0b
08
39
02
f6
ed
1c
fd
f3
00
f1
0b
21
fc
f1
23
d8
1a
0a
08
fc
fc
f7
f3
26
09
13
33
fc
0e
08
15
03
14
0b
1c
ca
20
d4
dd
f6
f5
24
03
eb
23
d8
26
17
13
ed
04
2a
f7
b8
0f
f6
10
f2
f3
e6
52
05
2d
1f
f2
f0
ec
11
e5
e7
e5
e2
f7
e3
df
1b
17
e9
e4
03
ee
ec
15
e3
04
f6
01
55
11
18
ed
f0
d2
2a
06
0c
c3
fc
f5
f7
fb
d1
ea
2f
e1
e8
c7
15
f4
15
0f
27
06
04
23
29
03
35
44
e0
f9
d7
14
f8
f4
f5
f5
02
bc
04
1e
2e
36
05
1a
2b
c9
1d
f3
47
f2
d2
ef
1f
dc
25
18
17
fb
f1
d5
1c
ee
2b
2b
e0
15
f7
dc
25
07
12
03
28
17
d9
df
1a
0f
cc
21
0e
22
1f
fe
f4
37
fb
d8
fb
0a
c4
cc
fd
14
11
db
e8
19
d9
e9
2f
04
f3
d6
15
de
f4
04
03
0d
12
ed
f0
ea
f5
cf
e3
c4
0f
14
d5
f5
19
0d
e9
dc
e6
02
d5
f2
0e
d7
ec
fc
02
11
e4
16
ef
33
fd
f9
e3
e0
13
f1
f6
13
d1
1e
04
09
12
f1
f1
de
26
f2
3a
03
fa
29
e6
2a
05
01
06
00
29
04
13
27
ee
13
2a
e8
ea
39
eb
fe
1b
e4
d7
14
ec
0b
fc
fe
00
fe
f1
fe
09
db
e0
0a
fb
fc
c1
3d
06
fc
0c
d7
24
db
d9
15
08
09
28
19
eb
0f
14
fe
d9
cc
fb
39
15
f5
f7
fe
db
13
ca
04
00
09
11
04
0d
1c
00
18
09
22
29
e3
10
f2
d9
fa
fc
f1
fc
06
32
f2
e7
ec
ed
cd
ff
09
f2
0a
10
18
fa
11
17
0a
2b
f9
03
49
0a
19
39
04
da
22
1b
21
ef
04
f2
02
23
dc
e8
07
e3
eb
f1
a4
06
e5
06
03
c0
de
f9
46
f5
fc
06
04
14
00
0a
0a
f9
d8
03
06
07
f0
0f
fb
f2
ff
ff
34
24
f6
e4
f0
f7
03
17
eb
32
4f
f2
27
ea
43
e5
17
e8
f7
eb
21
ca
fd
f0
02
d2
f4
0d
d0
09
e3
01
0b
00
e8
f2
14
f2
d0
53
c6
02
e5
00
fe
11
f5
db
dd
f0
39
07
ff
03
07
0b
17
05
24
f7
ef
24
fd
02
ed
e7
d6
03
07
15
fe
13
e2
15
ce
f9
f6
fa
07
18
af
1b
1d
d2
eb
21
01
fa
ec
ec
3a
d5
0a
f3
19
f3
df
e3
18
2a
ef
f8
19
c8
ee
e7
03
39
12
0b
d9
ec
e4
c9
f0
33
2c
33
ff
f8
31
10
0b
3f
e6
f6
0c
01
dd
f9
ed
fa
e0
be
22
e6
ee
e6
e3
fa
09
0d
f4
ec
20
33
ca
00
e8
fb
05
cc
e1
cb
f6
03
15
ff
08
cc
e7
af
1b
fa
1d
e2
1a
ea
0e
fe
0c
14
17
fc
11
13
c7
f2
f1
22
cd
f9
12
1b
f9
05
13
d6
26
23
f6
16
28
10
c2
d9
ec
2c
fe
d4
18
3e
dc
14
e5
fc
2a
03
d5
20
09
12
ea
ff
02
1a
22
d3
d0
f3
cd
16
01
dc
01
15
d0
0c
0b
03
e3
e6
f5
26
d5
16
2c
13
eb
17
1c
22
3f
d2
d2
f6
09
e8
27
02
f9
dc
ee
e0
05
f2
ff
e9
01
1d
0a
c7
b7
00
db
e0
1c
10
fb
1d
1e
10
36
e6
e1
f6
fa
d7
d5
20
ef
3c
f3
11
00
15
e3
f1
fd
01
13
e6
20
05
0b
25
d4
fb
06
3f
0b
0f
c1
df
ec
18
16
bd
11
2e
18
11
f8
f8
30
f0
06
17
ef
25
c2
35
14
13
ed
14
17
f3
23
2c
ee
01
22
04
33
17
09
ff
f3
f8
14
17
25
0f
06
1a
f7
e5
e2
19
e2
e3
f8
e5
08
07
0c
20
04
04
04
e7
f8
f0
01
16
26
fc
04
49
e8
0c
1f
00
00
00
00
00
00
00
00
00
00
00
00
00
00
00
00
00
00
00
00
00
00
00
00
00
00
00
00
00
00
00
00
00
00
00
00
00
00
00
00
00
00
00
00
00
00
00
00
00
00
00
00
00
00
00
00
00
00
00
00
00
00
00
00
00
00
00
00
00
00
00
00
00
00
00
00
00
00
00
00
00
00
00
00
00
00
00
00
00
00
00
00
00
00
00
00
00
00
00
00
00
00
00
00
00
00
00
00
00
00
00
00
00
00
00
00
00
00
00
00
00
00
00
00
00
00
00
00
00
00
00
00
00
00
00
00
00
00
00
00
00
00
00
00
00
00
00
00
00
00
00
00
00
00
00
00
00
00
00
00
00
00
00
00
00
00
00
00
00
00
00
00
00
00
00
00
00
00
00
00
00
00
00
00
00
00
00
00
00
00
00
00
00
00
00
00
00
00
00
00
00
00
00
00
00
00
00
00
00
00
00
00
00
00
00
00
00
00
00
00
00
00
00
00
00
00
00
00
00
00
00
00
00
00
00
00
00
00
00
00
