ef
cc
04
d7
d9
18
11
d9
2e
fd
04
d2
bf
03
e0
eb
03
e4
05
0d
0a
02
c4
e1
0e
03
34
b9
11
08
d5
1a
f5
02
f2
f9
22
fb
f8
1d
e9
1c
0c
26
0b
0f
0b
f9
1c
23
f3
e4
2f
2c
f5
ee
f9
ff
1e
1a
00
f2
22
e8
02
dd
d3
08
f9
cc
fa
0d
05
0c
42
bf
e3
13
0d
2a
21
fb
0a
dd
da
21
4d
ef
0b
f0
d8
db
02
39
f6
3e
e9
02
17
05
e3
ed
d2
0b
17
e4
e7
16
f0
f0
04
04
1b
21
f1
0a
0a
e9
ef
f4
ee
fb
1e
25
05
15
fe
da
ed
dc
30
14
2b
f8
ef
35
0b
13
15
14
c9
02
18
ba
f7
d5
af
26
0b
1d
49
03
e2
f1
02
df
15
d1
17
e7
1c
f5
de
15
12
04
06
e2
29
05
01
48
06
f0
29
f7
25
14
f1
f1
15
2d
12
e8
4f
06
fa
0c
0a
1a
e2
11
e6
04
f2
e0
0a
f9
0e
00
e8
e1
36
0e
ef
e9
e5
28
2a
30
1f
f2
f1
fa
19
df
08
cc
45
2e
e2
e0
df
0e
fa
e7
d8
fb
d1
01
eb
ff
fa
f3
02
fa
39
0a
d8
13
d4
ef
02
e3
ff
0f
05
03
e8
33
f6
d9
fe
f9
f0
de
07
14
e1
e7
08
16
f8
f3
08
18
e8
01
0a
06
24
21
e9
f6
0b
0a
fe
fe
19
fc
c4
25
f4
f5
f1
ea
11
02
ca
03
ef
fc
e0
24
23
db
e4
f1
f4
1a
39
2b
2e
06
09
0a
34
1d
e1
10
05
f9
e8
e7
21
32
24
0f
17
e4
f0
dc
f1
e9
2e
01
fd
e3
12
fc
f1
e3
05
ae
f1
13
0d
22
e7
ef
02
2f
24
e7
17
28
e1
f4
fa
19
21
fa
09
13
05
15
29
08
08
1b
1c
e1
3a
12
fc
97
09
10
f8
dc
d6
f0
0e
f0
37
fa
10
f1
17
00
ec
0c
0a
fc
eb
f8
04
15
d2
ea
d3
f0
05
03
f7
e7
fd
ee
10
28
d9
e7
d7
eb
d4
10
e3
fb
c4
00
12
f7
e0
0a
f3
4c
0f
f1
d2
08
e7
f0
12
bd
11
ca
e4
d4
09
cd
05
21
3d
d5
fa
16
f2
33
c4
0b
e3
e8
fe
e0
cb
f0
24
fd
13
1a
eb
05
00
eb
ea
16
16
07
fc
e2
21
0d
fb
f6
fa
e7
f3
f7
dd
e5
e5
06
d7
ec
03
17
f1
d0
07
24
48
35
f1
15
12
10
d6
05
ec
45
e3
fa
0d
f1
c4
d7
0d
e5
dc
ff
cb
f0
e9
27
01
14
e9
0d
e4
fc
da
0f
09
ed
08
14
1c
00
f9
ff
11
eb
dc
0b
e9
00
1e
eb
fe
09
27
e3
db
24
dc
c8
0f
fa
ed
f7
e8
f8
06
ee
e8
01
1d
0a
fd
cc
05
16
d1
01
15
14
08
2f
f2
1c
1c
f9
23
f0
43
00
16
04
d5
04
f8
1e
d3
16
f3
48
09
e7
f6
04
d8
f1
0a
d8
fb
f5
f8
f3
1e
05
00
ee
22
d8
e7
f4
1b
06
e7
f2
b6
01
07
ea
10
c9
eb
ea
0b
e0
07
0e
f8
06
e6
13
f0
d7
17
e3
d0
08
13
06
0a
03
0c
fd
38
04
ea
ea
de
f8
ee
c7
da
cf
03
ed
f4
00
f8
16
ff
db
1f
14
f5
ee
0e
08
e7
0a
3d
0e
34
eb
f8
e7
e8
20
02
0f
e0
18
04
cf
48
2b
fe
11
00
de
f6
bc
0a
1c
d0
e7
2d
1d
db
f6
09
e9
05
f4
ef
0e
ff
1c
f8
df
f9
ea
1c
0b
df
ef
0e
19
17
eb
0a
09
ff
f8
05
f0
10
12
f6
2c
f8
f1
fd
06
f2
d9
f8
e2
1e
c6
ca
f5
35
fd
33
e2
dc
e2
04
1b
ff
f3
31
fe
f1
27
e7
e7
05
e8
fd
e3
c4
e9
20
29
13
b9
05
18
df
08
1e
d2
0f
12
1c
e1
f6
01
1d
2b
f9
15
0b
e1
e8
02
e6
ed
e7
28
22
d6
05
f0
f0
05
10
ed
00
00
00
00
00
00
00
00
00
00
00
00
00
00
00
00
00
00
00
00
00
00
00
00
00
00
00
00
00
00
00
00
00
00
00
00
00
00
00
00
00
00
00
00
00
00
00
00
00
00
00
00
00
00
00
00
00
00
00
00
00
00
00
00
00
00
00
00
00
00
00
00
00
00
00
00
00
00
00
00
00
00
00
00
00
00
00
00
00
00
00
00
00
00
00
00
00
00
00
00
00
00
00
00
00
00
00
00
00
00
00
00
00
00
00
00
00
00
00
00
00
00
00
00
00
00
00
00
00
00
00
00
00
00
00
00
00
00
00
00
00
00
00
00
00
00
00
00
00
00
00
00
00
00
00
00
00
00
00
00
00
00
00
00
00
00
00
00
00
00
00
00
00
00
00
00
00
00
00
00
00
00
00
00
00
00
00
00
00
00
00
00
00
00
00
00
00
00
00
00
00
00
00
00
00
00
00
00
00
00
00
00
00
00
00
00
00
00
00
00
00
00
00
00
00
00
00
00
00
00
00
00
00
00
00
00
00
00
00
00
