eb
fc
fe
f4
11
19
08
10
0c
1a
f0
f9
c6
fb
fe
fd
e7
0d
0d
bd
fe
1d
06
10
04
f0
ef
fe
0b
20
fa
ec
05
c9
26
0f
e6
d7
e9
02
f6
24
e0
d7
07
16
1c
d4
e6
bc
eb
15
1f
0d
b2
0e
f2
e0
ec
e6
00
fa
ea
d7
fd
02
08
2c
18
17
f1
17
04
ef
fd
e9
32
0f
35
22
ee
c6
04
eb
36
f4
e6
f9
f0
20
e1
e5
53
ee
ff
ea
07
f6
f2
fb
d5
03
d0
13
0f
09
09
b0
06
11
01
17
18
09
f0
ed
f9
01
28
0e
d9
fe
ee
df
02
d0
ee
41
03
de
e9
1d
fd
d9
1a
f5
23
43
0c
ff
f3
07
ee
26
ea
02
f0
ed
cc
29
e2
16
08
e0
ee
16
ff
c5
f9
f2
c9
25
02
47
1e
cc
f9
05
02
19
01
1e
d5
c2
ed
f3
f4
db
d5
04
02
ea
ec
1e
1c
0e
d7
0b
02
02
26
05
dd
eb
f0
31
ec
c9
0c
bd
eb
fe
f8
b5
f4
1f
f9
0e
0d
f0
23
04
c2
04
ad
0e
01
04
04
dd
2e
0f
f1
17
f0
e4
20
dd
27
cc
04
f6
de
10
fe
da
d0
ec
08
f4
42
06
fc
14
24
11
9d
3d
47
08
2e
eb
f0
fc
e2
d7
2c
f3
dc
1d
16
e5
e4
f2
0b
2b
f7
f4
02
d8
f9
07
21
d7
f6
1d
04
23
09
1d
ee
44
09
0b
0a
06
fe
b9
06
03
e0
ee
e1
d3
ea
cd
07
ce
01
f4
1c
24
1c
0c
fc
e1
ff
34
1e
0b
fc
e1
1a
12
ee
25
0d
23
07
24
dd
03
df
33
27
0f
19
f2
dc
ed
29
ff
ff
fe
1b
22
f2
f0
0f
ff
df
04
e1
fd
1a
eb
0d
02
1a
e9
ca
f9
f2
d8
22
10
df
1d
ed
da
e5
d9
32
f8
ff
05
f4
0d
df
1d
07
f8
08
11
db
ec
02
1b
06
fd
fd
30
1b
fc
2f
f0
de
26
14
c0
00
2d
24
da
f8
07
f5
0e
eb
14
06
0c
21
f7
ca
b8
24
f2
13
0a
2b
30
14
1f
fc
f0
0c
1d
f1
0c
f3
f7
ea
00
e1
16
0b
07
33
f8
13
e3
02
f5
14
2a
f6
f7
17
1a
fa
02
e2
e4
04
0a
2a
e3
1c
06
01
fd
ea
0b
03
ea
f5
06
22
d3
f4
e9
13
fe
ed
f1
f3
f1
dc
04
f7
09
fe
ef
10
f0
1c
cf
1f
19
c8
f8
b5
f8
19
02
0e
0c
0a
25
d2
0c
fc
1a
13
0b
d8
d9
15
e1
12
e4
ff
dc
2c
ff
2a
22
0b
11
0a
ff
0d
bc
14
0c
11
1b
da
25
22
07
fe
50
ff
f2
15
45
e9
05
4b
0b
17
03
1f
1d
fb
be
e8
07
c6
f2
01
e2
15
07
da
05
d8
f8
17
f4
f7
0b
fd
f9
2c
24
f3
0f
06
1d
10
f5
0a
10
03
f1
ff
f1
f3
e0
fe
f9
e6
08
15
bb
ec
18
3c
36
df
eb
f2
14
fb
08
c9
f6
fe
fd
03
e0
11
1b
fe
0c
f2
fb
3f
12
fe
b7
1a
cd
c6
f1
f7
21
06
18
00
14
dc
e1
2a
14
db
35
0b
49
2f
ff
0f
fb
fd
1b
e8
f3
f2
fb
1b
27
1b
19
ea
e2
2e
d1
da
08
c0
f5
2b
17
f1
16
eb
22
dd
ee
d4
ff
f9
03
1d
f1
e9
e4
ee
fe
0e
05
04
fe
e9
1b
30
28
26
d6
d7
06
dc
10
00
ec
09
f9
d4
d5
1f
e8
09
fc
f4
fb
05
18
23
23
02
dc
d6
18
0c
e4
f7
dc
f5
14
dd
3a
2e
17
df
02
21
22
e6
1c
e3
0b
0e
03
bf
08
1a
14
0c
00
f8
15
fc
03
d4
fb
d3
d2
0b
01
02
e2
12
31
f0
0f
ef
11
1c
05
03
17
ce
ed
23
cd
f2
f8
0c
f6
e3
f2
fe
12
d1
26
ee
01
19
ed
42
51
eb
10
11
07
fd
d5
f0
4f
eb
fa
13
47
f9
d1
22
f5
1e
fe
1e
04
00
00
00
00
00
00
00
00
00
00
00
00
00
00
00
00
00
00
00
00
00
00
00
00
00
00
00
00
00
00
00
00
00
00
00
00
00
00
00
00
00
00
00
00
00
00
00
00
00
00
00
00
00
00
00
00
00
00
00
00
00
00
00
00
00
00
00
00
00
00
00
00
00
00
00
00
00
00
00
00
00
00
00
00
00
00
00
00
00
00
00
00
00
00
00
00
00
00
00
00
00
00
00
00
00
00
00
00
00
00
00
00
00
00
00
00
00
00
00
00
00
00
00
00
00
00
00
00
00
00
00
00
00
00
00
00
00
00
00
00
00
00
00
00
00
00
00
00
00
00
00
00
00
00
00
00
00
00
00
00
00
00
00
00
00
00
00
00
00
00
00
00
00
00
00
00
00
00
00
00
00
00
00
00
00
00
00
00
00
00
00
00
00
00
00
00
00
00
00
00
00
00
00
00
00
00
00
00
00
00
00
00
00
00
00
00
00
00
00
00
00
00
00
00
00
00
00
00
00
00
00
00
00
00
00
00
00
00
00
00
