ec
ff
00
0d
17
11
12
1f
f3
00
23
ee
e2
08
f8
1b
d7
e3
b8
fb
f4
fd
f6
24
f7
02
11
21
3c
eb
e6
e2
1d
07
0a
03
1e
02
07
e6
31
12
e9
e7
13
1a
0c
e9
1a
e5
07
2b
04
01
e5
ef
e1
2e
00
de
e2
23
ea
02
23
fa
f6
df
da
08
07
ec
55
0e
b3
eb
f7
c6
38
0a
c0
0b
fe
06
e7
1a
03
07
36
25
0c
e3
36
eb
d8
35
b1
0a
1d
d0
3e
b9
f0
d6
06
c1
f8
f2
f9
13
e7
d8
1f
1b
ee
07
02
e1
f1
fc
0c
e8
21
0a
1b
2f
ef
dc
fa
dd
1b
da
03
f9
5b
04
e7
d9
d6
0c
f7
01
22
fc
0e
2a
d6
f4
e2
ea
d6
dd
10
ee
1d
02
1a
13
da
16
18
01
fb
d3
03
04
09
21
3c
29
06
fe
0d
f1
2c
2c
20
e5
13
f4
ff
1f
ef
3b
31
e3
1a
08
1f
f0
f7
fd
ec
ef
fe
34
1e
f6
ee
f9
d6
ff
00
0b
e7
23
db
13
16
e5
02
dd
04
0f
07
1d
f4
cc
f0
de
f5
ee
eb
0d
25
f5
f8
1e
f9
f0
03
f6
2d
cf
09
e2
11
e9
e4
ec
22
33
f2
fd
13
eb
36
00
09
32
27
eb
eb
15
fd
fc
2e
e9
0c
2c
d6
e4
e6
ed
f0
24
03
ef
d9
de
eb
d9
0a
10
1c
f0
f5
0a
fb
f9
fb
d5
f1
de
15
17
2a
1a
fa
27
e2
d0
05
d3
0c
18
35
e0
1b
ee
d1
0c
fc
f4
cb
23
f7
17
04
c0
0f
f8
e8
f1
0f
d8
eb
d9
24
e5
00
24
f4
1e
01
12
20
44
fa
07
b7
cd
01
07
ee
e9
0e
cb
0c
f2
0a
16
0e
02
f2
ec
16
0e
28
b9
26
f4
df
32
b4
b9
c6
07
db
fc
36
f2
15
ed
ff
0a
f6
e9
f8
fe
1a
0c
07
c8
18
00
ef
eb
ec
e9
0c
1c
38
f5
fd
f4
d6
ef
05
08
b8
02
13
c7
05
ec
17
e2
01
30
1c
10
1d
1c
0b
03
07
fa
27
32
17
10
07
0d
ea
02
eb
07
f9
ee
f4
35
02
13
19
05
ff
f5
04
12
f9
20
0f
fc
fc
0d
13
fc
c5
f7
22
f4
ee
31
1d
04
07
14
4b
0c
f8
10
ed
11
fc
08
13
ed
fe
14
da
17
f3
2d
22
e5
f2
23
0a
f8
d7
1e
d0
f8
26
fe
dc
e6
09
1a
eb
ef
10
02
d8
fd
db
b4
e6
bf
10
1a
ea
23
23
f7
ec
e4
fe
10
0b
15
0c
0e
2f
28
f3
ef
f8
f2
e6
db
d1
e0
d2
e8
17
9b
c9
0e
e3
f8
fe
07
1f
14
fa
e2
ea
08
e1
e7
fe
cc
e7
03
f4
11
f4
d2
cf
d8
f5
1b
e1
e9
13
0e
03
0c
03
0f
08
e2
0f
0a
df
09
db
27
2c
1a
2a
1d
f7
02
fd
1c
24
e0
11
dc
ed
19
da
f4
19
e8
19
19
2d
d3
fe
f6
09
29
1b
05
ea
17
0c
18
08
f7
f6
35
0f
02
05
00
de
ec
3a
2e
f7
1b
d6
db
e6
04
25
05
ea
cb
37
e8
04
d3
e5
f5
36
14
f6
0d
f8
fd
3e
c3
1b
fa
1a
d0
4a
f9
e8
22
10
fd
c2
f5
ff
0f
03
fa
f3
ed
d7
d3
fe
ec
cb
1b
0e
fc
dc
e9
01
19
fe
34
f6
2f
11
16
d5
ff
08
f7
f8
f6
08
fb
fd
f4
fb
07
f8
e3
34
e8
03
15
ec
07
c4
07
20
ef
35
0d
c9
e2
07
0f
0e
09
db
33
df
18
09
1d
04
00
f5
d8
eb
2f
08
0d
11
d1
e9
27
1c
ff
0d
f7
f9
06
e3
e1
01
c7
f0
e3
1a
e9
1e
ff
17
e6
da
e8
f4
13
ef
e6
0f
01
c2
e2
36
e6
fc
d9
11
10
0f
10
f2
06
07
0c
1a
fc
17
0d
e5
17
ec
e0
04
1c
19
17
11
0c
fe
20
1f
ed
fa
15
02
0e
18
d8
05
dc
f1
f3
c4
25
00
00
00
00
00
00
00
00
00
00
00
00
00
00
00
00
00
00
00
00
00
00
00
00
00
00
00
00
00
00
00
00
00
00
00
00
00
00
00
00
00
00
00
00
00
00
00
00
00
00
00
00
00
00
00
00
00
00
00
00
00
00
00
00
00
00
00
00
00
00
00
00
00
00
00
00
00
00
00
00
00
00
00
00
00
00
00
00
00
00
00
00
00
00
00
00
00
00
00
00
00
00
00
00
00
00
00
00
00
00
00
00
00
00
00
00
00
00
00
00
00
00
00
00
00
00
00
00
00
00
00
00
00
00
00
00
00
00
00
00
00
00
00
00
00
00
00
00
00
00
00
00
00
00
00
00
00
00
00
00
00
00
00
00
00
00
00
00
00
00
00
00
00
00
00
00
00
00
00
00
00
00
00
00
00
00
00
00
00
00
00
00
00
00
00
00
00
00
00
00
00
00
00
00
00
00
00
00
00
00
00
00
00
00
00
00
00
00
00
00
00
00
00
00
00
00
00
00
00
00
00
00
00
00
00
00
00
00
00
00
