26
21
fa
bb
f2
d6
cb
39
23
0f
09
e3
f8
24
1e
f4
01
e0
06
de
18
de
35
19
03
17
17
08
1c
f6
f0
ff
15
d8
e0
e9
10
fa
e4
16
03
01
e3
25
ee
0a
f9
d6
1d
05
08
f9
e3
1e
ef
23
02
0b
10
0d
35
ff
24
fb
fb
09
13
0e
04
ec
b7
de
f7
07
f7
cd
fb
2f
ea
34
31
0c
fe
c9
47
ac
f6
d7
ed
0e
fb
33
ee
f6
23
f3
0d
dc
e1
fc
d3
fa
f9
27
dd
eb
e3
04
03
3e
f4
db
02
01
b9
4a
f5
d0
27
ef
f6
fe
d9
ee
e6
ed
18
13
f3
f3
f6
f6
1f
e7
dd
1b
f2
04
dc
07
10
d2
0a
01
fc
1e
c2
ec
f0
dd
c8
10
fa
da
1e
f4
02
1d
0f
10
19
12
0a
05
fc
17
e8
10
ed
ea
08
ed
e4
df
3a
00
ae
dd
0a
e9
0f
fb
2a
22
ce
0e
13
ee
fa
ec
17
1d
f3
08
0a
0a
1f
fb
0e
da
1e
04
0d
19
1e
fd
e8
0a
17
e3
0a
ff
02
eb
0b
f4
f4
f8
11
fa
fb
d4
ed
ff
d5
fd
f9
00
f1
f0
e7
db
e6
0c
20
07
0e
e3
fe
11
26
05
fd
0c
10
25
07
00
f8
00
07
ec
14
03
2b
2a
d9
10
33
f1
13
20
0c
1b
df
f8
1f
e9
e5
fc
0d
11
15
f8
23
f2
da
0f
f4
ff
ec
24
11
00
d8
0f
2c
f5
11
16
f7
32
34
16
ca
e8
f3
0e
01
23
1a
1b
0e
fc
15
ff
05
d6
07
ff
05
bb
e1
a3
bc
ee
2f
fc
17
f8
21
19
1c
f1
05
fa
13
0a
dd
0c
03
f0
55
f7
d9
1d
cc
e4
0d
28
02
1c
01
16
f8
16
1d
16
08
33
0d
e7
ed
f1
e8
fd
21
cb
10
00
0f
1a
c3
12
0d
0c
1f
2e
dc
d8
f1
20
f0
cd
0a
ca
05
0d
09
3e
bb
08
e0
0e
3d
13
e9
10
0b
2c
e8
1e
d2
fc
00
34
02
c5
04
0b
f3
30
0c
e9
0a
fe
26
00
09
e7
f4
01
f4
25
f1
01
df
01
23
0b
1d
f6
2d
d6
f5
fc
1b
08
f7
11
2b
e7
17
17
d7
05
f3
cd
f8
f2
fd
c8
0b
04
18
0d
1c
f2
fd
f6
fe
0e
f2
12
ee
f4
00
fb
fd
ef
fd
e9
44
f1
fe
0e
a5
db
e7
cc
28
d3
fd
33
be
28
f9
00
e3
fd
07
24
0f
50
06
2e
08
1a
03
07
ff
c6
27
0b
10
0f
45
d4
04
f5
fd
f1
0a
1d
fe
24
eb
0a
c4
fd
ff
05
0c
16
2c
00
1f
d3
eb
fc
e6
e8
09
33
f6
0b
d0
0a
c7
27
f4
f5
26
fe
f7
03
e1
26
51
08
f5
02
f5
02
31
f5
fb
fe
cf
12
f4
0e
16
27
f7
08
14
eb
f0
46
07
27
0f
07
1b
31
ec
36
41
ec
d9
01
d0
0a
f0
eb
14
f2
11
ea
f5
38
cf
46
18
df
0c
fb
f3
1d
f8
d0
fe
fb
ee
f7
18
f2
0b
29
f6
f4
f4
da
fb
e7
f0
19
f8
f1
06
e3
c2
17
2a
f8
16
e6
f8
d2
ee
2b
dd
f9
e3
e5
34
ed
13
44
dd
e3
2c
14
02
1d
eb
fc
29
f8
da
31
1e
f6
da
f6
0c
4a
fd
dc
ea
e5
f8
e8
1a
19
fd
e6
4e
05
0d
f3
32
04
d0
d3
38
ff
be
f0
18
28
0e
03
03
0f
d8
06
e7
fb
25
e9
e6
fe
10
cb
23
d1
db
f9
28
15
fc
1f
f4
1b
fe
1a
db
d9
c8
e2
12
f2
04
04
06
34
04
ec
09
03
0e
f1
f4
dd
38
0d
0f
0a
c7
e1
cd
f6
02
03
fa
e0
f7
08
0b
36
d7
0c
f6
16
1c
f9
02
13
ee
bf
e1
17
f5
ec
d9
11
de
e8
f6
04
1c
0b
15
f2
5d
f2
06
19
02
26
dc
0c
f8
0e
29
f6
34
ef
0b
f4
eb
e3
f5
03
1a
f5
d0
fe
e8
26
f3
f9
00
00
00
00
00
00
00
00
00
00
00
00
00
00
00
00
00
00
00
00
00
00
00
00
00
00
00
00
00
00
00
00
00
00
00
00
00
00
00
00
00
00
00
00
00
00
00
00
00
00
00
00
00
00
00
00
00
00
00
00
00
00
00
00
00
00
00
00
00
00
00
00
00
00
00
00
00
00
00
00
00
00
00
00
00
00
00
00
00
00
00
00
00
00
00
00
00
00
00
00
00
00
00
00
00
00
00
00
00
00
00
00
00
00
00
00
00
00
00
00
00
00
00
00
00
00
00
00
00
00
00
00
00
00
00
00
00
00
00
00
00
00
00
00
00
00
00
00
00
00
00
00
00
00
00
00
00
00
00
00
00
00
00
00
00
00
00
00
00
00
00
00
00
00
00
00
00
00
00
00
00
00
00
00
00
00
00
00
00
00
00
00
00
00
00
00
00
00
00
00
00
00
00
00
00
00
00
00
00
00
00
00
00
00
00
00
00
00
00
00
00
00
00
00
00
00
00
00
00
00
00
00
00
00
00
00
00
00
00
00
