fe
15
18
fd
2b
18
07
eb
e8
2d
26
f4
fc
f8
04
04
01
ff
a8
21
1c
ef
fe
1d
c6
ef
c9
3a
ef
07
ee
ff
1e
01
cd
08
fc
00
0a
0e
27
df
e8
f5
0b
fc
16
27
1b
1a
18
26
e4
08
da
0b
f0
fc
0a
d6
e7
0b
be
09
db
23
05
01
21
d6
d9
db
f4
fc
00
fa
fa
d6
29
fd
0f
f5
d0
17
3c
fe
42
fd
0a
fb
e1
fb
12
14
c1
07
bf
fb
f3
18
0c
13
f3
d3
f4
3d
16
18
04
1d
20
ce
10
2c
0e
e8
25
31
e9
0c
04
11
08
f8
33
01
f8
0e
07
ea
00
22
2d
2b
0c
ec
ba
f8
1a
29
17
ed
fc
fe
1b
fb
1e
08
02
ff
20
11
df
ea
f8
02
d8
0a
c5
11
f1
f5
07
f6
22
f6
08
df
d5
29
e2
0c
1b
e6
28
0e
fa
11
f3
ce
dd
07
28
09
f2
dd
c1
12
1c
e5
f1
fe
17
ea
10
e6
b9
10
05
02
33
05
02
f2
02
03
d5
dd
ee
ff
1f
d2
0e
fb
f9
ee
e3
f2
0e
01
22
00
01
2c
1b
22
23
e6
27
d5
f1
11
e3
17
13
df
1c
07
d9
2f
db
0b
2c
06
e7
ee
f7
fd
0d
13
e3
f4
0b
d5
fd
25
3b
cc
06
bd
f9
20
20
1f
03
03
d8
e2
e3
e6
04
f9
18
1c
19
07
4a
02
11
17
03
f1
07
f0
30
fd
10
fc
05
f6
33
e1
32
dc
eb
0e
3e
14
f9
e2
1f
02
dd
29
ca
f7
15
2c
08
f1
12
1f
c5
06
01
fc
0a
01
06
04
06
ed
0d
f0
0a
de
0c
e1
e8
18
f3
f9
39
40
1f
04
0b
2a
f7
15
c8
2c
fc
f6
db
d7
fe
2f
23
17
15
fa
f2
1e
27
dd
b0
d5
ed
29
11
15
da
0f
03
e1
0a
e4
02
f4
16
11
1e
5e
f7
0b
06
08
ea
bf
b8
c9
fa
ed
ff
d8
d1
17
d8
f6
23
ed
f9
e7
06
e5
06
f2
f5
13
c0
19
5e
2f
f4
24
0d
1b
23
ce
d1
de
ec
03
1a
e9
15
ba
ce
f2
12
27
fa
fb
e9
09
fb
15
1b
f9
d1
0b
0e
05
ed
1d
d5
19
16
d1
2d
1c
f7
10
0a
14
0a
12
11
f8
dd
ed
17
f4
cf
37
01
12
01
32
18
0e
10
34
eb
fb
0b
ef
db
ce
19
f6
f0
ff
c9
1a
30
fa
1f
ef
dc
f6
f5
2d
e2
1c
fa
e9
06
f2
eb
2c
1f
df
1b
26
3b
f1
01
17
56
f1
d0
07
eb
e3
15
fd
06
ee
44
14
e6
f9
38
eb
20
d8
46
12
1b
2c
19
d0
46
1d
fc
10
14
18
0c
19
f1
df
07
1e
e9
e4
f4
27
e6
07
ff
06
d5
ee
13
e6
ea
e2
f5
f4
ea
28
2f
04
1e
10
0d
09
1f
f0
e0
3f
3a
15
06
f6
c4
34
e2
28
bf
d9
0b
f8
e3
1f
ce
22
f5
ee
33
04
ff
dd
07
2a
f3
f5
d7
da
f4
30
fe
17
e6
e8
0e
e5
0e
00
0a
d4
28
fb
04
04
3a
1c
f4
10
fa
f2
0e
0d
a6
fe
df
f1
f3
f5
19
17
07
e0
02
09
38
0c
dd
19
fb
09
0a
22
0b
d5
12
0a
10
fe
09
2f
1e
ff
dc
f2
e8
19
d6
09
bc
04
b3
1a
08
fb
06
04
18
db
16
f2
01
46
0b
e4
04
ee
32
ee
15
09
01
2b
d8
1f
e9
31
fa
fd
00
28
29
22
f5
e1
e4
db
ef
d2
fc
01
d2
0b
16
0d
f2
00
f5
ff
04
10
08
e4
05
b5
09
09
ef
e5
ec
f6
e6
0b
1a
eb
eb
01
15
0f
f9
16
03
10
e6
38
24
0e
23
ec
17
b4
02
d1
fd
eb
e1
e4
fb
0e
f9
00
f1
08
01
ea
27
02
b3
e1
e6
e9
eb
0e
1a
33
06
f5
1c
2c
e3
eb
ef
de
e9
ed
f7
a1
00
fd
f8
0e
cb
c9
03
f4
1a
f1
d6
ed
07
1e
00
00
00
00
00
00
00
00
00
00
00
00
00
00
00
00
00
00
00
00
00
00
00
00
00
00
00
00
00
00
00
00
00
00
00
00
00
00
00
00
00
00
00
00
00
00
00
00
00
00
00
00
00
00
00
00
00
00
00
00
00
00
00
00
00
00
00
00
00
00
00
00
00
00
00
00
00
00
00
00
00
00
00
00
00
00
00
00
00
00
00
00
00
00
00
00
00
00
00
00
00
00
00
00
00
00
00
00
00
00
00
00
00
00
00
00
00
00
00
00
00
00
00
00
00
00
00
00
00
00
00
00
00
00
00
00
00
00
00
00
00
00
00
00
00
00
00
00
00
00
00
00
00
00
00
00
00
00
00
00
00
00
00
00
00
00
00
00
00
00
00
00
00
00
00
00
00
00
00
00
00
00
00
00
00
00
00
00
00
00
00
00
00
00
00
00
00
00
00
00
00
00
00
00
00
00
00
00
00
00
00
00
00
00
00
00
00
00
00
00
00
00
00
00
00
00
00
00
00
00
00
00
00
00
00
00
00
00
00
00
