d6
f3
03
2e
31
01
fe
0f
24
17
ea
fb
f3
f7
f9
ed
05
fe
e6
0d
09
38
0e
44
1f
f9
fe
df
01
fc
27
2e
12
22
f6
07
19
0a
dc
e7
e2
f8
d3
e8
09
2a
fb
12
f6
fe
f2
11
1a
0f
16
10
01
1f
fa
19
1a
00
22
05
db
2c
02
09
ca
04
ec
fb
03
00
e5
e6
e3
23
28
08
f1
e9
da
11
0d
f3
04
ec
c6
e8
f2
fc
1f
f1
19
13
2c
1d
42
ed
2f
f4
f4
f4
0c
29
03
1f
d8
21
36
1d
00
3b
fe
01
01
f6
ec
a9
e3
ff
fa
d0
08
03
08
1d
5e
d3
f7
22
e1
ec
21
04
1e
06
07
16
d0
26
e6
f0
0c
ed
d5
ee
14
f5
e7
0b
e9
09
f0
e9
1e
25
c8
35
c2
1d
11
f8
15
f0
18
e3
ed
01
0e
0f
03
09
11
17
f6
d7
f1
24
11
31
06
c9
fe
0b
03
11
09
e0
d9
f7
24
f1
c0
fd
00
14
f6
fb
ee
cf
db
e6
10
f4
07
c5
0c
00
01
0f
e0
15
ee
f3
23
09
c5
e8
14
de
d8
30
15
03
19
f3
1b
0e
db
0c
02
2e
f3
ff
15
06
fe
fa
f4
01
28
e4
ed
1f
14
04
e6
d8
eb
23
0f
12
23
00
14
fd
f8
22
04
23
0a
0a
06
2d
ee
32
f7
17
02
0b
10
d0
ff
0b
f0
02
fd
48
ed
fe
09
21
d9
f0
f4
05
07
1a
b5
f5
fc
0e
2e
fc
06
d8
13
24
0e
26
12
d7
db
01
ee
d8
ee
07
02
0a
d8
27
ca
2b
e5
17
ea
23
f7
42
00
16
e9
ee
e1
04
f6
06
ec
c2
25
da
0a
bc
e7
13
12
ea
e7
eb
eb
c6
27
0f
10
29
e6
ff
df
f4
24
fb
25
18
0c
16
eb
dd
1c
18
d1
e5
d8
0c
2c
02
ec
24
dd
bf
cd
0b
26
f3
e7
fd
24
fb
f1
f8
ce
e3
e4
eb
ea
fa
05
f5
23
29
f0
00
13
0d
ef
ee
e8
13
01
d0
0c
e5
ec
22
09
05
f9
e0
d6
28
ea
0e
f6
ed
32
0f
c5
f1
13
19
ff
e3
f0
02
05
05
da
00
de
f0
08
fe
22
08
02
13
e3
0c
14
1b
d6
ff
db
18
1b
0c
05
0a
34
0e
c8
02
04
23
c7
d7
d6
19
17
1f
25
04
f3
e9
2b
f4
12
f8
c1
ed
0f
f1
e2
e8
0e
fb
e2
ff
fc
f1
cf
e5
1c
12
9e
25
0e
fa
33
0e
07
cf
01
d3
f1
17
09
01
1b
1d
fc
e9
f7
1e
1d
fe
f0
d5
fa
07
14
ed
1f
e0
e8
4e
19
0a
0f
e5
07
fd
ff
f6
dd
ce
07
fb
1b
34
c0
0b
1d
0d
f7
f1
cb
fe
be
e2
3c
07
01
e4
02
f9
f2
1d
f0
cd
f9
eb
fe
d1
0c
fc
fa
e0
fb
e3
53
e3
2e
dd
06
c2
0d
db
e3
19
0c
b7
fd
17
19
e4
fb
08
20
00
e0
f6
ed
07
09
00
f9
1f
dc
eb
eb
e1
04
f9
df
cf
fa
10
38
f6
ee
00
10
fa
df
db
e6
fd
30
09
19
3c
05
12
16
12
df
1a
ce
2e
fd
de
03
f1
e3
ca
24
08
1f
d6
fa
1b
e1
e8
f4
20
ff
1a
34
ec
06
d0
20
f3
ed
e4
fe
03
d8
e3
44
d4
02
13
17
f9
17
18
fb
1c
61
16
df
e3
04
09
cf
fc
d8
12
09
d6
03
f3
09
24
f5
f4
da
da
ec
06
2e
da
fd
df
e4
fe
31
eb
16
e0
22
10
f1
f8
11
ec
e0
2b
06
fa
dc
0f
04
e6
1d
10
fb
f7
01
0a
13
0e
ef
fb
13
fe
34
22
f6
f8
1a
fc
ec
12
f9
d0
e5
27
1d
e0
eb
f9
0e
2e
09
f2
f6
dd
0d
f1
f3
fe
f8
e9
2c
ef
28
da
22
cf
19
04
ba
02
ed
ee
1e
e6
04
12
13
0c
dc
f2
18
fd
fd
f0
04
f7
01
10
e3
09
e9
fc
26
d6
e1
09
00
00
00
00
00
00
00
00
00
00
00
00
00
00
00
00
00
00
00
00
00
00
00
00
00
00
00
00
00
00
00
00
00
00
00
00
00
00
00
00
00
00
00
00
00
00
00
00
00
00
00
00
00
00
00
00
00
00
00
00
00
00
00
00
00
00
00
00
00
00
00
00
00
00
00
00
00
00
00
00
00
00
00
00
00
00
00
00
00
00
00
00
00
00
00
00
00
00
00
00
00
00
00
00
00
00
00
00
00
00
00
00
00
00
00
00
00
00
00
00
00
00
00
00
00
00
00
00
00
00
00
00
00
00
00
00
00
00
00
00
00
00
00
00
00
00
00
00
00
00
00
00
00
00
00
00
00
00
00
00
00
00
00
00
00
00
00
00
00
00
00
00
00
00
00
00
00
00
00
00
00
00
00
00
00
00
00
00
00
00
00
00
00
00
00
00
00
00
00
00
00
00
00
00
00
00
00
00
00
00
00
00
00
00
00
00
00
00
00
00
00
00
00
00
00
00
00
00
00
00
00
00
00
00
00
00
00
00
00
00
