24
fb
db
34
18
b1
f1
07
26
0f
08
0d
20
32
ea
05
d4
f4
0f
07
e8
c6
fd
c6
e7
0b
fd
fb
ff
e3
29
23
f0
05
15
f5
21
f9
dc
01
31
fc
c6
db
0d
0c
eb
dd
08
0b
0d
04
01
fd
13
fa
d9
de
eb
21
d6
1d
fa
1c
de
1f
15
36
1a
0e
07
f6
03
34
2f
f9
1f
20
10
eb
2e
3e
24
1e
f1
2a
ea
cb
c9
c8
fb
ff
cb
e1
40
f7
fd
07
e0
11
39
0a
1b
4c
1f
00
13
03
0a
3d
f5
fb
f0
0e
1a
ce
fd
1a
04
ee
3f
f5
eb
1e
20
eb
e0
33
e3
fa
12
0c
cd
09
fa
f1
13
e5
ef
c6
f3
f1
08
e4
c4
f8
f6
12
f4
da
00
f6
07
d3
03
02
2b
fb
fd
d0
ec
2c
f3
14
f7
e3
df
16
00
f7
fe
2e
13
0e
05
04
18
de
ed
d2
0e
2a
f0
2f
f3
09
ce
08
fe
06
e0
11
15
07
e8
3f
08
1c
f6
13
09
45
28
df
12
ee
03
29
e8
1a
ed
fa
19
08
ff
dc
f8
e4
13
f5
28
fe
14
41
11
f1
f7
1a
f4
15
ed
fa
f7
13
f2
23
d6
e5
f4
03
0b
f7
ef
21
a7
06
fd
1c
14
fd
dd
0a
2e
eb
f6
22
1f
fb
07
f9
3c
14
f4
25
ca
ed
fd
05
f0
e5
ff
f4
14
06
ec
ea
d7
19
05
2b
02
fc
09
08
f2
f8
f7
fc
3a
f4
46
f8
ef
0a
ff
f5
ea
0f
03
1f
ee
ef
00
f4
06
30
f0
cc
d8
f2
1e
f6
d0
0a
1d
e7
ee
03
e8
fb
eb
dd
fd
2f
dd
09
2e
db
13
df
18
04
02
0e
ed
eb
fb
21
ef
0e
e1
eb
0e
ed
f6
f8
a0
e8
09
ec
07
e9
09
18
cf
ef
f9
18
1e
e3
ee
fa
01
d2
0b
f5
ea
f6
0b
dc
06
1d
e2
0b
bc
2c
08
04
09
07
ff
0a
1f
e2
dd
ed
2e
0a
09
1e
02
3e
da
1f
0f
47
ee
00
df
f4
ef
ff
fb
fc
fd
f4
23
16
b9
f8
f8
08
0e
f6
d9
ff
31
0d
fd
17
11
fc
fd
14
1b
03
08
d4
ea
01
09
ea
ad
27
f8
06
f9
29
ce
01
ff
ef
0b
c2
5a
1c
13
04
24
13
14
df
13
e0
f6
05
fd
ef
07
45
2c
de
eb
dc
e2
17
dd
25
17
19
02
00
cc
19
f6
00
e3
1e
fc
3f
f2
2c
f9
e4
e3
0a
45
f8
cb
17
d9
04
dc
0c
c0
f2
f8
09
16
15
0d
d3
03
f3
1e
ad
e7
19
32
c6
01
00
fe
23
e9
26
ee
18
1e
f2
ca
ea
2e
ff
e4
07
08
e4
e4
0b
e6
0c
1f
16
22
ff
f3
f1
19
18
d6
29
06
0b
0a
0d
24
fb
16
44
ea
0a
03
eb
d5
0d
fa
ff
f5
d9
fe
d9
e3
f7
e6
f3
c9
e1
05
25
08
04
22
15
00
f9
db
2a
d5
f1
00
06
d6
eb
18
06
06
fd
ce
10
e9
04
24
2b
0b
e8
09
1e
06
09
f6
f8
ee
f1
0e
02
e6
2c
0f
f1
fd
f6
18
fe
11
11
02
e1
11
37
d6
0a
fd
08
01
f7
2d
d7
e5
e6
e2
07
fc
df
05
fa
1e
f6
df
f4
f4
10
21
f1
fb
eb
ed
fb
05
15
b7
fd
e9
d3
f6
ff
17
05
11
f1
0d
02
f6
0d
d0
f4
da
22
3f
c7
14
18
f7
e8
ed
06
f7
d1
0e
05
10
01
f6
e4
00
16
18
09
e2
df
16
07
0d
02
09
f1
bb
23
e6
ce
df
ef
fd
14
d6
fa
1c
f4
39
18
f6
fb
22
d8
02
26
0a
e1
d9
2b
d0
1c
36
0f
0b
37
f7
2f
e6
fa
f1
08
05
f4
f9
fd
18
f5
16
03
d5
cf
e8
05
f0
15
4e
eb
0b
f7
22
1b
e9
dd
d6
12
21
29
41
fc
06
19
0a
c8
1e
2e
2e
2e
e4
2c
09
f3
01
17
03
e2
cb
01
c7
ef
08
f0
21
0f
00
00
00
00
00
00
00
00
00
00
00
00
00
00
00
00
00
00
00
00
00
00
00
00
00
00
00
00
00
00
00
00
00
00
00
00
00
00
00
00
00
00
00
00
00
00
00
00
00
00
00
00
00
00
00
00
00
00
00
00
00
00
00
00
00
00
00
00
00
00
00
00
00
00
00
00
00
00
00
00
00
00
00
00
00
00
00
00
00
00
00
00
00
00
00
00
00
00
00
00
00
00
00
00
00
00
00
00
00
00
00
00
00
00
00
00
00
00
00
00
00
00
00
00
00
00
00
00
00
00
00
00
00
00
00
00
00
00
00
00
00
00
00
00
00
00
00
00
00
00
00
00
00
00
00
00
00
00
00
00
00
00
00
00
00
00
00
00
00
00
00
00
00
00
00
00
00
00
00
00
00
00
00
00
00
00
00
00
00
00
00
00
00
00
00
00
00
00
00
00
00
00
00
00
00
00
00
00
00
00
00
00
00
00
00
00
00
00
00
00
00
00
00
00
00
00
00
00
00
00
00
00
00
00
00
00
00
00
00
00
