fb
34
27
fe
c1
d5
09
10
0c
ec
36
f6
da
f2
f3
f6
03
fe
f9
ef
24
ef
f6
d7
dd
11
fa
fa
d0
e4
f7
fa
1f
f1
0d
f2
03
25
05
fd
ed
0d
d1
18
f4
11
0b
0b
e9
04
1f
22
17
00
f0
cc
e8
1a
f1
15
21
e7
e3
e7
f3
19
fd
03
e1
f6
08
cb
e9
1b
e6
f6
e3
e8
36
04
19
0d
fa
ff
c8
f9
ef
22
0d
0e
03
41
11
00
e5
0f
0a
e9
c8
e8
2a
f8
12
c5
fe
17
cc
fe
f7
e1
d8
f0
e0
11
e4
e2
13
de
ff
17
01
e2
fb
f1
d0
37
00
0c
0e
29
da
06
16
15
ff
23
ff
08
12
0d
15
f4
e9
ec
db
10
0e
40
ea
13
1a
06
1a
df
e9
26
0e
e2
13
03
f1
15
0c
06
d4
0d
fd
f8
e8
fb
fb
f3
fa
dc
f9
e9
ec
fe
0c
f3
19
f2
17
11
ee
16
fb
ff
14
23
f9
0a
e6
12
e6
00
ee
18
01
29
00
f6
1e
24
04
3a
db
02
da
d4
e5
36
e2
11
04
e1
c9
df
55
fe
ee
d9
1c
f2
10
13
03
1a
fb
cc
f2
fb
11
39
09
13
f5
0e
02
1f
18
08
1d
28
f7
0b
dd
2a
dc
bc
16
2c
00
25
31
13
cd
0f
e0
2f
12
ed
2d
f4
d9
f4
f0
10
f5
3c
00
f6
f9
ec
13
f9
f9
3b
16
e3
ff
d0
05
fb
12
f4
00
e9
d8
c7
d2
e9
e6
21
ab
13
28
d0
47
fd
27
f8
14
ea
2a
be
24
f4
06
e0
de
06
13
f7
ee
11
e2
a6
e0
fc
d3
d3
07
1b
09
e2
0d
f1
d3
fe
c9
e1
16
f1
52
00
10
1d
0e
f8
ed
d0
d6
12
c7
ea
f5
cb
e1
df
ea
00
09
01
0c
e4
01
34
d9
c1
0c
04
04
22
f2
e7
df
ea
19
10
0c
f2
b8
e3
d3
f8
fb
dc
ed
f6
f0
fa
14
01
e2
ac
dc
f1
05
f5
ee
e5
ff
3d
d2
f7
08
e7
e7
e8
19
e0
03
e6
14
b8
1f
14
0f
00
ee
11
fc
f7
0a
f9
1e
e0
e3
00
bf
12
ff
fe
1b
11
07
0a
f1
51
f3
23
08
23
2e
e8
1b
27
15
0e
00
0b
18
e9
07
f4
0b
17
ec
e7
18
00
ce
ed
ec
22
d3
e8
09
02
1a
e4
1f
11
fe
00
f5
ee
fb
ec
18
06
08
f8
e8
e0
1f
0f
f4
e1
09
e6
20
0f
ea
fb
1e
0a
c2
04
03
1f
2e
2c
ec
04
e1
fc
19
f2
e3
e4
25
fe
e4
da
e4
29
01
e4
f9
2f
11
41
03
0d
14
f0
12
06
fc
2a
d3
ee
f4
27
09
0c
15
11
ef
f9
01
2a
d6
da
17
fb
f6
2c
fb
15
22
0c
24
21
d1
03
21
d9
e2
ea
24
df
07
fd
10
fc
f7
df
00
df
0d
20
fe
0a
ca
20
1c
10
1b
1c
16
fa
17
f3
09
ce
14
f4
14
fa
07
f8
15
2e
07
10
0c
08
21
18
33
04
00
28
da
2f
eb
1b
0f
d0
e6
f2
de
e3
2f
30
0a
ef
24
15
fa
f0
18
1a
d4
e1
d4
10
17
dc
ef
e6
0c
2b
21
eb
07
16
f8
fd
e8
d7
d4
fd
05
0d
2e
03
e7
16
04
fe
fa
07
ed
04
ef
f9
1f
ec
fb
10
fc
f7
19
da
00
e5
d2
f0
ff
f2
dc
03
f4
de
dd
03
eb
3f
0d
12
e7
06
1e
d5
fd
e5
e1
e3
04
da
04
ff
0e
d9
27
fb
1c
26
27
d6
1f
25
17
02
c5
12
19
0a
07
fb
f3
24
2e
ec
20
ea
11
00
20
05
0f
d3
00
d8
2f
cb
0c
0b
0a
fa
14
fe
0d
11
ca
dd
04
14
f2
0b
c4
ff
cc
12
fd
09
e2
05
19
1a
ea
19
16
00
1a
fd
f1
c9
e2
f6
1d
fa
22
08
34
21
fc
17
fa
bf
15
c7
cd
f6
27
08
06
f1
24
db
12
30
d6
f6
15
f3
c3
0d
cd
0d
00
00
00
00
00
00
00
00
00
00
00
00
00
00
00
00
00
00
00
00
00
00
00
00
00
00
00
00
00
00
00
00
00
00
00
00
00
00
00
00
00
00
00
00
00
00
00
00
00
00
00
00
00
00
00
00
00
00
00
00
00
00
00
00
00
00
00
00
00
00
00
00
00
00
00
00
00
00
00
00
00
00
00
00
00
00
00
00
00
00
00
00
00
00
00
00
00
00
00
00
00
00
00
00
00
00
00
00
00
00
00
00
00
00
00
00
00
00
00
00
00
00
00
00
00
00
00
00
00
00
00
00
00
00
00
00
00
00
00
00
00
00
00
00
00
00
00
00
00
00
00
00
00
00
00
00
00
00
00
00
00
00
00
00
00
00
00
00
00
00
00
00
00
00
00
00
00
00
00
00
00
00
00
00
00
00
00
00
00
00
00
00
00
00
00
00
00
00
00
00
00
00
00
00
00
00
00
00
00
00
00
00
00
00
00
00
00
00
00
00
00
00
00
00
00
00
00
00
00
00
00
00
00
00
00
00
00
00
00
00
