d5
fd
1a
fd
f9
20
4b
db
ee
13
e6
ed
4c
11
32
17
2a
fd
19
0c
c6
f6
f1
24
ee
df
35
fa
03
ce
e1
c9
cc
0f
e2
cd
05
f4
2a
f0
0b
30
08
fd
f6
12
0c
c3
f1
23
05
f7
40
27
c5
3b
18
b6
e6
d5
f2
f2
1b
cb
3e
dc
39
02
13
08
13
c5
11
f7
f9
39
2b
17
f3
2c
f4
ec
00
ff
34
e2
dd
e0
04
0d
ec
e8
cc
5d
25
fd
cc
49
0c
d0
e8
3a
02
fb
4f
2a
ea
e5
f6
fb
01
27
22
22
02
fa
24
ee
e4
4a
29
f4
09
da
14
fb
15
30
