0b
25
1e
3f
c6
25
19
e9
ca
2e
02
e1
eb
fe
e6
1e
41
a4
c6
d5
12
d0
d3
36
d1
40
2a
18
f3
fc
30
14
fd
57
fc
d9
19
e4
33
0e
d8
d7
0d
cf
c6
18
0d
d3
f0
fd
3d
fc
09
01
b1
e7
c8
fe
24
10
c7
f1
ee
e3
dd
17
ef
0b
05
0f
ff
3b
02
13
ca
05
ed
e7
15
d2
11
02
f5
fb
ff
1e
02
f6
fa
e1
e5
0f
dc
fe
fc
15
09
c1
ea
f0
fc
d0
2c
e6
0c
1f
cc
00
16
cd
00
28
10
0c
db
4e
e9
f6
fa
d4
35
f7
f6
04
21
4b
0d
4a
