05
e0
38
f7
3b
df
1b
2a
1e
50
1f
c7
17
23
d9
d7
06
f1
fe
fe
4a
fb
f9
18
f2
01
ec
0d
eb
f0
be
30
0d
39
ec
ff
07
ec
19
fb
0a
c5
df
e6
18
ef
03
11
08
e6
e7
2d
24
fe
03
f6
1c
09
12
14
0f
2c
f1
ff
e0
0e
df
fa
0d
11
29
ed
d2
02
f5
f8
0d
d6
0f
f2
ec
2c
0d
15
da
13
f4
02
18
d4
b5
20
f6
12
d8
35
0f
0d
13
f9
f3
fc
0f
04
f8
f8
f0
e6
1c
df
f9
15
e4
06
0a
10
e4
2c
fc
f3
31
e3
fc
2c
f4
10
2c
15
e9
ed
fd
1e
05
fe
f3
f5
f0
2e
f8
e6
d8
01
0f
31
ce
f6
e5
de
05
03
38
3f
f3
1f
1d
ff
13
1e
0c
07
e5
15
07
ff
f6
e7
de
12
08
e3
2d
e9
0d
14
0b
11
dc
db
e0
df
2e
0f
13
e0
08
fd
10
0b
03
10
d8
0e
e3
ee
ff
2d
ff
25
2c
41
f1
0d
1f
1a
06
e2
f8
d6
07
0a
11
ce
2d
e8
d9
e3
ec
e8
e9
15
da
0f
01
f1
da
08
26
14
d7
18
17
13
e1
d4
d2
d2
e6
10
f4
1e
26
0c
e3
2b
d5
12
cd
f8
be
ef
16
1d
10
c7
08
23
0c
28
db
1e
df
24
e5
e6
d6
0d
1e
1d
0d
25
fb
fa
1b
1a
f3
2f
f5
2d
fd
0b
19
16
36
fe
04
04
e6
16
d7
d9
f2
b7
2b
fb
dc
17
06
02
36
e6
00
ef
07
d3
12
12
f7
0a
d9
15
dd
dd
e8
34
17
f5
b9
f8
0c
e8
e0
21
02
49
fc
d2
36
e4
20
1f
f1
f2
04
f1
d2
11
2c
fe
1a
e8
d9
fb
1b
0f
f1
f2
e2
ec
10
d6
13
12
10
e0
f8
c8
de
19
f2
e9
0e
ff
df
05
c7
36
f8
11
0d
10
c6
00
d3
25
08
04
25
1e
d7
03
12
0b
03
07
0a
d7
e2
09
be
0b
ec
1f
08
03
fc
d5
17
b0
ea
fa
0c
2b
04
ee
de
18
00
ea
23
f9
02
f6
29
e4
07
ff
23
c9
21
df
3e
e0
f4
d3
f2
d8
11
1c
cf
e0
cf
fb
05
17
18
0e
fd
f3
0b
17
25
ee
fe
e5
10
f8
06
33
06
0a
0b
dc
16
ee
03
eb
f0
fc
00
fa
05
f2
03
dc
ee
15
f5
1f
e3
ff
0a
06
0c
49
c7
08
0e
f4
01
0d
13
0c
fe
ef
02
f5
1c
10
11
1e
ec
34
e5
1a
02
eb
ee
f6
16
1b
03
30
d8
e4
e7
ff
2a
eb
0a
1a
29
e5
12
10
13
e0
0b
02
ee
e8
da
db
05
2b
d9
ce
10
04
f7
e8
d9
1c
eb
e3
f6
fb
e2
0e
d1
06
10
d1
df
e9
0c
0c
d8
10
ec
e1
da
38
f3
09
27
ea
f5
fc
f7
eb
0c
de
31
f1
ed
f0
ed
fa
e3
f1
ff
f9
0d
20
cd
0e
fb
03
06
eb
02
0f
0a
ed
fe
fa
f4
01
f8
eb
05
dd
15
e5
f2
ed
e8
f7
0b
f4
fd
04
32
19
e5
44
f9
02
03
fb
0d
28
19
15
00
dc
e8
24
d2
2d
1f
11
fb
e6
cc
02
0c
e3
f9
33
18
fa
33
08
4c
db
fa
fa
e7
20
da
e9
c1
ff
0c
f1
1c
da
fd
09
23
1f
f8
d8
f6
03
28
f1
de
f6
28
c9
0c
17
09
39
02
e3
fd
e2
1d
01
d4
24
f4
ea
10
d7
17
16
33
ef
dc
ff
c6
de
03
3c
e4
e7
d8
06
12
2d
21
f8
df
06
ed
f1
17
0b
c1
23
d0
d6
0e
05
04
05
f1
15
fe
04
d5
09
f8
44
ea
cf
fe
2d
12
fa
0d
0b
e8
cd
34
19
db
fd
da
18
3e
f2
e2
ff
10
21
e6
07
f1
13
08
d6
e8
f7
f3
16
1a
09
d6
09
0f
0a
09
ed
16
0c
d5
02
f9
08
07
ff
0d
08
f4
04
d9
e1
fe
e6
55
15
12
05
e1
04
02
eb
4a
13
00
00
00
00
00
00
00
00
00
00
00
00
00
00
00
00
00
00
00
00
00
00
00
00
00
00
00
00
00
00
00
00
00
00
00
00
00
00
00
00
00
00
00
00
00
00
00
00
00
00
00
00
00
00
00
00
00
00
00
00
00
00
00
00
00
00
00
00
00
00
00
00
00
00
00
00
00
00
00
00
00
00
00
00
00
00
00
00
00
00
00
00
00
00
00
00
00
00
00
00
00
00
00
00
00
00
00
00
00
00
00
00
00
00
00
00
00
00
00
00
00
00
00
00
00
00
00
00
00
00
00
00
00
00
00
00
00
00
00
00
00
00
00
00
00
00
00
00
00
00
00
00
00
00
00
00
00
00
00
00
00
00
00
00
00
00
00
00
00
00
00
00
00
00
00
00
00
00
00
00
00
00
00
00
00
00
00
00
00
00
00
00
00
00
00
00
00
00
00
00
00
00
00
00
00
00
00
00
00
00
00
00
00
00
00
00
00
00
00
00
00
00
00
00
00
00
00
00
00
00
00
00
00
00
00
00
00
00
00
00
