e5
2a
d4
fa
ec
31
41
e1
00
e6
f1
f1
10
30
f0
db
f0
1b
c0
f4
e0
03
e4
01
f8
01
2c
1c
15
d7
43
00
d2
1c
0c
f8
e8
f7
f0
ff
f7
10
f0
03
08
00
f9
e9
2b
0b
0f
12
e7
f1
05
2b
f5
d6
16
e8
13
ef
10
db
29
42
16
fd
f9
0a
fb
03
06
3e
21
fb
eb
0b
2e
fa
ea
05
f7
16
e6
c1
3e
eb
01
03
08
24
a5
f0
e5
01
2a
11
e8
f1
00
05
15
1c
03
f1
08
e6
0a
ec
00
fa
28
22
f9
ec
e4
1d
fe
2d
28
de
db
ec
07
f5
23
06
06
18
e5
08
f2
f6
30
e9
28
14
26
03
06
2a
20
0b
dd
05
1b
00
fe
be
26
fd
01
03
b2
e8
e1
cf
14
d6
ed
10
0d
f8
13
07
ff
12
df
fe
f0
03
12
31
2e
14
fc
de
fc
df
f4
d3
e5
1f
2a
35
e8
23
f6
1c
e8
ed
ff
fc
fe
f3
11
11
19
2f
01
10
19
0d
fe
18
e9
fa
f7
26
bf
f5
32
f7
e1
fb
01
e8
e5
f9
16
2a
f7
1c
d9
e1
f7
1b
f7
dc
ff
fa
e0
db
12
01
0b
e1
0a
11
e4
ff
23
fc
de
f4
09
e8
fc
e1
fc
16
31
2b
fb
f5
f7
f5
13
03
f5
0b
fc
dd
f2
bd
08
00
ea
13
fa
0a
ec
f3
f9
eb
02
0b
f8
de
00
fc
05
13
e4
0e
b4
f0
dd
01
03
44
1b
eb
fb
04
05
03
11
e4
18
1e
15
04
f3
f5
f1
12
e2
ee
f6
02
f3
f1
1e
0d
10
eb
d8
d5
f1
11
06
3a
10
e2
10
df
f2
ff
ea
e2
0a
1b
10
f2
de
47
0d
07
f0
e6
d9
e3
d5
ea
1c
12
d8
0b
d2
0f
21
04
dd
e0
0f
ea
f5
14
1d
fa
18
19
f9
e2
29
da
07
27
0b
11
f2
18
0d
e2
02
f6
0c
30
f5
db
f1
13
10
11
f9
c0
d9
1a
10
e9
fe
f2
ee
fa
0c
01
d9
d6
ba
3b
c0
0b
11
11
1e
07
e2
f6
09
17
18
e3
c7
fc
e1
03
07
3b
09
fb
ed
f7
d8
eb
ee
02
30
0d
dd
12
ce
28
02
f9
f3
e6
07
02
f2
11
fa
fd
26
12
f0
db
eb
1e
34
20
fa
02
0c
12
04
e2
11
03
eb
1a
db
e7
24
fe
df
fe
e8
e1
36
e8
f9
f9
fd
19
19
0e
0e
0e
1a
fd
e9
1a
00
f0
13
f8
17
e6
eb
e6
ea
f7
25
d7
0e
f8
d6
fa
e9
fe
20
3d
0b
36
1c
fc
0d
cf
20
f2
ee
14
13
12
1f
1f
1a
ff
dd
c8
b7
10
0d
c3
4a
19
f5
1b
2d
ec
0a
f5
c6
fa
03
2e
0d
e3
d7
0a
2c
1e
07
1d
fe
f3
ed
0e
d4
0b
06
fe
05
fd
22
02
fd
01
15
3d
f7
0d
f6
11
05
e3
eb
fc
f2
f3
0a
15
06
ef
03
fa
f5
0d
e9
0d
de
d4
08
e7
e7
f4
1f
1b
01
c7
d0
1b
e6
01
28
0f
f5
11
f4
ef
f4
01
f3
07
db
06
19
12
e5
58
17
0b
0d
09
24
fc
ff
f9
00
06
e8
ea
0e
0a
f2
e6
ea
fd
0b
e8
d9
15
fd
01
db
11
c6
14
0e
16
fa
31
03
04
ee
da
17
c2
da
f4
02
30
2c
08
ed
25
e9
1a
01
12
df
10
02
25
14
22
b3
05
28
30
11
11
22
f7
1e
e0
eb
df
f2
e0
fc
dd
fe
d7
f3
06
24
0c
00
24
18
c6
09
05
00
eb
f1
b7
10
ee
db
1b
ef
07
f7
10
f8
19
31
e1
ea
f8
e0
21
e9
25
0a
1a
03
f3
0d
13
2d
f3
36
23
f4
f1
f3
d5
f0
f8
27
e7
f9
3d
ed
da
12
e9
0e
0f
0b
3c
f5
0c
34
12
0d
0c
e9
03
e2
18
08
e5
f6
00
14
07
f7
0e
03
f0
24
ff
00
d7
de
2a
0b
23
1f
d8
08
f4
f1
32
04
f1
dd
c6
00
00
00
00
00
00
00
00
00
00
00
00
00
00
00
00
00
00
00
00
00
00
00
00
00
00
00
00
00
00
00
00
00
00
00
00
00
00
00
00
00
00
00
00
00
00
00
00
00
00
00
00
00
00
00
00
00
00
00
00
00
00
00
00
00
00
00
00
00
00
00
00
00
00
00
00
00
00
00
00
00
00
00
00
00
00
00
00
00
00
00
00
00
00
00
00
00
00
00
00
00
00
00
00
00
00
00
00
00
00
00
00
00
00
00
00
00
00
00
00
00
00
00
00
00
00
00
00
00
00
00
00
00
00
00
00
00
00
00
00
00
00
00
00
00
00
00
00
00
00
00
00
00
00
00
00
00
00
00
00
00
00
00
00
00
00
00
00
00
00
00
00
00
00
00
00
00
00
00
00
00
00
00
00
00
00
00
00
00
00
00
00
00
00
00
00
00
00
00
00
00
00
00
00
00
00
00
00
00
00
00
00
00
00
00
00
00
00
00
00
00
00
00
00
00
00
00
00
00
00
00
00
00
00
00
00
00
00
00
00
