0a
26
01
e5
39
28
04
d0
05
07
d2
07
15
cb
0d
f2
e3
1e
fd
b8
28
cc
31
ff
0c
0a
1d
2b
d8
00
e3
20
18
2a
ff
ce
0a
0c
1b
0a
02
17
17
46
be
4d
13
eb
23
c3
fe
1d
20
06
e2
eb
de
22
1d
f4
00
fc
eb
2f
09
00
0d
03
e3
16
1e
e0
f1
29
f0
d2
04
e2
fd
bf
ee
0f
fa
35
0d
c7
c2
c9
e2
22
0d
4b
1a
16
14
28
eb
fa
ff
fe
1a
d9
de
06
f0
dc
cf
c4
03
fe
05
11
f3
41
eb
d4
da
00
16
e6
2e
2d
04
07
14
13
f4
d6
