e4
b4
bf
e1
f9
08
ee
0a
02
d9
06
f6
dd
fb
1a
f5
e6
e9
08
0b
dd
15
11
d0
3f
0d
cc
00
13
06
31
52
cd
dd
fc
e3
00
00
02
ff
ea
cf
03
de
f7
f4
f0
e6
fb
3c
d8
d3
c2
bd
e1
dc
08
06
f0
33
30
ff
f4
ec
dd
de
e0
df
16
02
11
dc
32
0f
f5
cb
ed
02
ea
0b
28
1d
0d
ed
e8
fe
c9
07
ef
15
13
ff
34
ec
e8
ee
27
fd
e3
1e
10
f4
10
e7
27
f3
e0
e7
11
eb
fb
f5
f6
e7
19
1b
1f
fe
f4
ec
d2
25
f5
1a
0c
ee
0d
d5
23
d1
2f
1e
04
f2
14
09
fa
1b
e8
f8
0d
04
fe
ec
15
10
0a
ff
d0
f2
18
ce
fd
1c
2a
ea
20
fa
ea
ed
1e
fd
08
fe
f7
0f
14
f6
1d
05
f2
0a
0a
f1
1b
e0
1b
09
f2
19
00
01
04
07
eb
10
36
25
fc
2d
f8
08
ee
02
02
24
d0
e9
03
08
0b
16
e7
0b
fd
1c
c8
d9
eb
fd
1b
d1
2d
04
2b
17
10
17
f1
ed
1e
d3
17
fa
04
e4
fc
c4
08
1e
fa
3b
f3
f8
07
11
08
4b
14
2f
0c
f8
14
0a
fd
10
1d
23
20
13
f6
0e
e2
44
0f
43
f9
03
01
d9
c9
34
fa
fe
f0
1d
ce
df
f0
26
fc
ec
40
2f
d8
17
d8
28
e9
0c
fc
fa
e5
de
1b
2a
e6
ee
0d
f3
f8
0c
dc
cf
25
05
0c
af
e7
19
e1
fe
f3
fe
e9
0c
f1
ed
0d
1b
bf
ea
ef
0f
f1
de
2f
0c
3a
c3
1b
e2
e8
b1
b4
e1
e6
f9
f9
b7
1c
ef
20
e6
16
e7
0d
e0
01
1f
e0
c8
1c
f0
fd
f6
fd
0b
ef
0a
00
12
cf
18
d4
f4
d4
11
ef
f5
c9
1f
e6
fd
d5
18
dc
f9
f0
06
e0
e2
e2
1e
00
ab
6d
09
03
e7
1e
e0
10
09
36
34
15
fe
31
13
05
f2
29
34
e6
20
c8
cc
f9
ed
0e
03
2c
26
1f
17
fe
19
18
c7
0f
07
f9
05
c9
29
d0
a4
ed
de
ec
c0
fb
0c
df
33
2d
ee
ce
fb
08
2c
da
f3
dc
0c
0c
25
07
eb
17
0b
c5
15
d1
c7
06
e9
eb
b2
1a
f4
fa
fa
f7
29
1a
05
f8
c7
2b
16
12
f8
21
03
eb
37
e4
da
00
17
fe
f6
1f
ed
0e
21
1b
26
f5
07
31
ea
19
21
0c
00
1b
d1
f5
1c
e2
f8
11
f5
f2
0c
0d
f2
f6
ea
d1
d1
14
12
c8
1c
c7
f9
fe
fb
10
d8
26
e6
e9
e8
1f
db
11
e7
01
f2
ff
2d
d5
0c
f4
2b
e4
0d
41
0e
d0
0d
03
fe
32
fd
2f
f9
e8
f1
bc
ef
ee
2c
f1
36
bf
0b
ed
0a
fe
f5
00
f9
f5
14
0a
f4
fb
01
e9
13
e4
ee
e1
ea
0b
01
36
eb
10
0d
fc
dd
1a
e3
f2
e4
12
08
dc
0d
14
1d
f4
0e
f9
22
01
e8
2c
16
07
f6
14
ec
f2
ed
fb
18
ce
0f
1e
0d
01
f1
02
ff
01
0a
1a
f8
07
d0
13
00
ef
f5
2b
eb
1c
c8
00
07
e6
fd
e9
f9
2b
f8
ed
19
dc
fc
fe
28
fc
ee
ce
ec
e3
df
10
06
c2
ed
d9
b5
fc
02
ca
13
0b
da
fd
f9
f0
f3
08
02
fd
ef
1d
1d
fb
0a
43
0f
1f
f6
16
fa
2d
e9
eb
f3
31
16
12
d0
0b
02
e1
09
fc
ef
ce
11
ca
25
f1
18
ee
f9
ef
02
fc
f3
01
1a
d3
02
16
bc
11
f0
c6
d8
d5
0e
0e
02
18
0f
1d
f6
40
db
04
ef
25
f5
fb
f4
09
25
16
02
e6
15
0f
e4
39
f6
ed
01
21
08
ff
03
13
e2
e9
f5
fa
33
0a
e0
25
07
09
ff
0a
01
07
0f
07
2a
36
f0
e2
e8
0b
ec
ee
ed
bf
ec
1a
f2
0e
ea
da
d2
f8
2e
fb
fe
13
43
00
00
00
00
00
00
00
00
00
00
00
00
00
00
00
00
00
00
00
00
00
00
00
00
00
00
00
00
00
00
00
00
00
00
00
00
00
00
00
00
00
00
00
00
00
00
00
00
00
00
00
00
00
00
00
00
00
00
00
00
00
00
00
00
00
00
00
00
00
00
00
00
00
00
00
00
00
00
00
00
00
00
00
00
00
00
00
00
00
00
00
00
00
00
00
00
00
00
00
00
00
00
00
00
00
00
00
00
00
00
00
00
00
00
00
00
00
00
00
00
00
00
00
00
00
00
00
00
00
00
00
00
00
00
00
00
00
00
00
00
00
00
00
00
00
00
00
00
00
00
00
00
00
00
00
00
00
00
00
00
00
00
00
00
00
00
00
00
00
00
00
00
00
00
00
00
00
00
00
00
00
00
00
00
00
00
00
00
00
00
00
00
00
00
00
00
00
00
00
00
00
00
00
00
00
00
00
00
00
00
00
00
00
00
00
00
00
00
00
00
00
00
00
00
00
00
00
00
00
00
00
00
00
00
00
00
00
00
00
00
