04
d2
e7
ea
bd
67
13
e4
ce
0a
b4
27
e7
0f
03
e7
04
0b
ad
20
ef
52
dd
28
d0
c5
05
23
d9
13
fc
01
ec
18
d4
f1
2b
fc
03
27
f3
f3
c1
1b
08
02
ca
fa
01
d1
00
fd
12
ee
f4
59
de
eb
1f
05
d7
27
e5
f0
31
0f
f6
d8
30
dd
54
fb
05
17
16
d7
f2
ee
d8
f3
f9
12
46
12
f1
08
e1
13
e4
ff
ea
3d
ed
cc
e7
35
e7
1f
f7
0a
03
0e
cd
dd
2d
ef
f4
f5
2a
10
13
2f
05
cf
ed
df
f5
ef
16
dd
ff
07
03
c6
25
e4
ec
35
