e9
fb
bc
d2
e1
12
09
f4
ee
2c
e4
ff
07
ee
ff
16
f8
14
ca
1e
e2
cf
e5
ee
d5
33
08
ee
e7
ea
ef
d0
ff
02
02
05
03
e1
0b
18
28
e6
fa
f3
2a
e2
ef
ef
f1
ee
f3
e4
00
c3
0e
07
f1
f3
f5
04
16
25
1b
e2
3d
0d
2b
f6
df
0f
14
f5
d9
1f
d0
0f
26
f0
21
03
ff
0a
0d
f8
eb
f4
e7
1d
18
1a
31
11
05
cb
df
c5
19
1e
33
f3
f4
27
fe
1b
eb
3d
0e
22
24
0c
f9
d9
d8
1b
f8
1c
10
11
f1
cd
fd
2b
0f
07
c4
eb
c8
21
f8
ec
e1
fb
fd
06
d0
e1
f8
05
e7
ce
f5
e6
2a
d4
ec
df
f2
0b
eb
ec
03
1a
17
04
da
23
0c
3c
03
f9
cc
d7
35
0d
ef
09
fa
1e
0f
d7
e3
26
15
f2
50
1c
f1
05
fc
f3
bc
32
1f
0c
e0
15
f7
fa
27
23
fc
11
e0
f6
de
df
09
d9
da
ed
08
f1
f2
09
02
16
1e
33
fa
0e
df
12
27
10
04
15
08
be
09
24
18
e1
2a
0a
f3
17
f3
f6
24
e9
1c
ff
e5
f3
fb
0b
dc
d7
f6
fa
eb
0b
e9
34
0b
15
e5
1c
d7
ec
11
ed
0c
15
03
0b
28
fd
df
1e
f7
13
05
24
fd
ea
d2
19
cf
01
d9
fc
f6
e0
f8
0b
01
0f
02
fb
eb
ef
14
e5
ce
e2
e3
f5
fc
13
d9
ea
f6
03
f0
14
e1
3b
00
00
21
f4
ea
f5
0c
ed
27
3b
f9
f5
16
0a
e6
e9
1e
08
f8
0a
f7
e5
1a
0a
18
39
2a
1e
fc
14
e6
b9
f4
00
46
14
e5
f5
0a
2e
2f
21
ff
f6
fa
e6
e8
cc
ff
db
2f
f4
11
00
0b
12
20
30
0e
ee
e8
10
07
05
b6
e5
0f
de
17
e3
06
d3
da
12
24
08
20
f5
e6
31
0d
18
30
17
db
09
0b
08
29
f0
22
f9
0f
fb
1d
25
d4
13
23
00
fb
10
3c
13
12
2b
22
33
ff
f2
0e
25
2b
03
0c
0f
ee
01
ff
15
f5
f3
b1
1a
fe
05
0e
0b
0c
03
00
1a
3b
fe
06
25
01
2c
e0
f7
21
03
02
1a
e4
35
e7
e5
ee
01
18
f4
0f
f5
04
c1
0d
08
e5
25
f9
0c
1d
dc
05
26
1a
16
09
e1
ff
f3
e4
50
f5
f3
fb
d2
e2
f5
fe
07
2f
d2
f9
2a
10
01
e7
00
f8
11
0a
02
22
09
f0
2c
f1
dd
ca
ec
2a
ea
23
fe
2e
0d
34
dd
f8
17
d5
e3
0f
1b
12
02
e6
15
f3
ec
dc
f7
07
15
f2
1b
e6
f8
0d
f2
f5
11
3c
d5
d8
0c
1d
f2
13
13
e7
0b
e8
0f
05
e6
00
f1
f4
07
0a
19
e8
f1
ce
13
20
f4
f2
11
15
ed
ff
fe
12
f7
c8
3b
46
ea
e8
08
f6
fa
26
47
04
1f
01
f1
06
02
e8
f2
09
e0
1c
fa
20
04
0d
08
08
0e
0a
cc
fc
ff
05
f9
f2
d6
f1
2e
ff
fa
00
d3
d4
07
11
2a
f4
02
0f
18
f3
0b
07
04
dd
21
0e
ff
f9
1e
f5
ba
fb
08
07
d6
05
fb
f2
0e
04
01
f1
08
21
f2
f7
dc
20
db
f8
0c
eb
fa
da
fb
f2
12
f2
de
ef
f9
fa
c8
ff
20
0e
fa
f3
f6
40
35
f1
18
3a
f7
19
eb
0b
08
1b
f6
07
15
f5
10
02
0b
e8
e7
1e
f3
3f
f6
23
25
fe
f6
09
fa
d4
4a
cd
f5
f3
26
cf
1a
ce
f4
00
cd
ba
11
24
1a
f7
fc
ef
c5
3c
e5
e3
df
e4
a2
0b
fb
23
0a
10
15
14
09
c5
3c
e7
d8
19
19
fc
fd
e8
11
02
f6
0e
4a
eb
f6
e8
02
0f
02
12
2f
21
ec
10
e9
f0
e8
f9
24
f3
02
0d
0e
e3
df
e2
e4
15
fd
e0
13
51
ed
fa
3e
22
42
fc
1a
f7
fe
1b
ec
00
00
00
00
00
00
00
00
00
00
00
00
00
00
00
00
00
00
00
00
00
00
00
00
00
00
00
00
00
00
00
00
00
00
00
00
00
00
00
00
00
00
00
00
00
00
00
00
00
00
00
00
00
00
00
00
00
00
00
00
00
00
00
00
00
00
00
00
00
00
00
00
00
00
00
00
00
00
00
00
00
00
00
00
00
00
00
00
00
00
00
00
00
00
00
00
00
00
00
00
00
00
00
00
00
00
00
00
00
00
00
00
00
00
00
00
00
00
00
00
00
00
00
00
00
00
00
00
00
00
00
00
00
00
00
00
00
00
00
00
00
00
00
00
00
00
00
00
00
00
00
00
00
00
00
00
00
00
00
00
00
00
00
00
00
00
00
00
00
00
00
00
00
00
00
00
00
00
00
00
00
00
00
00
00
00
00
00
00
00
00
00
00
00
00
00
00
00
00
00
00
00
00
00
00
00
00
00
00
00
00
00
00
00
00
00
00
00
00
00
00
00
00
00
00
00
00
00
00
00
00
00
00
00
00
00
00
00
00
00
