e3
c1
05
1e
cc
f3
13
39
27
fd
2b
c9
21
dc
08
ea
0f
f7
29
03
ed
dc
e1
1d
da
19
d2
17
0d
05
08
01
0c
09
1e
d8
c8
c7
35
f0
d4
10
fe
d7
10
fc
04
cd
b4
f5
0f
ee
fd
0f
41
07
09
f5
06
fe
f3
b3
e2
f7
f2
10
c8
05
d5
19
20
f2
1c
41
53
06
20
0d
27
f8
df
ec
01
00
57
00
31
ed
d8
2a
e5
fb
b4
bb
19
fa
03
1b
ff
45
1b
2e
1d
20
da
d5
32
19
13
0a
0a
3d
08
e8
c0
f1
fd
14
d6
18
13
14
cf
37
08
47
2a
02
