f4
e9
13
30
29
f3
31
2c
10
1e
07
ec
bc
f7
e6
d6
4b
15
f5
f8
13
0e
ee
17
05
da
f3
29
f3
22
03
25
25
05
fc
f7
c9
18
fb
09
1d
f7
fc
db
1b
e3
df
09
11
1d
b7
f6
1a
d9
15
b5
fc
44
f3
11
ee
ef
ff
ed
f3
23
f4
0d
04
cc
1f
ed
dc
03
f6
fd
2a
ae
2c
d5
e6
e7
00
1c
f4
08
1f
04
d9
e7
e3
0a
12
16
e3
e9
f7
e5
f0
e8
25
25
04
2c
04
f8
d5
18
d4
e1
ff
d9
e5
1b
14
d6
1f
f2
e6
fc
12
e0
00
e8
14
15
c9
1f
0b
ec
25
d9
fa
18
08
d9
e4
fc
43
10
ef
ef
e9
08
05
fe
0e
ef
fe
36
21
f4
18
c5
dc
fa
e6
0e
e1
d3
dd
e4
e6
07
23
28
e5
0b
01
0e
07
20
10
e0
33
06
e8
e8
fb
fb
c6
fd
e1
fb
14
01
07
f7
10
03
15
02
f4
33
04
f1
04
d1
f8
e9
02
17
f2
0b
bf
ff
fd
d5
fe
db
de
37
e3
f5
f6
04
2d
15
f7
47
2f
f7
0b
4a
10
18
10
ed
e9
f2
04
eb
da
39
0c
e5
0f
e8
f9
08
c2
0d
10
07
03
ec
f7
f9
3d
25
2a
08
04
fc
f5
e3
f8
12
e8
ed
e3
e4
ec
e8
f4
ef
ef
3a
02
f5
ed
0a
2a
29
0c
28
07
25
29
04
01
24
ce
f2
e5
04
15
e3
fb
ea
2d
f5
0d
08
1e
18
d0
ee
03
20
ca
06
24
25
fd
01
e2
11
08
d9
2a
d7
f5
f1
ed
ea
18
00
fc
e9
59
e2
1e
09
30
f4
f8
02
f9
c0
eb
12
fc
d1
14
0b
13
20
15
fb
e8
2c
e7
f7
f6
03
32
3b
04
32
40
11
e2
01
dc
c0
cf
de
03
ef
1e
16
0e
ff
f3
18
fd
2b
dd
ed
25
f0
fc
bd
03
00
35
ee
dd
e4
ee
1c
09
e1
07
f6
16
fd
ef
f8
eb
e9
0b
65
2a
fc
05
12
e8
f5
23
fb
21
3a
f7
00
f7
01
ba
0d
f3
0b
ad
eb
e1
ee
06
12
07
ed
d5
09
f7
f3
fd
24
f9
ee
02
0f
11
28
eb
e3
0a
f4
38
fd
1d
de
0f
a5
e2
02
f2
3f
1f
ed
51
e6
30
15
17
e6
f1
e7
d8
b6
0a
d6
e5
b4
25
ef
ff
0b
fc
eb
26
0e
01
f2
e1
ef
c4
e7
08
0b
02
24
e0
04
13
17
f8
f8
09
c7
0c
37
de
f3
f7
31
ed
e3
f6
e0
e1
ea
0d
2e
f7
05
fd
d8
31
f4
f4
fc
e4
0c
eb
23
ce
ed
3b
08
27
07
f3
ec
ff
dd
0f
16
df
f8
f9
fb
f6
ff
f4
c5
19
f2
f2
25
1f
31
10
2a
20
f4
07
17
2e
20
ed
d3
df
ed
05
0f
ff
25
f0
13
e6
07
ee
ff
0b
00
eb
01
ff
11
24
02
13
fe
03
0a
02
1a
ef
03
f4
fb
31
f2
de
e9
09
d7
ee
cf
06
f5
1e
13
d3
07
13
12
27
fd
0e
1b
da
e8
09
e8
14
de
e3
eb
f1
07
e1
de
11
e4
09
d6
f6
02
f4
14
f6
0b
eb
cd
eb
ee
05
03
0f
eb
cc
10
f8
e9
c6
e5
34
f2
f3
f3
10
0d
36
17
15
22
fc
07
06
fe
e2
ef
18
0b
d2
0d
e1
ec
de
13
0b
f9
dd
00
36
fc
db
db
ed
f8
36
26
36
f5
ee
06
10
cb
ef
fe
c5
d6
ff
d1
21
ef
e9
cd
f0
35
f4
ef
02
36
dd
ae
f6
1a
0f
12
df
1d
fb
01
08
fa
fc
ce
fc
08
04
11
f8
20
09
f0
da
0b
00
55
f7
f9
e9
1c
ec
f1
c0
ec
ee
fe
ef
e3
e2
ce
16
42
fa
06
f6
1c
22
19
f2
0f
10
03
ff
ef
ee
d1
eb
1e
1b
09
f5
db
fb
33
fb
23
0e
18
c9
ef
df
eb
1d
02
0f
04
be
e3
f0
15
df
e0
0e
26
1a
02
14
f4
c0
ed
00
00
00
00
00
00
00
00
00
00
00
00
00
00
00
00
00
00
00
00
00
00
00
00
00
00
00
00
00
00
00
00
00
00
00
00
00
00
00
00
00
00
00
00
00
00
00
00
00
00
00
00
00
00
00
00
00
00
00
00
00
00
00
00
00
00
00
00
00
00
00
00
00
00
00
00
00
00
00
00
00
00
00
00
00
00
00
00
00
00
00
00
00
00
00
00
00
00
00
00
00
00
00
00
00
00
00
00
00
00
00
00
00
00
00
00
00
00
00
00
00
00
00
00
00
00
00
00
00
00
00
00
00
00
00
00
00
00
00
00
00
00
00
00
00
00
00
00
00
00
00
00
00
00
00
00
00
00
00
00
00
00
00
00
00
00
00
00
00
00
00
00
00
00
00
00
00
00
00
00
00
00
00
00
00
00
00
00
00
00
00
00
00
00
00
00
00
00
00
00
00
00
00
00
00
00
00
00
00
00
00
00
00
00
00
00
00
00
00
00
00
00
00
00
00
00
00
00
00
00
00
00
00
00
00
00
00
00
00
00
