ec
0f
f6
09
3e
18
eb
ef
ec
1e
ee
25
fa
0c
b3
24
0c
06
13
ed
03
1d
c8
e7
e6
01
05
05
09
f9
3f
1b
09
f3
f8
e3
00
26
10
f3
cb
ec
1d
f5
12
0e
ff
04
ed
1c
de
13
d2
d6
d9
01
06
30
04
f4
1b
11
03
ec
03
16
fa
0b
23
0d
1c
f5
ce
07
ec
ed
20
17
fd
e7
03
d1
0a
f8
fb
e3
0d
e8
2f
0a
0d
12
48
fc
01
da
fd
e6
0f
e6
d6
e5
d8
ed
d6
e9
f1
c4
f2
e6
f9
0f
f3
d3
bc
ee
fc
30
0a
00
f2
19
f7
24
eb
f8
37
14
13
09
e8
ee
da
f8
07
ee
ff
13
37
31
ee
07
f7
01
14
15
f3
f7
09
0f
03
08
e7
15
1d
e4
04
ee
07
04
eb
00
c9
0c
01
c2
ec
02
f8
15
0b
02
fc
0c
b1
19
fd
08
1a
1b
0e
2e
31
da
36
29
fe
e3
20
fd
16
fc
27
18
e0
f4
1c
28
da
e4
e8
ee
5d
fb
1b
1b
e5
02
25
26
24
0e
39
0b
05
19
fb
03
15
17
09
2c
14
d8
eb
1c
1e
46
f5
40
fb
00
08
0b
12
42
fb
1f
2d
1e
1d
47
3d
23
0e
18
3e
d7
0d
ed
39
1e
04
16
14
ef
f6
43
04
39
4f
1f
fc
0a
1e
26
30
40
ec
21
02
2b
18
05
d2
e6
da
fd
f8
23
ed
f2
f4
1f
e7
24
f0
18
fd
0e
f8
06
07
14
f8
14
0a
02
ea
fa
0f
f4
f7
e6
00
35
46
f2
e3
ec
d1
17
cf
f3
fb
e4
d4
f9
0f
d5
0d
0a
f8
3c
dd
fe
ea
22
c4
17
07
23
1b
17
19
30
17
0f
1b
1c
04
02
f7
cf
fe
1c
12
e6
eb
0c
16
10
0e
e7
fe
25
1e
f1
f9
f2
1a
f5
08
f2
16
14
f2
f1
f0
e2
1d
ed
fd
13
f0
ff
c4
25
e5
00
0b
17
0d
cd
ef
e3
b7
ec
03
fe
f7
e0
f8
23
f3
c6
12
1b
f7
0e
dd
fd
f3
da
07
25
f1
07
fd
df
d2
e8
fb
eb
d2
db
f6
24
15
28
21
3e
05
15
f1
20
fb
02
18
df
e5
07
f6
17
fd
f9
10
01
f7
de
0c
36
0d
f2
22
fd
d7
f7
04
bd
ff
d5
fe
fe
d4
ef
e4
f9
c2
e5
c2
0c
15
dd
dc
05
0a
3f
f3
fe
f7
03
e5
16
0d
e3
e7
1b
c4
01
21
07
0e
ec
27
e7
e3
1c
d0
f0
f2
e0
ea
0a
18
d0
00
36
f7
2d
ef
14
cd
0f
f8
07
f6
db
10
d0
07
fc
1b
08
ac
11
f1
f4
e1
09
e7
3a
fb
fc
16
e2
01
e6
ed
df
06
eb
30
b8
0a
36
ec
1c
f4
3a
e5
d0
38
ab
eb
d3
e2
12
05
ff
16
23
f4
05
24
2d
16
fd
1e
fc
c8
d9
0e
ef
f9
08
06
cd
0d
02
04
01
26
25
d9
1b
ec
fa
fd
e6
ef
10
16
c8
08
17
3a
d4
09
21
fb
06
22
20
e6
fe
12
0a
fb
fc
16
12
27
d7
0f
f2
25
f7
0a
20
e4
f4
f4
f1
06
1f
e0
23
03
05
4f
10
1b
d3
fb
0f
2e
fa
1b
f6
09
ee
2d
f5
05
1b
df
eb
11
07
d7
1e
04
d5
19
e5
ee
ef
12
f8
13
0e
06
1c
16
ff
ef
fa
0c
0d
25
f6
d2
24
13
09
be
e6
2a
2b
e3
ea
f3
e0
00
2a
fd
f3
0e
13
df
5d
08
06
05
49
f2
e2
13
01
07
11
0b
05
fb
12
04
13
ee
ff
f2
2d
1e
32
f3
df
19
d0
e1
18
18
09
4e
dd
3a
02
15
17
18
d5
cd
1d
0f
f9
05
09
07
55
f2
00
eb
e1
39
0c
1d
46
f0
24
f1
e9
04
16
fb
23
bd
f8
ea
21
e3
01
06
05
ef
1c
01
e5
1d
04
fe
05
22
ff
fe
19
e1
fb
d6
2c
24
19
e5
0f
29
04
00
fd
fb
2b
09
e8
f6
08
e0
1b
00
00
00
00
00
00
00
00
00
00
00
00
00
00
00
00
00
00
00
00
00
00
00
00
00
00
00
00
00
00
00
00
00
00
00
00
00
00
00
00
00
00
00
00
00
00
00
00
00
00
00
00
00
00
00
00
00
00
00
00
00
00
00
00
00
00
00
00
00
00
00
00
00
00
00
00
00
00
00
00
00
00
00
00
00
00
00
00
00
00
00
00
00
00
00
00
00
00
00
00
00
00
00
00
00
00
00
00
00
00
00
00
00
00
00
00
00
00
00
00
00
00
00
00
00
00
00
00
00
00
00
00
00
00
00
00
00
00
00
00
00
00
00
00
00
00
00
00
00
00
00
00
00
00
00
00
00
00
00
00
00
00
00
00
00
00
00
00
00
00
00
00
00
00
00
00
00
00
00
00
00
00
00
00
00
00
00
00
00
00
00
00
00
00
00
00
00
00
00
00
00
00
00
00
00
00
00
00
00
00
00
00
00
00
00
00
00
00
00
00
00
00
00
00
00
00
00
00
00
00
00
00
00
00
00
00
00
00
00
00
