ff
f5
0a
d3
ef
08
e9
64
d4
17
e3
32
f6
16
e2
f6
ef
16
01
ea
c9
03
09
fc
26
e6
b5
ed
fe
f2
0d
01
e9
d9
e6
13
15
ef
17
33
05
2e
db
0a
dc
08
28
ff
e3
f1
05
0f
ba
f4
14
11
12
eb
0e
e9
13
f2
ef
0a
0a
f7
ec
12
dc
00
fa
10
3b
ed
14
ec
07
02
e9
ef
fe
b9
3a
11
07
07
e8
08
15
ca
fc
22
e1
c7
35
2d
fa
fc
e5
fe
07
e5
1f
04
e5
09
ee
23
12
ec
f4
17
15
d2
31
2f
1f
c7
11
09
fd
f8
c4
df
01
0b
1e
f0
e4
ee
15
f2
f9
e6
ff
fe
f9
d1
e6
00
ca
d7
0d
ed
cd
2a
fd
e8
f9
14
e4
29
11
04
3e
de
11
f7
1c
03
bb
36
11
f8
de
2c
eb
13
f4
06
f8
f1
02
10
04
ef
e9
2d
f0
06
ec
1b
0a
f5
16
df
25
22
0f
f2
de
fc
e2
25
2f
db
ed
0b
fb
eb
ec
ec
19
e9
eb
51
0d
02
15
04
1d
08
36
de
16
e1
2f
f8
0e
05
de
18
07
ed
d6
00
f6
0b
c9
0d
2c
02
e8
18
f3
10
01
df
d7
0f
f8
fb
f5
1b
d0
1a
3b
ec
fa
f9
ed
10
ef
46
06
0e
01
0f
09
35
0f
f9
ff
d3
0b
de
e6
10
14
e1
09
24
0b
f9
14
fb
f2
eb
0b
fc
da
fb
2d
0e
fd
06
08
1e
fe
05
e2
f2
0d
e5
19
1c
35
02
db
1f
1a
11
14
29
15
05
f7
ee
fb
e6
01
bb
08
03
ef
ea
13
db
f2
fc
12
19
ed
0b
0a
37
f6
0e
18
f0
41
f9
09
e6
32
e9
04
bd
e8
fd
e9
f8
e4
f7
06
d9
f6
ee
e3
3e
35
25
11
0c
f2
14
fd
01
ee
f4
3e
ea
14
db
fc
29
f6
e0
21
fd
f7
e6
ca
e2
0a
cd
f2
e4
33
fa
00
e7
04
1b
f0
f7
26
e5
f7
ce
e5
e7
df
18
01
04
01
21
f1
fa
1e
fc
f1
2d
25
21
06
19
25
f3
12
f3
03
fd
d3
d8
f1
29
c7
bd
f4
33
ed
c7
e3
d2
fb
cf
c9
fb
d9
fa
18
1a
e6
18
e3
e9
0e
f3
d4
20
f3
ef
09
35
e8
0e
f8
0e
e8
f4
e6
ca
f2
e5
c8
2a
f6
07
11
27
be
ca
1d
0f
14
05
de
e3
2b
3a
f3
18
db
0a
fd
1a
e1
12
e9
f1
f0
2e
00
ca
ff
d6
16
ef
37
04
06
d3
04
34
eb
fc
06
d0
10
09
16
16
ef
ef
25
f6
f4
04
00
f7
d6
07
fd
f8
3c
03
de
10
12
f6
ef
00
09
d9
02
f3
f4
d3
2a
01
0b
01
d3
f7
fd
18
f4
0e
f5
3c
0b
12
3c
d9
e3
ef
df
d8
d7
f8
05
2a
02
0a
e0
fd
d9
01
f2
1a
0b
2d
30
3a
e6
25
f7
ff
04
fe
fb
09
fc
09
f2
11
2b
25
e2
d4
ef
e7
0a
04
c5
c7
15
07
e3
11
fa
f7
f6
3e
1c
1a
12
e1
d7
f7
0b
d1
0f
0d
01
f5
05
f7
1d
01
08
13
08
ce
eb
18
fe
d6
0c
17
18
1a
ea
f7
ed
33
06
fd
02
f9
24
ed
22
ff
ee
2f
ee
07
12
0d
0a
ee
fd
e1
ed
f9
f2
25
f5
e7
22
f3
e9
2b
11
2c
f6
01
02
fd
14
08
e9
1e
06
15
fb
f8
4e
21
d5
f2
0d
1e
01
2b
13
1e
d7
07
f8
05
13
3b
cc
34
ed
d2
1a
09
dc
cf
d7
e5
19
f9
2c
ff
02
d6
03
e0
ec
07
f3
fb
f7
28
05
fb
d6
07
e1
fe
0c
dc
f0
15
f6
28
d7
00
f1
29
05
09
33
28
fc
f1
e8
e2
41
e6
ee
da
fb
0b
fb
f2
dc
02
10
fd
db
14
1a
04
1e
0e
0d
10
00
d0
06
1e
c3
f3
f0
d5
15
0b
fd
da
12
29
fd
f5
dc
25
2a
d4
02
02
ec
bd
2a
19
0d
ff
48
d0
00
00
00
00
00
00
00
00
00
00
00
00
00
00
00
00
00
00
00
00
00
00
00
00
00
00
00
00
00
00
00
00
00
00
00
00
00
00
00
00
00
00
00
00
00
00
00
00
00
00
00
00
00
00
00
00
00
00
00
00
00
00
00
00
00
00
00
00
00
00
00
00
00
00
00
00
00
00
00
00
00
00
00
00
00
00
00
00
00
00
00
00
00
00
00
00
00
00
00
00
00
00
00
00
00
00
00
00
00
00
00
00
00
00
00
00
00
00
00
00
00
00
00
00
00
00
00
00
00
00
00
00
00
00
00
00
00
00
00
00
00
00
00
00
00
00
00
00
00
00
00
00
00
00
00
00
00
00
00
00
00
00
00
00
00
00
00
00
00
00
00
00
00
00
00
00
00
00
00
00
00
00
00
00
00
00
00
00
00
00
00
00
00
00
00
00
00
00
00
00
00
00
00
00
00
00
00
00
00
00
00
00
00
00
00
00
00
00
00
00
00
00
00
00
00
00
00
00
00
00
00
00
00
00
00
00
00
00
00
00
