ff
e0
d7
08
c9
15
dd
bc
2c
13
11
02
1c
1d
11
03
0b
0f
f8
11
00
f6
41
f7
06
ee
d8
16
2d
f6
d0
16
f0
dd
d5
f2
d7
df
15
09
c4
1b
15
ef
fe
33
de
f0
01
e7
f1
25
2c
d3
17
f9
eb
ef
e7
b8
50
cd
f6
0f
dd
f3
e4
dd
e9
43
06
f8
eb
a9
d9
f6
07
f4
0c
03
fc
31
d0
22
32
b1
c5
2e
fe
ec
ea
1e
f4
c4
00
34
27
f0
22
fd
c8
f9
fd
ee
e2
e8
b2
b8
12
fb
37
41
d0
fc
fc
f4
d9
26
0b
c8
f8
e7
34
ff
fd
26
0a
bd
