eb
ee
14
de
01
34
e1
cd
ed
f3
de
d3
e5
ee
1f
ce
0f
d8
32
0a
19
12
ed
df
ca
0b
f7
08
0e
ea
e3
21
0e
23
de
ec
f8
03
d2
0a
57
f0
c7
08
1f
dd
d6
da
0b
1d
fe
10
f9
fe
3d
d2
fb
f4
0b
11
e2
f4
eb
08
01
e9
ec
13
08
09
f7
13
ec
0a
03
e3
e5
3d
25
05
0e
e8
d4
f8
0a
29
f8
eb
cd
e6
fe
2b
0d
26
04
2a
2e
44
10
f1
d7
10
fd
ec
f8
04
06
df
f8
d3
22
cd
c9
e9
ff
fa
ee
e9
1c
f3
d5
21
d4
29
d2
e4
11
10
dc
03
eb
12
12
d0
e7
28
dd
0b
e6
38
01
e5
f1
02
0f
fe
36
f1
0c
11
c7
ee
21
20
fa
dd
0b
0e
1e
19
f8
f7
17
09
f3
da
b0
ef
eb
f9
19
0d
1a
f5
18
0f
d5
f8
16
1e
17
ee
23
fe
c4
01
fc
35
ee
02
1b
06
02
2c
d3
f6
f5
0f
08
ee
d8
f9
07
d8
f3
0e
1d
e4
2d
38
f0
15
ff
22
ed
01
ec
2e
20
08
ec
e7
23
f0
05
2d
06
0a
14
f4
f5
f6
19
d8
22
d6
01
e3
0e
18
ec
e8
0a
f2
c5
f5
dd
19
eb
05
15
0c
22
c9
0a
00
1f
f4
0e
02
0a
e2
33
0d
e4
04
eb
1f
ed
f1
f9
b2
ed
fb
e0
01
cb
01
00
f6
14
cb
f1
d8
04
f5
11
b8
2f
ed
ef
ea
2c
e5
f7
f7
fe
e2
de
fe
e9
e0
fa
f2
2d
cd
e8
1b
21
fe
16
e2
0d
06
13
ee
f3
44
eb
03
02
d2
23
f7
e9
eb
fa
ff
ef
eb
0c
09
ec
3b
f9
e7
fe
e0
14
e3
10
09
cf
ed
00
0d
e5
29
20
d1
f6
03
d7
0d
02
ef
eb
03
e8
e6
14
0d
14
25
f7
ef
e2
f8
db
0a
01
11
f9
fe
ea
12
05
f8
22
30
f0
2d
c6
ed
06
07
05
0d
24
1b
10
3b
fb
d2
f4
ed
f4
d5
1c
df
10
ed
1c
fa
0d
1d
e8
17
f1
06
f3
13
21
f5
d2
00
f6
e9
22
f2
10
d6
15
e4
15
c7
18
18
30
db
f8
fa
f1
c6
c0
ec
f9
e9
14
df
04
fb
f5
28
31
08
f7
dc
e6
e4
29
eb
d7
0d
0f
dd
27
fb
0b
f1
04
e5
06
ff
25
19
01
18
1f
d3
30
f7
05
f2
de
e8
12
d5
1a
21
28
f4
ea
0e
e4
c8
19
c4
f2
02
0b
0e
24
f0
24
0d
08
f6
45
f8
11
36
1e
fe
37
07
19
10
1c
05
17
e4
cd
ef
fd
e1
fa
e1
10
0d
11
0b
0a
f1
34
01
f9
11
1f
f7
06
d0
ec
f9
09
09
09
1d
e6
e4
08
da
ef
f0
cd
d6
31
1f
da
01
ed
01
03
0f
04
42
23
08
af
13
d2
ff
16
c4
c6
f4
0c
09
fd
e1
ff
fc
d9
e1
ee
30
fd
20
12
e7
fb
06
e9
10
05
c3
f0
c6
fa
07
4a
f9
f4
f2
f3
e0
16
e8
33
19
1f
22
fa
04
db
07
1f
f5
f5
2b
f9
f1
45
cc
14
fc
2f
d4
ed
10
1f
f6
10
08
22
14
0d
1e
06
25
0e
0b
fb
10
0c
e8
ed
1c
de
24
05
2a
e8
0e
ef
f0
f2
e9
17
19
06
e3
dd
e9
00
0f
17
de
21
14
2d
08
00
f9
cb
19
31
dd
f6
02
1e
fd
ef
e0
e1
c9
cc
20
02
29
08
24
13
04
22
eb
ec
0e
f5
40
0e
c7
fd
0b
cb
1c
d7
1f
32
ef
1a
05
f6
1d
f1
f5
06
f0
03
f3
f6
42
3f
fa
2a
4f
0e
ee
08
0c
0a
fd
1a
11
fa
d5
2c
06
f3
f1
1b
01
3c
d7
07
eb
cc
ea
16
ea
f1
fa
02
16
da
f3
f5
11
ec
dc
44
06
fa
06
0a
f9
07
c5
f1
02
08
22
ee
f1
06
05
ed
f7
d4
0b
fd
1c
f9
0d
1e
0c
03
fc
0d
ec
11
05
09
0f
00
00
00
00
00
00
00
00
00
00
00
00
00
00
00
00
00
00
00
00
00
00
00
00
00
00
00
00
00
00
00
00
00
00
00
00
00
00
00
00
00
00
00
00
00
00
00
00
00
00
00
00
00
00
00
00
00
00
00
00
00
00
00
00
00
00
00
00
00
00
00
00
00
00
00
00
00
00
00
00
00
00
00
00
00
00
00
00
00
00
00
00
00
00
00
00
00
00
00
00
00
00
00
00
00
00
00
00
00
00
00
00
00
00
00
00
00
00
00
00
00
00
00
00
00
00
00
00
00
00
00
00
00
00
00
00
00
00
00
00
00
00
00
00
00
00
00
00
00
00
00
00
00
00
00
00
00
00
00
00
00
00
00
00
00
00
00
00
00
00
00
00
00
00
00
00
00
00
00
00
00
00
00
00
00
00
00
00
00
00
00
00
00
00
00
00
00
00
00
00
00
00
00
00
00
00
00
00
00
00
00
00
00
00
00
00
00
00
00
00
00
00
00
00
00
00
00
00
00
00
00
00
00
00
00
00
00
00
00
00
