0b
fe
e7
d9
e0
ed
07
f4
12
d3
fd
21
f2
12
f9
eb
24
eb
07
16
a9
e2
d4
37
f7
0d
09
fa
cf
ec
06
e4
fb
0c
2a
00
de
e1
3b
18
08
fc
3e
20
f4
e3
0b
bd
16
f7
19
e7
d1
20
ee
f0
fd
dc
18
0e
e7
00
10
0d
f1
da
fd
09
fa
f7
fd
f6
12
0b
16
de
c9
00
14
e0
d7
e0
e7
fe
13
f1
35
30
2d
14
0e
2f
1a
f3
17
db
ec
18
f7
02
0a
ea
0b
01
c9
cb
40
de
07
f9
e9
da
2c
03
0a
49
f1
fa
13
ee
f7
e8
f8
ff
25
00
f4
d6
f3
34
0f
25
e4
13
fa
e0
23
ff
20
01
0a
01
1a
e1
04
17
ea
15
cf
e5
0e
c9
22
bf
fe
02
15
dc
1f
4f
e3
17
f6
fc
0e
d7
0f
d5
35
bd
e6
e9
f9
fb
11
15
16
e0
37
02
e9
01
27
0e
cc
e3
17
f2
02
12
ff
22
fd
11
15
02
05
f4
d5
3b
01
f6
10
0d
ed
e7
38
dd
13
d2
00
06
08
08
d9
ed
18
58
0d
19
07
0b
29
11
da
04
08
07
2c
e4
e7
f2
0a
fc
2e
2d
2f
f8
f7
12
1b
cd
2e
22
05
f9
e3
58
e2
ec
0d
ee
06
e7
eb
fb
03
12
03
ff
2f
02
03
c0
03
ea
4d
f6
26
ef
0c
d0
18
fe
08
bb
26
fa
14
c9
29
e2
cf
07
2e
14
0c
e2
26
0d
fd
1d
da
11
eb
24
37
19
eb
19
d4
ea
1e
ed
1e
c2
25
d6
d1
0c
0e
17
1d
f5
2b
26
ec
06
15
20
f3
0e
f5
fd
ef
c3
16
32
fa
ff
f8
fa
12
f2
fb
0d
e7
18
f6
ff
e4
15
ea
1c
f3
1b
03
e1
fe
37
fb
0d
f2
f4
e6
f0
12
15
0d
3f
1a
fc
fc
fc
f3
19
e3
fc
07
df
1a
01
1a
11
d3
27
f4
fe
f9
33
03
05
01
fb
eb
01
f6
0a
f3
29
f7
12
0a
df
11
1f
ee
1a
00
fa
13
4c
eb
fc
f8
22
d0
fb
e4
f9
f7
03
f2
e4
f7
17
eb
0e
14
06
0a
e1
c6
1b
fc
e3
f4
22
eb
01
34
0f
f5
d8
f8
f4
ee
09
14
04
ea
ea
c6
c9
e5
ff
25
fd
17
ef
05
2c
0a
19
f9
d9
2b
09
d7
1e
f2
ff
e8
ef
f4
eb
38
c9
02
e2
11
0e
14
fc
fb
f4
0b
d1
10
fb
ec
1c
1c
10
da
05
ea
ee
de
c8
3b
16
ea
3c
1d
35
12
e3
14
2f
e6
f3
dd
2b
07
eb
f5
d6
e7
30
05
eb
19
e7
28
03
01
11
0e
f4
ce
fe
f0
ec
f7
ef
d7
02
3a
1e
de
ce
cb
01
db
2f
0f
e2
0a
1b
16
04
c8
2c
0b
f0
ea
db
de
eb
d9
37
ed
0a
dd
0a
f5
ee
ed
ef
cc
cd
00
e9
09
f8
10
db
1e
2a
1a
04
d8
d8
03
de
32
0b
40
fe
df
28
d9
19
09
07
05
e5
49
22
fd
e1
04
f7
0d
03
0f
11
f3
ec
fc
fb
fe
ff
fd
00
d2
c3
20
07
17
f2
e9
e2
19
d7
da
18
dc
0f
1e
e4
e9
07
0c
13
e2
17
e2
cf
11
e1
b6
ed
e0
14
17
35
f2
c9
3e
06
0a
bd
1b
fb
f7
db
38
fc
f1
3c
f0
e0
2d
25
07
02
06
06
03
17
e9
18
ed
15
0b
e9
f2
f0
da
de
26
05
cc
32
22
0b
f5
f0
0a
0a
bf
e3
f6
fc
d5
1d
d9
16
e4
1c
fb
2b
dc
04
f9
14
f0
1f
d4
e2
e2
da
dc
fe
e2
24
eb
b6
fc
e7
f7
fb
df
42
04
e2
06
08
24
ee
d6
ff
f7
cd
ef
db
cb
e1
b9
18
13
23
13
ff
ff
28
c5
df
e6
d2
f2
de
23
ef
09
f6
da
1c
19
bf
1f
2b
f6
18
f6
27
07
0a
04
f6
fa
e3
1b
34
f5
d6
df
f8
f6
09
22
d5
ef
d1
24
29
e1
e9
46
dc
0e
08
00
00
00
00
00
00
00
00
00
00
00
00
00
00
00
00
00
00
00
00
00
00
00
00
00
00
00
00
00
00
00
00
00
00
00
00
00
00
00
00
00
00
00
00
00
00
00
00
00
00
00
00
00
00
00
00
00
00
00
00
00
00
00
00
00
00
00
00
00
00
00
00
00
00
00
00
00
00
00
00
00
00
00
00
00
00
00
00
00
00
00
00
00
00
00
00
00
00
00
00
00
00
00
00
00
00
00
00
00
00
00
00
00
00
00
00
00
00
00
00
00
00
00
00
00
00
00
00
00
00
00
00
00
00
00
00
00
00
00
00
00
00
00
00
00
00
00
00
00
00
00
00
00
00
00
00
00
00
00
00
00
00
00
00
00
00
00
00
00
00
00
00
00
00
00
00
00
00
00
00
00
00
00
00
00
00
00
00
00
00
00
00
00
00
00
00
00
00
00
00
00
00
00
00
00
00
00
00
00
00
00
00
00
00
00
00
00
00
00
00
00
00
00
00
00
00
00
00
00
00
00
00
00
00
00
00
00
00
00
00
