ef
ec
11
59
f1
02
21
10
ea
fc
f1
f3
0a
e4
0c
f2
15
e1
3a
17
fd
38
00
25
50
1d
f7
e6
0c
ea
f4
f6
0e
e0
ea
ed
07
0f
01
01
fc
09
11
2a
21
10
09
03
f9
f4
fc
00
e1
f4
f7
2f
27
e3
0c
e0
f8
41
eb
f7
06
d5
ff
eb
21
d6
e8
29
d7
1e
06
f7
0d
00
f6
04
ed
21
32
ed
da
0e
17
c3
ed
e9
ec
ff
e0
b8
39
c3
fe
e4
ea
ed
c4
1f
f6
e0
19
fc
13
f2
17
0c
f5
24
f8
0d
00
da
de
ed
f7
e3
12
ef
10
19
c8
e1
cb
e7
0f
ef
00
ea
18
2f
f1
e6
1d
da
c1
f3
1c
f3
f6
f9
0d
1f
23
14
e8
02
b4
1f
ed
ec
17
db
da
ee
15
dd
e8
09
0c
e6
e0
e9
13
00
c7
24
fc
ec
06
25
e9
1a
cf
04
05
16
f0
28
da
f1
1a
f5
09
28
fb
08
d4
16
23
17
31
1d
0a
19
f0
d2
05
03
12
de
05
e5
e9
e8
09
ed
ec
2b
02
f1
fd
eb
1e
fa
04
07
fb
d9
17
e6
07
c2
11
28
2b
42
0c
f5
24
1a
c5
e3
14
e7
f8
ff
c4
fb
1c
0c
1b
29
fc
e9
e4
d9
f4
cc
39
39
0e
12
e6
f6
fc
36
e8
1d
12
f9
0c
e3
e8
ef
e1
08
ec
1d
0a
1e
ee
06
0b
06
cf
f4
15
09
fe
14
de
e4
24
34
dd
29
20
fe
23
ec
ef
03
01
27
0a
f9
f7
dd
29
f7
f8
fd
16
f4
f9
d8
17
0d
0a
22
02
1f
ed
18
03
2e
07
0a
d6
1e
08
42
1e
3b
0c
13
d5
05
0d
03
f0
35
c5
02
e7
bd
10
e1
fa
01
fd
1a
1a
04
cc
f4
ab
e4
f1
01
fe
df
25
3d
df
01
b1
de
f3
08
cf
12
15
cd
da
ff
d3
01
0c
fe
f9
24
fd
fe
be
ea
2a
e8
1a
18
f2
05
d2
0c
f9
ec
0b
30
f4
e4
0f
e5
18
20
01
04
03
f9
c5
15
ce
00
0d
12
d8
11
fd
07
51
0f
ec
e8
19
10
06
f7
15
0d
1f
0a
db
f8
fb
03
19
00
de
e7
01
f3
f6
11
0c
0c
15
f5
08
1d
e9
10
fe
09
08
d8
e3
e2
1e
00
ee
f6
fa
ef
f0
fa
ec
12
f8
e8
f5
02
f9
37
13
f9
ef
f8
0f
cf
12
0c
1e
f7
e9
26
00
dc
10
2a
cc
0c
09
08
2a
f9
0d
2e
d7
19
e8
20
2f
ff
18
f3
0b
ab
df
10
e8
f7
e0
0d
e8
f7
1e
39
00
d8
12
e0
00
13
19
10
34
06
0a
ec
d9
fb
12
fd
ee
4c
cf
25
0e
ea
f8
00
f1
fb
2b
e5
12
ef
fe
f0
f0
f3
07
14
19
18
eb
e7
09
2e
f6
e6
ce
23
0f
f3
26
35
ea
e0
f2
2c
ef
f2
13
fe
02
f3
e6
e9
d4
0c
ef
f2
fb
24
dc
d6
e8
0b
0f
f0
fd
21
21
da
ff
1d
27
50
f9
06
00
e4
e4
ef
24
03
f5
d9
b6
00
e6
fc
ef
25
0c
24
07
dd
06
22
ea
08
de
f9
23
26
2d
f0
19
f6
f0
e9
12
14
42
ea
2e
26
00
e6
ed
df
25
fe
1a
11
d7
e3
14
1b
03
ee
fa
02
09
f9
09
12
fc
04
ef
da
1a
1b
ec
d7
0f
c8
fb
3d
ed
ff
07
c7
19
08
da
2c
fd
24
e9
df
f4
16
0e
e5
fc
0d
07
1a
dc
1d
e1
ff
e8
f8
02
23
db
f5
fa
18
da
f8
e1
08
0e
d1
12
05
38
e1
24
ec
fc
01
0c
fb
0d
34
12
35
fa
f0
22
23
08
fd
0f
d5
08
e2
f8
e8
e1
20
f7
2f
3c
fe
3a
22
0b
09
fc
e9
53
d3
f7
0e
e9
01
ef
d7
e8
e8
fe
35
10
ff
27
04
17
13
15
d3
ed
3c
1e
ea
21
e7
fb
0d
19
0b
f0
0e
13
28
f5
d8
37
2e
10
fd
20
ed
e7
da
00
00
00
00
00
00
00
00
00
00
00
00
00
00
00
00
00
00
00
00
00
00
00
00
00
00
00
00
00
00
00
00
00
00
00
00
00
00
00
00
00
00
00
00
00
00
00
00
00
00
00
00
00
00
00
00
00
00
00
00
00
00
00
00
00
00
00
00
00
00
00
00
00
00
00
00
00
00
00
00
00
00
00
00
00
00
00
00
00
00
00
00
00
00
00
00
00
00
00
00
00
00
00
00
00
00
00
00
00
00
00
00
00
00
00
00
00
00
00
00
00
00
00
00
00
00
00
00
00
00
00
00
00
00
00
00
00
00
00
00
00
00
00
00
00
00
00
00
00
00
00
00
00
00
00
00
00
00
00
00
00
00
00
00
00
00
00
00
00
00
00
00
00
00
00
00
00
00
00
00
00
00
00
00
00
00
00
00
00
00
00
00
00
00
00
00
00
00
00
00
00
00
00
00
00
00
00
00
00
00
00
00
00
00
00
00
00
00
00
00
00
00
00
00
00
00
00
00
00
00
00
00
00
00
00
00
00
00
00
00
