21
1c
e8
11
08
01
19
2a
1f
d1
0d
dd
03
fe
ec
31
d5
19
1e
1e
de
20
e7
fc
d8
ba
2a
05
11
27
db
01
20
e7
0a
fa
ff
cb
fd
cc
f9
16
08
17
03
ff
32
04
10
00
f7
3e
57
00
22
16
06
f0
08
28
f0
e0
d1
40
f1
21
06
d9
ec
1f
ff
e0
fa
d3
16
fb
1e
21
1e
f4
41
ec
23
05
2b
a4
00
fd
fc
fe
dc
0e
d6
18
ef
05
0e
e4
0a
e1
e9
15
12
fe
cd
ff
01
01
27
fd
09
e7
1b
e8
1f
0f
de
05
fd
0a
0c
11
03
16
0e
fa
0f
0f
fa
f2
e2
e9
25
0d
21
20
f2
05
f5
2c
bb
01
01
31
f3
08
e2
05
0f
ea
01
c0
f5
f7
11
f6
f0
ff
e9
f6
e7
f4
de
ed
f9
01
15
e2
1e
fd
e5
eb
ed
fb
f8
fd
fa
12
ef
f4
c6
05
f7
fd
fb
e4
04
e8
f0
fb
36
fe
2f
12
dc
f7
f3
dd
da
e8
05
17
01
df
fb
0a
21
21
10
22
25
e7
16
0b
ba
e6
fe
fc
f3
df
dc
3a
0a
db
27
df
f1
f0
1f
dd
0f
20
02
cf
f1
05
11
0c
e4
f0
0d
f7
bf
f7
e5
e0
0d
0c
04
05
d7
fd
fc
da
f0
15
f1
19
f0
20
e9
44
00
00
df
ef
15
04
08
ed
1e
dd
f4
0b
e7
35
21
df
e6
13
0a
03
12
fe
ed
fe
d7
f7
f8
d5
da
de
06
0b
09
1d
0f
d0
d8
50
1c
e3
13
f6
10
00
06
f7
c6
f2
31
d5
13
f5
e1
20
e6
fb
08
1b
be
d7
e0
c0
30
42
06
fd
f7
f9
09
04
e0
f2
e5
15
ea
02
05
e8
0c
06
01
dc
29
2f
04
ea
24
f5
f5
fa
02
e7
19
da
c5
18
05
f1
05
e2
18
4a
03
ce
ec
16
22
fa
da
ec
47
d2
e5
c0
15
06
16
17
e6
f8
02
21
f2
0d
fd
fc
0a
fe
00
e1
e6
f0
fd
06
f8
0b
1c
eb
00
ca
25
25
16
0c
13
d5
19
fb
f8
d2
ee
12
f1
11
1b
f1
1e
ec
e3
18
e4
0a
10
21
f8
e2
fa
17
00
f9
c7
37
ea
1b
13
00
ff
09
e9
f5
f8
00
f4
01
25
1e
02
03
0f
0e
23
e4
0f
0e
fc
ee
fe
04
23
05
cb
18
fe
ec
bc
01
0b
b9
1f
1a
f9
ff
11
f0
07
05
20
f1
17
16
0c
f9
13
f9
03
3a
dd
e9
21
1d
fd
c1
14
01
fb
07
de
f2
f4
d5
f5
12
d9
f1
ee
f6
eb
1e
2f
fa
f5
11
de
e8
d2
06
0d
d8
f4
f9
0b
19
09
f4
e9
16
fd
43
e5
05
fc
0f
f8
ff
fc
fd
1b
fc
f9
e9
27
d0
07
0c
da
04
bc
20
16
08
f7
1c
f0
ff
ad
1c
38
ee
2c
ea
dd
ea
f1
e8
d6
fd
13
dd
cf
22
1c
fd
17
e4
e6
17
06
fa
f3
e8
35
f4
08
e9
3e
26
0a
20
24
11
f9
c9
2c
10
e5
f9
ad
e5
b9
f6
25
d6
2c
0c
19
05
e8
00
fb
0a
ca
00
1b
2c
15
13
fc
16
e2
22
38
e2
39
fc
2a
1d
32
1f
ca
0d
f6
fc
d4
e7
d0
0d
e3
d4
1b
27
ee
e7
f3
f8
27
f4
e3
ea
f4
e8
fb
f9
d4
0d
f0
e3
31
f6
21
0f
2c
15
28
ff
34
23
fc
36
0b
0b
cb
16
ca
0c
03
f5
e4
f6
fd
e5
fb
17
ee
fe
fe
fb
dc
39
e1
14
1d
28
18
22
0e
e7
08
12
20
17
0c
f7
15
cb
e2
1b
f2
e9
14
08
0d
e4
0a
20
c0
1f
f0
dc
e4
20
f1
ee
0c
eb
e3
18
2a
31
f6
c1
1e
13
fc
13
c9
36
f9
04
e0
f5
10
13
05
0e
f8
05
ec
e3
03
0e
04
f2
19
cd
43
25
02
21
14
25
c0
0a
df
f9
15
e4
d9
f4
ca
e5
e6
05
e0
f3
ed
f7
db
12
04
f8
e4
09
00
00
00
00
00
00
00
00
00
00
00
00
00
00
00
00
00
00
00
00
00
00
00
00
00
00
00
00
00
00
00
00
00
00
00
00
00
00
00
00
00
00
00
00
00
00
00
00
00
00
00
00
00
00
00
00
00
00
00
00
00
00
00
00
00
00
00
00
00
00
00
00
00
00
00
00
00
00
00
00
00
00
00
00
00
00
00
00
00
00
00
00
00
00
00
00
00
00
00
00
00
00
00
00
00
00
00
00
00
00
00
00
00
00
00
00
00
00
00
00
00
00
00
00
00
00
00
00
00
00
00
00
00
00
00
00
00
00
00
00
00
00
00
00
00
00
00
00
00
00
00
00
00
00
00
00
00
00
00
00
00
00
00
00
00
00
00
00
00
00
00
00
00
00
00
00
00
00
00
00
00
00
00
00
00
00
00
00
00
00
00
00
00
00
00
00
00
00
00
00
00
00
00
00
00
00
00
00
00
00
00
00
00
00
00
00
00
00
00
00
00
00
00
00
00
00
00
00
00
00
00
00
00
00
00
00
00
00
00
00
