f9
e1
f2
cf
01
e8
02
e4
10
f0
d7
e8
4b
1f
2c
29
12
f9
17
df
e2
fe
0c
d2
ff
04
d9
f7
fd
c8
0d
0c
de
ec
e9
fe
1d
e7
28
1d
0c
f1
f0
fb
d9
e5
1c
47
fb
ee
0e
13
34
1b
d7
06
c9
f6
f5
24
10
e4
40
15
f8
f7
de
07
f2
f6
35
f5
eb
ef
32
de
0b
ee
0f
1e
31
fa
dd
eb
34
25
f6
f4
1a
05
26
ee
e6
15
00
eb
10
05
c1
0a
c3
cc
11
e4
04
f4
fc
d6
24
e1
0e
03
f6
c9
10
20
e6
17
01
13
18
e0
0b
35
b2
12
1c
25
