f7
ef
1e
ec
fe
2e
1b
f2
10
f3
f2
d4
39
f3
df
eb
39
10
ba
e7
2e
0d
05
ff
1d
bf
26
f5
e1
2c
cb
fd
13
18
34
1e
01
de
f2
ef
f0
1b
df
fe
f7
ea
01
f9
01
d0
09
da
f3
0c
e9
f8
0b
fb
d8
05
c3
30
00
c4
fa
16
47
07
0d
11
f7
1a
1a
f6
e6
f6
06
1d
08
de
f5
cf
fe
fe
f5
19
10
eb
f7
29
f0
ff
f0
02
e3
e8
01
21
05
f6
d8
fd
f0
eb
0e
15
12
07
26
d3
21
fa
20
db
14
17
25
0c
18
d8
df
1b
00
f6
05
11
eb
07
f6
e8
1b
f0
21
f5
ef
15
c0
ea
ee
19
02
ee
20
f7
0a
ed
06
e9
ed
d7
06
ba
f5
fd
16
07
22
fc
d9
fd
f6
e8
08
ec
28
0e
f9
06
c2
f5
e5
e6
da
22
fd
f5
01
eb
ec
08
33
2a
bf
df
10
fa
e8
c9
0b
ee
d7
ea
eb
d4
00
2d
23
09
08
10
ea
06
0a
0a
f2
11
09
00
04
fe
1f
cf
18
38
fd
08
2d
2c
fe
e1
f6
e1
12
1c
03
17
2b
11
1b
fc
3f
18
d2
17
0a
18
fb
e4
fe
2a
30
0b
00
d0
06
e4
ed
12
ff
f8
d8
1a
0a
08
fe
06
27
dc
cd
be
1a
dc
e9
0a
2e
0a
0f
38
2c
28
20
0f
27
25
36
0a
ca
2b
24
cb
0d
e6
12
e1
23
29
bf
2f
07
53
14
30
e3
ea
3c
f8
10
09
3b
24
0d
13
11
13
d9
09
06
d8
08
26
07
fe
fe
1a
d8
22
fc
fe
ea
3b
23
ed
fe
0d
41
16
15
3a
07
04
16
0c
fe
f7
e4
ed
f4
41
e3
ff
c3
13
dd
06
0a
e3
05
28
f0
08
eb
20
db
13
df
08
f4
03
02
17
1a
16
f8
23
fb
28
22
fc
18
0a
02
e7
04
04
01
fa
fb
eb
eb
28
fa
ec
1f
ea
06
13
dc
fc
f0
f9
ff
11
3f
f2
e5
f4
52
f9
f3
00
e1
14
11
07
e2
d1
d4
10
d9
dd
06
ee
19
e6
f6
fa
eb
0b
ee
0d
e1
11
e3
ff
c2
cb
b1
15
08
0a
1a
38
e4
03
ed
06
e1
fb
fd
fd
c0
10
e9
2a
ff
f0
20
28
14
06
ea
11
2c
1b
db
1e
08
f3
2d
ff
0b
d7
de
d8
04
f9
ec
f8
11
f9
f1
e8
ef
e7
0b
1c
11
0c
e1
00
06
0c
dd
01
ed
fc
dc
b2
f7
f2
da
3a
ee
e7
38
1a
c9
e7
f6
21
04
05
1e
f8
c2
11
2a
12
18
d9
02
10
e3
00
2b
f7
f6
ce
d6
34
26
27
2a
c5
c0
fd
fb
05
f9
00
16
17
09
09
f3
19
e0
0e
c6
e5
d3
e6
b9
0c
d7
05
f3
00
fc
23
e9
d1
0d
eb
0f
e9
08
30
1a
0e
38
f3
18
0f
15
38
cb
13
05
13
14
27
e2
f8
11
25
07
de
ed
ea
e8
ff
fc
ff
0f
ed
2c
1a
e0
1c
46
d8
14
db
1c
f9
19
07
ec
05
e8
e1
03
e8
04
d3
00
e8
09
00
ff
e5
f8
16
c4
ce
30
00
10
f5
0c
18
2b
ff
28
33
ef
f7
05
02
26
f4
fd
21
ef
1a
f6
e5
10
20
0c
0a
21
fb
de
cd
0d
1c
cf
ef
e1
f8
f0
dc
14
02
16
23
f4
e0
d9
f8
15
0b
cc
02
07
fe
e0
05
e6
15
12
f3
fc
e0
29
ed
ee
07
0f
1a
4a
f3
ec
0b
c9
f4
d7
d0
e8
f8
f2
33
03
0f
1b
4f
05
1b
db
05
00
e8
e7
e7
33
f3
19
34
02
f4
f7
24
d4
0e
35
dd
e0
c6
f3
ed
fe
f9
d4
25
d3
02
35
f6
18
04
03
fb
e2
db
07
06
07
08
0f
01
ed
13
f1
e6
fc
12
e6
09
41
ec
f8
f3
cb
2e
19
09
d6
11
08
13
2c
ef
fe
d7
eb
ff
f8
07
00
06
d8
49
19
1e
2d
f2
d0
a5
13
15
13
1d
00
00
00
00
00
00
00
00
00
00
00
00
00
00
00
00
00
00
00
00
00
00
00
00
00
00
00
00
00
00
00
00
00
00
00
00
00
00
00
00
00
00
00
00
00
00
00
00
00
00
00
00
00
00
00
00
00
00
00
00
00
00
00
00
00
00
00
00
00
00
00
00
00
00
00
00
00
00
00
00
00
00
00
00
00
00
00
00
00
00
00
00
00
00
00
00
00
00
00
00
00
00
00
00
00
00
00
00
00
00
00
00
00
00
00
00
00
00
00
00
00
00
00
00
00
00
00
00
00
00
00
00
00
00
00
00
00
00
00
00
00
00
00
00
00
00
00
00
00
00
00
00
00
00
00
00
00
00
00
00
00
00
00
00
00
00
00
00
00
00
00
00
00
00
00
00
00
00
00
00
00
00
00
00
00
00
00
00
00
00
00
00
00
00
00
00
00
00
00
00
00
00
00
00
00
00
00
00
00
00
00
00
00
00
00
00
00
00
00
00
00
00
00
00
00
00
00
00
00
00
00
00
00
00
00
00
00
00
00
00
