0c
ea
f7
3b
d1
dc
b5
ff
20
ff
fd
e3
06
da
0c
08
0d
07
06
20
fc
0b
f8
df
d4
e1
19
e5
31
20
30
0a
01
13
39
df
ec
3c
c8
02
f5
cc
10
08
fa
f7
e9
1f
15
29
40
12
fa
03
49
c6
dd
11
23
1e
2d
4a
3f
35
1f
11
e5
f9
cf
fd
08
f7
09
f2
e8
d2
31
16
04
09
f1
05
0c
0e
b2
1a
ce
f4
07
e9
e2
f8
d5
e6
40
e3
f7
fc
09
01
b9
4a
11
20
e3
34
1a
02
e6
0c
3f
34
28
ea
19
e2
17
1b
ff
ed
1c
07
1f
3e
fe
dc
0f
17
