d9
ff
d5
d8
37
e0
06
f5
fe
ed
08
f4
e1
d8
dd
05
06
3b
f1
17
f5
c0
27
fe
17
e7
0a
08
d8
e1
39
13
d8
f9
24
21
28
15
b2
f1
15
ec
e7
bf
ed
00
e9
20
ab
05
04
02
38
05
b5
47
2f
f2
1d
e0
f0
37
fc
e9
c6
07
23
fb
34
d9
e2
d0
de
06
c5
16
11
31
2f
dc
fe
f9
e4
2d
e3
f0
f5
13
fc
ee
09
ea
01
25
cc
07
eb
cb
b7
45
ff
4d
3a
e8
13
e9
0d
35
fb
ea
c1
2b
23
0c
e8
f1
09
fd
ec
0a
f6
46
03
cf
ef
21
09
be
