1f
21
17
03
e2
13
24
26
fa
d6
d0
2e
44
ef
d6
20
1e
c1
3a
2d
dd
25
05
ea
f8
20
ff
25
da
00
f4
e5
1a
23
09
1c
36
df
e9
3a
b3
f9
16
1d
e8
dc
fc
eb
ca
e6
0f
04
0e
fa
cd
20
b9
10
f5
f3
25
df
11
df
0d
d7
42
ed
e4
09
0e
0d
e4
de
df
fd
0d
f1
f2
d8
1c
f0
e1
02
3a
08
2a
fe
04
d0
00
e9
fc
ac
fd
4f
12
ee
12
1d
12
14
ea
0b
f8
fb
13
e6
05
1a
f7
d0
e1
04
db
12
e6
12
ff
02
ce
01
dd
ec
1f
fa
e3
22
02
dd
d7
0e
bf
e1
02
1f
c4
f3
28
1f
26
09
05
09
ec
3d
09
eb
db
e7
fe
10
1f
e2
07
1f
10
22
21
10
11
06
29
de
e4
05
0e
f3
00
fe
f4
2a
02
12
06
2d
fb
d8
18
b8
14
0f
c6
4b
03
0a
e3
34
08
09
0e
22
10
11
ea
01
29
e0
02
00
e5
ea
03
ca
00
18
14
fc
1a
f0
ff
f4
ef
dc
2d
dc
16
ba
06
0d
c9
e8
24
f5
02
e1
18
0e
cc
ff
03
0c
fd
09
23
16
e4
e3
fa
12
ed
e7
eb
0d
dd
ea
ef
d3
f6
07
cc
d6
de
01
22
f5
de
fa
fe
e1
09
16
16
16
f4
32
f5
ef
2a
0e
f3
00
f9
0d
ff
ea
2b
03
19
12
06
f9
2d
fd
27
fc
07
e1
fe
03
ed
fb
ff
fd
e6
0a
d1
09
f2
f6
df
2b
f3
f1
10
d8
1b
14
e0
f7
29
0a
1f
da
1b
ed
1b
12
d8
ee
1c
e6
0c
f5
19
07
cc
ef
14
06
f6
e8
1c
2b
27
0b
fc
08
e2
e0
ff
ec
3f
21
0c
0a
14
12
01
f6
0c
0f
02
de
13
ff
c0
e2
f5
19
38
25
fa
18
d8
25
fc
2f
18
fa
e1
18
03
0b
f8
e9
f1
f5
0a
1b
15
f0
0b
f8
05
f0
0d
12
2e
08
1f
f0
de
0b
f0
f3
b8
12
e1
03
14
d8
ef
16
e6
02
c9
c1
c1
07
e6
18
2b
fd
1b
f2
25
3d
20
e6
35
c4
e2
fe
e2
dc
f3
fb
e7
17
09
f0
01
f6
f8
f0
12
16
14
ce
13
af
1a
20
10
e5
b5
f4
0d
d9
17
f9
13
14
10
2d
25
09
13
e7
d0
ee
db
ea
2b
27
19
f6
f2
dc
10
04
08
f1
08
15
03
03
fa
d4
f7
13
10
11
d1
f1
09
18
d9
d9
ef
dd
df
e6
f5
21
07
09
d7
2c
2f
08
01
e5
e8
0c
24
00
09
ed
16
16
dd
f8
c9
ce
e7
e4
d0
dc
e9
ed
f1
0a
c9
18
28
07
0a
ea
df
18
ec
cf
1c
04
fe
d7
0c
cb
e4
e2
f4
08
fe
df
12
18
13
01
f6
cd
f2
fb
dd
06
ce
f2
f8
17
f0
12
ef
0e
47
ee
db
fb
e0
12
f8
0c
fc
e9
08
18
06
06
1a
0c
f0
19
c9
e0
0a
e7
eb
ce
ed
26
01
01
c9
d2
ee
d4
16
20
f5
0a
ff
e7
0d
3f
f4
25
db
19
ce
df
00
e1
f9
d7
e3
e3
28
10
e6
27
0e
0e
dd
10
ee
14
00
cf
e5
f9
f6
e9
0f
eb
05
c4
27
01
f8
fd
11
10
06
30
0c
1b
21
f3
0b
12
f9
46
fb
08
24
02
eb
06
d1
ee
1a
1b
e5
3b
e0
09
ff
01
f7
0a
16
22
13
db
1b
f5
2d
da
07
ed
dc
d3
e1
e9
f6
0d
e1
1b
29
26
08
fd
34
31
19
1b
f6
fd
ff
31
42
25
f2
21
ee
f5
0f
1f
d8
18
f4
f0
0f
f4
eb
f9
de
3a
fc
01
dc
c1
04
0f
1d
27
dc
11
f6
e4
ff
0d
af
11
04
fa
02
25
19
df
0e
ee
1c
47
09
14
0c
75
e0
e0
ee
cb
1f
e6
ff
e6
f9
2e
d3
03
0d
fa
20
e9
f2
f2
14
fa
ec
1d
d8
ff
0a
f7
d0
f7
1a
d3
0c
02
2e
d5
07
d9
00
00
00
00
00
00
00
00
00
00
00
00
00
00
00
00
00
00
00
00
00
00
00
00
00
00
00
00
00
00
00
00
00
00
00
00
00
00
00
00
00
00
00
00
00
00
00
00
00
00
00
00
00
00
00
00
00
00
00
00
00
00
00
00
00
00
00
00
00
00
00
00
00
00
00
00
00
00
00
00
00
00
00
00
00
00
00
00
00
00
00
00
00
00
00
00
00
00
00
00
00
00
00
00
00
00
00
00
00
00
00
00
00
00
00
00
00
00
00
00
00
00
00
00
00
00
00
00
00
00
00
00
00
00
00
00
00
00
00
00
00
00
00
00
00
00
00
00
00
00
00
00
00
00
00
00
00
00
00
00
00
00
00
00
00
00
00
00
00
00
00
00
00
00
00
00
00
00
00
00
00
00
00
00
00
00
00
00
00
00
00
00
00
00
00
00
00
00
00
00
00
00
00
00
00
00
00
00
00
00
00
00
00
00
00
00
00
00
00
00
00
00
00
00
00
00
00
00
00
00
00
00
00
00
00
00
00
00
00
00
