04
2a
fc
f5
0f
df
0d
d2
20
0f
01
f0
10
12
00
e8
ee
fb
25
33
15
e9
08
dd
ec
ff
de
18
01
f3
eb
14
13
ec
10
1f
f9
f6
0d
e8
20
23
04
f8
03
16
e5
fd
0b
1d
ec
ff
f7
b4
12
0d
30
f4
fd
fc
fc
14
f5
30
fd
e8
09
35
41
0e
fd
05
18
d8
fd
fa
0a
02
c2
09
07
20
27
04
d1
d8
fc
43
f4
f3
f3
e6
c9
fd
e7
f7
fb
f3
11
f9
0b
1f
d4
f8
ed
f7
0d
06
fe
0a
24
05
3b
32
fc
00
fd
11
cf
0b
01
09
04
e4
f0
17
fa
03
10
ff
ed
18
0b
fd
fe
e9
f9
ef
2e
25
14
1a
1c
df
27
16
45
1e
11
02
e1
f3
2c
de
34
e4
1b
26
f6
db
e4
fd
15
fe
4b
56
f7
42
05
f9
ec
06
ef
fa
f2
1d
11
98
df
05
f8
0b
f2
ff
eb
df
0c
16
37
fc
14
ed
fd
22
db
02
d6
41
0f
06
25
21
f0
e9
dc
fd
05
db
fd
27
fd
0c
e4
d9
e2
e8
35
02
00
c7
d9
08
05
d4
09
e3
21
e4
1e
13
fe
19
f7
d1
15
42
02
24
a6
e7
fd
e6
f9
03
b0
14
e8
2b
cd
1c
26
fe
f6
e8
f4
28
2e
fb
e4
07
1e
01
e8
00
34
f6
e8
e5
ed
c5
1c
e9
e1
09
fe
29
e9
0c
07
f5
dd
13
19
24
de
fa
09
03
00
07
f0
01
d9
10
d6
02
e2
dc
e8
0c
dc
f3
e5
fd
d2
24
f6
fb
4b
e4
ff
fa
ef
ed
08
ce
18
e5
f6
f1
b9
de
ed
36
e0
e1
14
d9
0d
06
33
ea
b9
da
f2
00
02
03
e0
20
e1
02
35
e4
04
d0
2f
06
1a
0e
29
25
0b
03
07
e7
09
03
f9
09
f7
13
c8
27
e7
f6
30
0e
21
eb
15
fe
be
0f
ec
ed
22
e9
17
be
0c
1a
09
0e
20
19
00
f8
0a
15
cb
e2
14
0a
f5
0c
13
e8
fc
0a
ef
33
22
15
7d
f2
cc
d7
11
e4
15
e1
06
d6
00
0a
f3
06
15
05
09
08
cb
02
e9
1b
e4
12
ce
02
fc
26
fa
fc
f5
1c
e8
fa
f8
ee
21
17
42
f3
fb
02
ee
0a
15
09
fb
08
03
28
05
03
c1
16
ca
d6
e2
f5
e9
fb
0a
45
17
12
31
f8
1e
17
d6
05
f4
13
14
2b
33
f8
19
fa
24
d9
ea
1f
e8
06
17
fa
14
e4
fe
0c
08
07
1a
f9
f9
fa
f9
e8
27
eb
16
00
e5
e7
de
1a
23
df
f6
09
1d
e6
fa
24
b4
12
d0
18
f0
e6
0f
0e
f0
02
f1
26
e0
09
27
17
29
04
f7
0c
ff
1f
db
13
ff
ea
05
ca
06
fb
e7
fd
12
01
0a
f4
ef
05
10
1d
0b
04
05
23
10
14
0f
e7
f6
d0
d2
f8
05
16
f9
3b
19
fa
0c
e6
d2
0d
12
1f
18
f6
2c
f5
ef
db
19
1b
09
fb
16
df
04
19
21
24
0b
e4
09
0a
07
24
e7
e2
23
42
25
08
fd
2c
08
f8
f2
2b
e5
2a
19
ea
05
1d
ca
0a
03
05
01
f6
10
08
21
eb
fa
f6
fc
20
32
3f
f6
fc
30
21
ef
ee
bf
09
cb
f1
f4
f8
1a
19
28
37
2f
d0
04
26
ea
28
36
0e
dc
0b
23
1f
e2
20
bd
28
0a
0a
03
f5
23
05
ff
09
0a
25
20
f8
26
24
e6
ea
fa
e9
e8
f8
06
f2
e4
17
14
db
0b
17
0c
10
14
e8
eb
24
23
0b
fe
fb
10
f5
ba
e2
fc
f4
05
0d
f5
00
d0
35
fa
e7
d3
03
f5
de
e2
ed
17
ec
26
16
f1
10
ef
ef
09
fd
fa
db
27
eb
bd
01
2d
e8
f4
0a
18
d4
f7
e2
04
10
1e
10
3a
08
f9
08
22
e8
0d
8d
07
f7
0e
ed
f7
e7
da
01
14
2c
0b
0b
e6
01
02
00
2b
e6
fb
4c
00
00
00
00
00
00
00
00
00
00
00
00
00
00
00
00
00
00
00
00
00
00
00
00
00
00
00
00
00
00
00
00
00
00
00
00
00
00
00
00
00
00
00
00
00
00
00
00
00
00
00
00
00
00
00
00
00
00
00
00
00
00
00
00
00
00
00
00
00
00
00
00
00
00
00
00
00
00
00
00
00
00
00
00
00
00
00
00
00
00
00
00
00
00
00
00
00
00
00
00
00
00
00
00
00
00
00
00
00
00
00
00
00
00
00
00
00
00
00
00
00
00
00
00
00
00
00
00
00
00
00
00
00
00
00
00
00
00
00
00
00
00
00
00
00
00
00
00
00
00
00
00
00
00
00
00
00
00
00
00
00
00
00
00
00
00
00
00
00
00
00
00
00
00
00
00
00
00
00
00
00
00
00
00
00
00
00
00
00
00
00
00
00
00
00
00
00
00
00
00
00
00
00
00
00
00
00
00
00
00
00
00
00
00
00
00
00
00
00
00
00
00
00
00
00
00
00
00
00
00
00
00
00
00
00
00
00
00
00
00
