12
f1
f1
ef
ec
36
cf
f0
1a
42
10
01
20
fc
1f
1c
04
21
1d
05
fa
e6
f9
db
e3
d5
2a
ef
f1
db
d9
0d
04
f4
e7
fb
07
1e
18
f5
4b
11
00
ea
0a
e7
01
fa
1c
27
dc
f5
f5
06
fd
2a
f5
14
13
cd
22
ff
0b
0c
20
f4
ee
24
f7
26
f9
3f
fd
da
ee
16
19
22
28
0f
22
43
41
fa
07
25
3a
2e
fa
3c
1e
0c
28
14
f5
25
00
41
30
07
d9
56
07
25
19
f9
32
0b
08
d9
08
28
16
29
d4
fd
d7
22
dc
14
f7
15
22
04
16
ef
e1
04
11
fd
10
30
00
20
dc
ff
3e
f2
25
e6
04
2e
08
ff
f6
04
e7
12
18
ed
f6
ed
f5
0c
de
2a
e9
03
fb
e8
e2
17
d5
12
21
23
0f
18
ea
17
de
f6
f5
e1
36
f6
d4
f7
0f
27
45
f4
04
e6
05
0f
06
0b
e3
fe
13
f1
f3
f6
0a
03
e6
e8
0e
35
2d
fb
35
dc
0d
f9
17
d7
1b
df
04
46
1e
24
11
f9
01
fd
da
16
0a
e9
1d
05
13
23
e6
fb
dd
f9
fc
e8
fb
4e
f1
03
fa
fa
09
00
f8
e1
dc
ba
de
00
ee
f6
04
e7
d3
2b
0d
f5
fa
e0
f7
fc
08
15
00
d8
09
f3
14
22
e4
09
bf
e1
f5
cd
f1
de
1d
0f
1c
f4
18
f6
19
01
17
fe
12
18
f3
22
f1
20
e6
04
19
fb
1f
ff
cf
06
d0
ee
0c
0d
e6
12
fa
24
0d
38
fa
0e
e7
03
32
d7
09
29
16
1b
05
f5
05
18
e5
e1
3d
f3
1f
1e
ed
d6
d8
f2
f4
f3
e0
e3
21
02
06
27
0e
25
1e
f6
1c
d2
1f
f7
0d
11
4f
e9
d8
d4
02
0b
07
db
08
0c
1b
0d
1a
dd
11
1c
3f
13
15
07
00
15
12
13
ef
25
25
ff
e6
25
12
06
fd
17
05
f7
f7
f9
e2
25
fd
f8
fd
51
ef
0c
13
fb
0a
ee
06
27
08
1c
19
1e
07
15
32
ee
33
fb
24
25
03
d3
0e
0b
02
10
0e
fb
fe
d7
e1
03
f4
27
05
34
01
0b
e7
e1
17
1d
ee
fb
f4
d7
d0
01
07
fa
09
12
fc
0b
d3
c5
0c
03
da
f3
ec
d8
09
03
fb
f4
e5
e4
ee
05
fe
e8
0e
f4
24
f9
f7
fa
19
f9
de
23
d3
05
fb
0c
f3
f3
15
f2
16
0b
04
19
d7
04
c0
0a
02
f0
ed
fb
15
dc
30
15
02
ec
04
37
0e
d0
f0
01
ee
f4
f1
dc
01
05
e8
20
08
06
08
25
f5
04
10
3d
18
19
36
19
d0
ee
16
f3
ec
bf
02
30
17
0a
f8
f1
19
15
d2
1b
fb
0f
dd
1c
1b
f1
16
0d
0b
e6
0c
fd
ff
bb
42
10
52
e4
3c
fa
fa
e3
e2
e9
f1
12
04
ea
26
0c
44
20
0e
f9
17
0b
20
fd
ef
fe
f8
27
e9
0e
df
fd
17
22
02
ea
14
e8
ee
12
08
10
f5
f6
2a
0c
05
2a
fa
27
e4
44
f9
43
01
18
d3
24
1b
d3
e3
30
07
df
2d
df
ec
25
13
10
08
ee
c4
07
ff
07
0f
0a
e0
c9
ee
2e
12
ef
2c
d9
06
e2
0d
1d
0b
fb
0d
2c
1a
e1
d8
fe
ee
03
d5
f6
e4
fa
ee
14
10
eb
f4
e6
f5
13
2d
ba
f2
f5
ef
b9
d2
f4
e1
d0
b3
33
05
b9
02
de
1a
0d
f3
08
19
e4
2d
1c
f4
28
0a
f7
da
ec
fc
eb
0a
f2
2a
3a
04
ff
08
f7
d0
09
2f
e8
01
d7
ea
f2
01
f0
06
c5
fa
d6
17
03
26
1e
0b
0d
12
d4
dd
27
00
f8
24
0c
15
3f
04
26
1e
ca
20
02
33
e5
f3
24
ee
38
04
f3
e8
1e
0c
ff
2a
05
42
e2
03
fe
df
32
1d
1a
35
cd
39
33
36
08
fc
14
de
d9
15
43
25
51
e9
d2
00
00
00
00
00
00
00
00
00
00
00
00
00
00
00
00
00
00
00
00
00
00
00
00
00
00
00
00
00
00
00
00
00
00
00
00
00
00
00
00
00
00
00
00
00
00
00
00
00
00
00
00
00
00
00
00
00
00
00
00
00
00
00
00
00
00
00
00
00
00
00
00
00
00
00
00
00
00
00
00
00
00
00
00
00
00
00
00
00
00
00
00
00
00
00
00
00
00
00
00
00
00
00
00
00
00
00
00
00
00
00
00
00
00
00
00
00
00
00
00
00
00
00
00
00
00
00
00
00
00
00
00
00
00
00
00
00
00
00
00
00
00
00
00
00
00
00
00
00
00
00
00
00
00
00
00
00
00
00
00
00
00
00
00
00
00
00
00
00
00
00
00
00
00
00
00
00
00
00
00
00
00
00
00
00
00
00
00
00
00
00
00
00
00
00
00
00
00
00
00
00
00
00
00
00
00
00
00
00
00
00
00
00
00
00
00
00
00
00
00
00
00
00
00
00
00
00
00
00
00
00
00
00
00
00
00
00
00
00
00
