bc
f2
ad
fb
e9
12
cd
15
fd
e3
14
c4
f2
db
ff
f7
1e
08
f8
03
af
fa
e5
01
f7
0a
04
fe
ee
1f
02
e6
22
d7
eb
0a
ef
e2
eb
00
1d
e3
26
07
e2
16
06
ed
fa
f7
1f
d9
f7
f0
fb
d9
2b
12
25
fb
08
ff
e1
27
06
19
e5
22
f0
2f
2d
30
f7
1b
25
00
f8
08
06
da
f9
f0
f5
05
0b
ef
c8
0d
ca
0c
0f
30
fb
1a
fe
f9
fc
15
1a
26
c9
ee
4c
f5
ec
4b
f8
29
fd
d6
f3
24
1b
f2
ed
25
25
f2
07
06
41
d0
08
1b
0c
0a
19
ee
d5
31
1c
f6
ff
bb
e9
b7
40
e0
ec
2c
10
f4
d1
e0
21
ef
1c
37
05
16
30
d8
15
08
28
2f
1c
23
05
de
03
1b
04
d1
1e
f1
02
07
fc
1a
d1
22
f0
2d
10
26
18
28
de
21
06
14
0c
30
f5
12
f0
08
f1
ed
fb
0c
09
f2
da
fb
1e
ed
0c
1c
f7
15
e2
f8
f2
10
06
06
2a
00
f2
04
2d
cc
0f
1f
ef
0d
fd
28
11
0b
12
f6
0d
c1
1b
0c
2d
0c
de
ed
07
d9
f2
1b
fc
1b
1c
f3
05
e7
f9
e5
d8
10
ea
e4
18
0e
00
c6
fb
e8
f9
f6
12
0a
0b
0d
4a
dc
09
0c
e9
1a
fa
05
f5
38
dd
11
ef
33
0a
0c
21
05
1c
1d
ed
fc
ee
f1
29
16
0a
f6
fa
e6
d1
16
fa
2d
3f
fd
06
f7
29
f3
16
03
e7
30
e0
02
0a
2a
ed
00
fc
0c
1f
15
e5
bb
17
23
0b
1f
48
18
e5
fc
cc
0b
cf
1e
e9
04
d6
ef
f8
03
09
0f
ef
19
f9
f4
0c
09
46
d8
e8
dc
2c
e0
32
2d
4a
0e
f0
03
00
5a
de
e4
f6
07
ff
e8
f8
10
12
13
ea
2d
32
ea
1d
0d
17
f5
f8
06
1e
5c
40
0b
21
de
06
02
19
1e
fc
e1
ff
f4
d3
f8
eb
f8
f4
e0
fb
dd
10
d6
0d
c5
0f
0d
10
25
13
45
f4
16
d7
e6
fc
d0
02
f1
e8
0d
d4
ee
03
14
1e
da
f2
d1
d8
c0
21
1d
16
10
27
16
2e
f6
f6
cd
12
c7
e3
dd
19
f1
20
f5
ee
ab
c4
ea
e2
12
08
21
ee
d9
ed
f2
14
fb
09
fd
02
d2
13
e1
e6
fe
f8
fa
04
11
18
cc
07
d9
10
10
04
25
02
18
fa
d6
08
f8
e7
0c
1e
26
0b
f8
ec
f1
06
0e
0a
df
e7
e1
ed
14
0c
d8
42
1d
fe
06
0c
17
0b
cb
11
d2
2a
dd
03
15
0b
ed
14
03
19
1b
0b
02
1b
37
f0
14
d7
31
f2
b6
2b
15
f4
09
fc
06
ff
ff
16
26
1d
c9
fb
05
02
f7
d5
cc
2f
0c
0f
3b
d3
22
d5
e8
f7
28
03
f8
15
f0
ff
fb
45
14
ef
d4
03
11
d5
10
22
07
ff
1d
33
fc
fb
20
fc
ec
10
30
e2
e6
e8
e2
f8
ed
33
0e
1d
0f
e6
ff
fe
e8
f9
35
d1
07
1a
1c
14
dc
f9
07
34
f6
1a
09
b6
00
f8
0a
de
f5
1d
0a
d4
0b
22
28
01
19
e5
f5
10
f1
cb
1a
55
12
16
fc
37
ff
04
0e
02
d2
46
e5
20
f0
0e
09
ee
14
0e
24
19
29
11
15
06
03
16
e3
16
ee
ec
0f
43
c1
ff
ea
e7
06
f1
09
05
fc
18
14
06
ea
05
f3
ca
09
f0
16
ff
0a
0d
07
e1
f7
ef
13
11
ec
e9
09
ea
13
1e
07
fd
f3
10
0f
f2
14
e6
14
f9
07
1e
c7
1c
18
f5
0c
ed
d0
18
45
f4
00
f5
19
2c
35
e8
d9
28
f8
fc
bd
22
e8
f9
11
e7
13
18
19
2e
db
01
11
fb
28
1f
f8
eb
3b
0e
0f
2e
f0
0d
ec
d3
e2
ef
ee
37
f8
fe
f0
11
dd
e1
bf
fd
15
fd
2c
1b
29
01
fc
f0
f4
0a
f8
00
00
00
00
00
00
00
00
00
00
00
00
00
00
00
00
00
00
00
00
00
00
00
00
00
00
00
00
00
00
00
00
00
00
00
00
00
00
00
00
00
00
00
00
00
00
00
00
00
00
00
00
00
00
00
00
00
00
00
00
00
00
00
00
00
00
00
00
00
00
00
00
00
00
00
00
00
00
00
00
00
00
00
00
00
00
00
00
00
00
00
00
00
00
00
00
00
00
00
00
00
00
00
00
00
00
00
00
00
00
00
00
00
00
00
00
00
00
00
00
00
00
00
00
00
00
00
00
00
00
00
00
00
00
00
00
00
00
00
00
00
00
00
00
00
00
00
00
00
00
00
00
00
00
00
00
00
00
00
00
00
00
00
00
00
00
00
00
00
00
00
00
00
00
00
00
00
00
00
00
00
00
00
00
00
00
00
00
00
00
00
00
00
00
00
00
00
00
00
00
00
00
00
00
00
00
00
00
00
00
00
00
00
00
00
00
00
00
00
00
00
00
00
00
00
00
00
00
00
00
00
00
00
00
00
00
00
00
00
00
