05
27
e8
29
ea
23
1a
f0
f6
23
05
01
05
02
08
16
11
14
ec
dc
2d
1e
1c
d1
0a
13
1b
cd
ff
1c
26
dc
4f
26
27
dc
ff
f5
de
e3
16
c0
e0
e1
2d
36
f7
cc
11
d9
09
25
da
ee
de
01
14
13
05
30
03
dd
17
10
c7
16
0a
be
2b
1f
18
07
0a
0c
07
fb
f3
bf
e8
07
fd
07
14
0e
26
e4
2e
f7
22
f4
e8
e8
ef
ef
e3
08
18
13
11
1c
fd
d3
f0
1d
11
01
04
0a
d8
16
10
23
18
16
0f
e2
0e
e4
f4
26
06
0f
e4
f9
cb
d9
1b
13
00
f0
c2
c6
f5
04
d9
fb
f1
fc
0a
13
10
f0
19
08
f1
0a
ed
ce
08
0c
00
f5
e5
dd
c2
01
f6
f8
c8
11
03
0f
04
c0
f7
ca
0d
3a
c1
f8
e1
ef
11
ff
1f
c8
eb
19
dd
fd
f6
19
13
01
fc
0a
1d
d6
e7
fb
21
15
11
11
2a
c9
fc
f2
fa
da
0f
08
fc
fc
09
fb
e9
f0
e6
f6
f8
fc
2a
d0
34
fb
e8
1d
db
fa
05
02
de
01
08
e7
12
07
e3
e0
0f
06
1b
e6
ed
0e
2b
04
03
2b
17
03
10
f2
e1
fb
e3
f5
ed
11
e1
1a
ed
2c
f8
f7
16
fc
0c
19
f7
20
18
04
2f
ee
d3
d2
2b
28
10
ff
f1
11
1b
fe
2c
ff
d7
fa
1a
10
2e
fc
2f
f1
fb
d0
f9
dd
e5
f7
22
f0
e5
0d
d8
e4
02
1b
fb
1a
01
f9
1c
00
15
09
f5
ff
01
14
02
d7
fd
0c
f1
d3
0b
0f
f5
06
18
1f
d8
ff
ea
f5
f9
cc
ee
06
04
1c
f2
ef
22
14
19
3b
01
ea
0e
38
10
d1
03
0b
09
19
00
08
2b
d5
e5
f6
0c
16
1c
1a
cf
fa
f5
05
da
1c
e0
08
f6
07
2f
f9
12
fc
05
fb
e7
f8
fe
d8
cf
11
31
cf
28
f2
ec
e0
03
e3
e8
19
d9
fd
00
0e
21
e6
cf
fa
12
d3
2d
f3
0d
f6
12
e5
0b
d2
f7
ba
0e
25
09
d4
1e
17
07
e6
fa
07
e9
04
18
f1
12
df
21
e6
fe
23
1b
09
16
19
31
0f
d2
18
10
d3
fb
06
f7
ef
e5
38
19
ea
06
19
39
c3
04
20
1a
f7
0e
e8
e8
25
f1
e1
0d
f7
de
0f
df
1c
08
c3
e3
d7
0c
17
02
28
f8
ea
08
16
d4
0c
0a
ed
fa
dd
00
e0
ef
d6
d6
0e
07
ef
ec
e3
e0
f4
e9
ea
d4
e8
05
f4
1e
34
eb
04
1a
05
ef
e1
09
0a
d0
27
c3
c7
ce
d6
f7
04
22
05
0f
d6
ee
f8
0f
09
ec
fe
13
15
fd
01
05
f6
15
f0
ec
05
f7
01
12
f4
11
ed
d5
09
16
10
06
21
0d
0a
d1
1d
00
22
1a
2a
01
fc
d2
f6
02
11
16
f4
33
e9
1a
11
26
e3
e8
00
ec
0d
07
ef
ee
15
15
f8
d9
e8
04
0d
eb
00
12
3a
1e
0f
da
02
e6
36
bd
2b
fa
e3
18
e7
28
1e
cc
ff
ed
f1
34
01
19
20
f4
08
2a
fc
d4
d7
15
21
fe
2a
0b
00
05
b0
e6
c4
c2
f6
21
23
01
ff
f5
fe
08
f9
f2
f5
b0
fa
06
f3
1e
d6
ed
f7
fb
1e
ef
0d
ec
2d
dc
fb
d9
f4
1f
11
05
06
10
1a
ed
dd
fd
d0
0a
02
06
15
ef
08
fc
06
da
e7
f1
f0
13
f9
db
0c
06
14
13
15
c1
d3
e3
19
d3
f5
fa
e6
1e
2c
08
04
e8
02
d5
08
ed
06
23
42
fb
f7
01
04
02
0f
fd
cb
de
de
f5
f5
d8
0f
03
14
1e
fd
df
1f
08
08
ed
0d
10
f1
fb
f6
11
fe
e8
1b
08
2f
fc
d4
f9
06
0b
1f
24
07
1c
e5
fc
14
00
13
f7
de
e8
0f
f8
fe
f9
e9
13
e6
48
23
04
fd
2c
1f
10
e7
f4
dd
43
ef
00
00
00
00
00
00
00
00
00
00
00
00
00
00
00
00
00
00
00
00
00
00
00
00
00
00
00
00
00
00
00
00
00
00
00
00
00
00
00
00
00
00
00
00
00
00
00
00
00
00
00
00
00
00
00
00
00
00
00
00
00
00
00
00
00
00
00
00
00
00
00
00
00
00
00
00
00
00
00
00
00
00
00
00
00
00
00
00
00
00
00
00
00
00
00
00
00
00
00
00
00
00
00
00
00
00
00
00
00
00
00
00
00
00
00
00
00
00
00
00
00
00
00
00
00
00
00
00
00
00
00
00
00
00
00
00
00
00
00
00
00
00
00
00
00
00
00
00
00
00
00
00
00
00
00
00
00
00
00
00
00
00
00
00
00
00
00
00
00
00
00
00
00
00
00
00
00
00
00
00
00
00
00
00
00
00
00
00
00
00
00
00
00
00
00
00
00
00
00
00
00
00
00
00
00
00
00
00
00
00
00
00
00
00
00
00
00
00
00
00
00
00
00
00
00
00
00
00
00
00
00
00
00
00
00
00
00
00
00
00
