12
e1
31
17
f1
ea
f7
f3
18
eb
3c
d5
fc
e2
ef
1e
d2
13
46
ea
0a
e3
04
e0
05
da
27
d9
fd
35
f6
f5
0d
12
f5
07
ef
eb
17
f4
0c
13
e5
d9
d4
e3
0f
e3
fa
28
fa
14
0c
e0
35
f3
fe
35
0f
d7
e7
18
0b
1d
f3
fb
41
e5
02
df
d4
c8
f5
28
d0
0e
0f
00
fe
02
03
f8
fa
f5
f9
f5
06
00
00
16
e2
05
fd
2d
dc
cf
01
0a
ee
23
eb
2f
0c
c2
ee
f7
cd
18
d8
fe
f7
16
13
eb
05
fb
09
3b
ec
0d
17
db
01
03
f7
cd
0e
31
ea
1a
d6
ee
e5
16
fe
48
e8
d2
24
fe
c9
d3
e8
1d
f4
eb
e2
f9
bb
e1
24
c6
01
05
dd
db
26
1c
f8
01
10
1e
31
06
0c
14
21
fd
23
e8
d6
e6
19
18
fb
1d
f6
ed
0b
d7
e5
10
25
ed
05
14
f6
d6
96
fc
f6
0b
f9
ea
e3
f7
ef
3d
f2
f5
e6
f5
d8
0a
e9
15
1c
11
f4
fa
0e
11
d8
0a
0f
1d
ff
da
f4
f4
fe
37
f9
e7
11
fe
f3
0f
1d
08
03
f8
39
fc
39
f2
e1
ff
1a
fe
19
2a
0c
09
d4
e3
df
33
dd
06
0f
cc
0c
11
09
33
d6
18
0f
e9
09
f9
c2
1c
ff
c5
16
00
f7
ec
ee
e5
ec
14
f2
d3
fd
ef
0f
1a
f2
cc
0f
23
eb
e9
bf
0a
23
07
e3
f3
00
34
2f
f3
fb
20
07
c7
fe
ee
1d
13
18
21
ee
fb
ec
09
ec
ee
e7
29
ff
03
da
27
0a
f9
0f
ec
b9
ed
fb
04
e9
0e
f1
e9
43
db
c5
0a
f4
c9
e4
ed
e3
ff
03
22
eb
12
e3
0b
0a
1b
e1
f4
d7
bb
05
ff
1d
dd
f8
19
ec
f9
3e
ef
12
f2
e7
21
ec
24
ed
f0
e5
05
05
e3
05
0a
f6
07
db
ef
f5
f9
cb
f6
13
de
fd
bc
fe
04
dd
e4
f9
07
34
17
1c
f5
22
b2
16
f3
b2
10
ef
09
ea
e2
c5
de
19
1b
ce
ee
24
06
03
d2
1a
0e
de
eb
f5
08
22
08
1e
ed
fe
14
01
25
f6
00
df
fa
13
23
24
e1
13
fb
f2
1b
d7
e6
22
17
0e
ff
17
f5
1b
e4
02
c6
dd
0f
eb
0f
f0
58
0f
f8
2e
11
ec
14
fd
f4
0c
f0
f3
e5
1a
c4
d1
f8
ee
0f
f7
f6
01
ee
e2
cf
fc
16
3a
f6
f7
35
07
fe
08
f8
fb
1c
ec
24
41
27
14
fa
03
10
fa
e2
f4
ef
ef
2d
ef
f0
0c
d8
1c
f3
07
f2
f4
17
ee
29
fb
04
21
fd
0e
08
13
b1
02
2a
c1
0f
1c
ef
e0
f2
27
1d
03
f1
ed
13
08
f9
f6
0e
f5
03
eb
d9
ee
e5
10
15
1c
e0
02
10
27
c9
d2
de
07
fc
1a
01
10
14
0f
f1
cf
f1
ff
21
f5
0d
2c
19
01
f6
df
ff
08
fe
3a
2e
50
fa
2c
f5
05
08
df
d8
15
d5
01
ba
2a
ec
f6
0f
00
1b
f7
f2
cf
2e
28
1e
06
d3
f3
e9
0d
0f
d3
fa
d1
4e
ed
39
d2
1c
ff
f0
e6
cf
cb
07
d9
23
d8
fa
1f
ea
0c
0b
e6
17
f6
ea
24
20
04
15
27
10
05
1d
dd
f3
f1
c5
d7
14
e6
f1
e4
ed
1f
f7
07
f5
f2
33
ea
2a
09
f7
05
e1
06
29
c7
df
df
07
04
1a
09
f0
08
09
f5
d3
fd
0f
ee
ec
f6
ea
cd
11
e0
18
f0
0e
20
09
03
22
16
cb
fc
27
f7
0a
03
12
2c
27
fc
fb
1b
35
f0
08
1a
02
0e
dc
0c
0a
14
02
e1
05
23
fa
18
fd
e4
c4
04
13
0c
f7
e9
fc
02
f2
22
09
b8
f9
38
fd
0e
da
0e
ee
f3
44
bc
ee
04
e0
ed
e8
e9
ed
0b
26
f6
c2
06
06
2d
00
ef
d1
c9
24
1b
de
10
ea
e7
fe
00
00
00
00
00
00
00
00
00
00
00
00
00
00
00
00
00
00
00
00
00
00
00
00
00
00
00
00
00
00
00
00
00
00
00
00
00
00
00
00
00
00
00
00
00
00
00
00
00
00
00
00
00
00
00
00
00
00
00
00
00
00
00
00
00
00
00
00
00
00
00
00
00
00
00
00
00
00
00
00
00
00
00
00
00
00
00
00
00
00
00
00
00
00
00
00
00
00
00
00
00
00
00
00
00
00
00
00
00
00
00
00
00
00
00
00
00
00
00
00
00
00
00
00
00
00
00
00
00
00
00
00
00
00
00
00
00
00
00
00
00
00
00
00
00
00
00
00
00
00
00
00
00
00
00
00
00
00
00
00
00
00
00
00
00
00
00
00
00
00
00
00
00
00
00
00
00
00
00
00
00
00
00
00
00
00
00
00
00
00
00
00
00
00
00
00
00
00
00
00
00
00
00
00
00
00
00
00
00
00
00
00
00
00
00
00
00
00
00
00
00
00
00
00
00
00
00
00
00
00
00
00
00
00
00
00
00
00
00
00
