12
07
f7
e6
13
1f
fd
0a
ce
00
0f
1d
f4
f1
c7
f2
1e
1a
e6
f8
17
e7
ec
05
00
08
bb
f6
f9
0d
f8
01
0e
0c
e0
0e
dc
f8
d7
1f
20
05
f2
00
1a
f9
08
e9
f7
eb
f8
11
f4
f5
23
d7
0b
12
3d
fd
e7
f7
15
07
0f
33
e4
ee
e9
d4
f2
f7
f0
e1
00
f4
f6
06
da
22
c3
f1
f6
04
13
1d
ed
e8
e6
23
04
00
d1
fd
f5
05
0a
eb
fb
df
08
1a
d7
1e
fd
bf
eb
c9
1b
e2
f6
f9
c4
0d
c5
10
f2
00
e8
17
f2
f1
d1
19
dc
05
ef
dd
21
0a
e4
d6
1e
11
ef
03
36
c8
fc
27
fd
f9
fd
d2
1c
ea
d3
d9
f5
d1
25
13
f5
29
13
e8
f1
01
cf
db
c0
16
01
cb
22
cf
cd
0d
f0
f6
27
fa
fb
d5
f5
12
01
0a
ea
16
12
0b
21
19
10
f6
06
09
e0
fa
fe
11
ea
2a
1d
2d
05
3b
16
f2
ed
06
f7
da
0e
f3
e4
09
21
05
dd
cf
0e
fb
f5
ed
37
15
d7
14
21
0e
dd
eb
e9
e8
0c
3a
ee
b5
f4
e1
14
fa
e7
0a
0c
de
07
e2
04
ef
24
28
d6
ec
0f
e2
f5
ed
e5
f7
0e
32
16
fd
eb
d8
1e
19
0a
ef
f7
fa
f1
35
2a
cf
25
f8
31
2d
c0
3b
00
39
42
07
2c
11
fe
05
ff
fa
35
0a
49
01
29
17
0a
f8
f0
05
fc
f6
f8
ac
22
e7
de
e5
fd
30
ef
2d
fc
fe
cf
25
f1
17
1b
da
ff
ed
f9
29
0a
d8
f4
19
ce
ee
f2
ff
0a
e9
2c
3d
ec
d6
f4
fc
ea
fc
1f
d5
29
e5
f7
04
ef
39
ea
0d
19
15
2b
f1
02
08
dd
2c
d4
f6
db
1c
c0
f0
c3
eb
2f
00
d0
06
e7
19
bd
ef
07
f6
fd
f1
e7
f8
05
00
e9
1f
d2
15
ff
e4
e6
c7
f4
de
06
df
dd
dc
0e
39
17
fd
f7
d9
12
f4
f8
e3
18
f2
f6
1e
fb
f5
08
ca
03
01
e6
df
33
e0
29
e4
11
f2
bf
f3
07
df
f5
05
04
e7
ff
e1
f5
0b
1a
00
e8
d5
f7
cb
13
1f
f7
0d
d2
df
ee
06
ee
1a
e4
0b
f7
0d
ce
c8
1c
da
1f
d0
21
fe
fa
23
18
06
16
23
e1
f5
02
04
e7
2a
0c
e1
0a
f2
ef
28
04
f4
1d
16
fe
d6
fd
d7
eb
f1
4c
03
1b
11
f8
20
19
f4
f3
17
20
09
e0
e4
33
f1
da
c6
f8
00
25
f7
ec
05
24
1b
ff
1c
e9
07
23
f6
d6
d6
dc
c9
1d
dc
1c
e8
f8
03
0b
ea
f0
06
07
f9
13
02
cf
1b
0f
04
2f
e3
f8
0c
08
02
27
11
d5
e3
eb
fb
fd
ea
e3
1f
dd
0f
f1
f4
07
ef
f0
15
1a
de
d2
10
f7
10
f4
0c
ee
e5
1c
ef
2c
08
02
0d
e6
f1
1d
fd
21
1a
46
0d
fe
e5
f5
e9
da
13
14
d1
05
04
0d
e8
d9
ea
d1
f5
1c
d3
07
01
e3
cf
07
fc
f4
de
1a
f7
fd
02
f1
f8
04
cc
2e
d2
e7
33
ce
f8
27
1b
e2
f8
12
f5
03
13
d1
35
05
f5
d7
02
0f
f7
df
e7
19
01
ea
34
3a
da
f9
18
28
f7
fa
f1
3c
28
01
3c
fa
0f
08
08
de
0e
01
06
31
ec
45
15
f3
25
25
11
36
1e
3a
d9
f0
38
07
3a
03
e7
1e
f1
20
0c
ec
1a
02
fb
fb
01
4b
fc
f4
02
ff
eb
08
f3
fc
05
d7
ee
e9
2d
d7
14
10
08
5b
ff
0c
2c
06
0b
d4
20
0e
f8
02
2f
d5
e6
43
f8
10
17
fb
3e
05
05
10
32
02
d7
cc
fb
c3
26
f5
00
0b
10
1a
15
02
14
2d
d9
f1
2a
0b
00
11
22
e0
0e
f5
03
0b
13
d2
03
f9
fe
0f
26
d7
00
e7
35
f9
da
ee
ef
00
00
00
00
00
00
00
00
00
00
00
00
00
00
00
00
00
00
00
00
00
00
00
00
00
00
00
00
00
00
00
00
00
00
00
00
00
00
00
00
00
00
00
00
00
00
00
00
00
00
00
00
00
00
00
00
00
00
00
00
00
00
00
00
00
00
00
00
00
00
00
00
00
00
00
00
00
00
00
00
00
00
00
00
00
00
00
00
00
00
00
00
00
00
00
00
00
00
00
00
00
00
00
00
00
00
00
00
00
00
00
00
00
00
00
00
00
00
00
00
00
00
00
00
00
00
00
00
00
00
00
00
00
00
00
00
00
00
00
00
00
00
00
00
00
00
00
00
00
00
00
00
00
00
00
00
00
00
00
00
00
00
00
00
00
00
00
00
00
00
00
00
00
00
00
00
00
00
00
00
00
00
00
00
00
00
00
00
00
00
00
00
00
00
00
00
00
00
00
00
00
00
00
00
00
00
00
00
00
00
00
00
00
00
00
00
00
00
00
00
00
00
00
00
00
00
00
00
00
00
00
00
00
00
00
00
00
00
00
00
