04
0e
1a
2b
07
a6
e9
63
c7
ed
ce
f8
22
fb
fe
f4
10
1a
f8
e6
ea
15
e8
17
22
0e
f8
ef
e6
e7
c3
ef
26
c1
0f
10
19
10
28
ea
54
d0
d4
b8
fa
de
09
f2
ec
ef
c8
21
01
da
06
f9
dd
f1
1b
de
ae
fb
da
3c
c6
d7
4a
25
d2
1d
0e
d8
d9
f3
ee
e0
f3
1f
ec
19
1c
e6
ff
f5
fe
27
cd
5f
d3
f3
d6
2c
fb
08
e7
08
1e
1b
1f
c8
e6
31
20
f9
07
02
14
f6
1f
e7
17
0d
2c
d3
06
cc
e8
be
cd
ea
3a
39
b8
ed
13
1e
fa
f2
