f5
31
08
c6
f2
24
ff
11
ff
0d
13
0c
1e
03
c0
fc
1e
2b
dd
fa
09
03
e2
e8
e5
14
15
de
df
fb
fb
ed
01
0a
fc
c5
ea
ba
e0
f1
f3
00
03
01
d2
f6
04
e5
04
14
31
0a
c3
0d
3a
1f
e0
d7
dc
2d
24
f7
28
27
34
19
d5
f7
0f
ca
ca
c2
04
e9
e2
16
e8
1f
10
e9
08
c3
ea
de
f1
fb
0c
1b
17
ef
fc
13
eb
ea
06
fe
f0
1c
08
10
f9
ff
f7
24
da
14
0a
03
cb
fb
19
37
e8
3a
ff
10
16
f5
09
12
c3
f6
18
f1
f0
ef
23
f9
e8
e0
de
1e
0d
0f
e2
fb
f8
c1
03
e1
d6
e7
ea
13
f3
e0
e1
06
fe
16
18
f5
d8
19
e3
c1
c8
16
0c
13
e1
eb
fa
eb
ed
dd
ec
cb
0c
17
e3
fa
08
26
1d
3c
0a
08
27
0b
fc
f1
29
be
13
18
d9
07
01
ed
f3
fb
f1
08
00
d0
1a
fe
2e
18
d2
09
17
16
f0
d7
fb
f9
fb
bf
0c
07
f8
03
14
00
e9
00
2b
fd
0d
01
14
ec
ed
09
fe
0b
05
18
e6
ef
00
f3
de
01
ff
1a
eb
16
03
e2
d7
00
10
11
09
c6
0c
27
fb
2e
00
2b
13
df
16
e4
e9
11
fa
f3
0f
08
ea
eb
11
ed
f1
01
e9
11
1a
07
f1
fe
fc
f2
e6
29
e0
11
f1
fd
ea
14
1f
e8
db
0a
e5
06
f4
16
eb
07
f6
0c
18
bd
21
e1
26
f4
16
17
ed
d7
d1
f0
02
20
e3
19
e7
e3
25
f0
05
12
37
14
fc
2f
2b
03
0e
0d
0f
ef
09
e5
ec
ff
1f
12
c7
08
13
f8
ea
14
05
00
fe
0b
fc
c7
c4
fe
07
fc
fc
e7
d5
f2
13
0b
16
fe
f4
0b
fb
07
22
00
fe
25
e6
e2
fd
1f
06
ff
0c
03
ea
fd
f3
ee
f0
28
fb
fd
fb
e2
e7
0c
dd
27
0b
2c
05
e2
ca
f5
1b
49
13
1d
dd
03
12
27
12
0b
2d
e7
16
ec
f8
df
fb
f7
1a
0d
e6
1d
1f
ef
f4
f9
14
ef
20
e9
0c
f0
4e
0c
08
e7
05
e0
36
e7
27
0b
fb
18
f9
13
fe
17
ff
07
0c
05
2f
f1
11
0e
01
3e
fc
e4
c5
e7
e3
13
e5
09
19
d9
f6
d4
cb
e3
f6
1b
08
38
2e
fa
de
28
1a
1d
0e
43
01
01
18
31
09
be
14
15
fa
07
f3
e8
00
10
fc
ec
e9
f8
e2
06
fa
f3
0c
e5
fb
db
ec
05
07
3a
0c
06
e2
d4
05
0f
02
d5
14
ff
f0
1d
20
15
23
f5
36
ea
cf
f2
e0
d0
00
3f
00
fb
b7
21
32
00
05
fa
e8
15
19
c3
e8
02
10
da
04
01
e6
ef
d5
0a
1d
2e
3b
0f
1d
08
b8
05
04
df
0f
ee
e6
fb
e3
1e
d9
d4
0f
2f
e9
fd
01
03
fe
09
16
fb
00
f2
1c
ea
fc
f1
e8
fb
16
ed
cc
ea
e9
f4
ce
df
f8
ed
dd
f1
10
f4
ea
ee
ed
07
0d
f0
f8
01
0c
c6
2b
f5
34
04
ec
1b
fa
fa
20
26
02
e5
0d
f0
f5
08
2a
0c
11
fe
08
de
f7
e9
0a
43
13
f8
ff
ed
dd
c3
fb
12
fb
0d
16
04
0f
0d
14
e3
e7
f2
ef
f2
fc
e6
da
f1
22
d5
17
1c
fd
e2
0e
06
0a
e5
05
d6
d6
e2
e9
1e
03
2a
0e
e8
21
fc
f6
10
ec
f5
31
e4
17
04
fc
fd
f6
f1
21
08
f9
11
ef
dd
12
ed
32
d4
f6
f4
1c
33
04
f3
0b
22
fe
f2
f4
31
fe
1a
28
26
f8
0b
13
0d
d4
18
02
25
e8
36
11
ee
e6
27
f5
ff
11
16
e1
fc
f0
18
e9
1f
0a
24
dd
f7
1b
cf
e4
15
c4
12
0f
0c
38
13
d2
0e
07
23
11
1b
ea
ff
e4
f5
08
d5
ea
ed
d5
ec
1a
1c
02
cd
00
00
00
00
00
00
00
00
00
00
00
00
00
00
00
00
00
00
00
00
00
00
00
00
00
00
00
00
00
00
00
00
00
00
00
00
00
00
00
00
00
00
00
00
00
00
00
00
00
00
00
00
00
00
00
00
00
00
00
00
00
00
00
00
00
00
00
00
00
00
00
00
00
00
00
00
00
00
00
00
00
00
00
00
00
00
00
00
00
00
00
00
00
00
00
00
00
00
00
00
00
00
00
00
00
00
00
00
00
00
00
00
00
00
00
00
00
00
00
00
00
00
00
00
00
00
00
00
00
00
00
00
00
00
00
00
00
00
00
00
00
00
00
00
00
00
00
00
00
00
00
00
00
00
00
00
00
00
00
00
00
00
00
00
00
00
00
00
00
00
00
00
00
00
00
00
00
00
00
00
00
00
00
00
00
00
00
00
00
00
00
00
00
00
00
00
00
00
00
00
00
00
00
00
00
00
00
00
00
00
00
00
00
00
00
00
00
00
00
00
00
00
00
00
00
00
00
00
00
00
00
00
00
00
00
00
00
00
00
00
