03
0c
a9
fd
f3
09
f0
03
cc
d9
04
f1
e2
e2
07
2d
18
df
bb
14
08
ec
10
d1
41
a8
f9
0f
0d
cc
dd
e1
cc
12
3c
20
1c
d4
04
06
e5
ed
c9
04
02
34
e0
17
a5
c4
19
f1
39
e8
fc
cf
0a
1e
09
df
e0
24
15
ed
40
ec
24
16
bf
04
03
ff
14
e3
d6
ef
12
e2
ea
0d
bf
da
ab
cd
06
17
f2
11
fe
1f
18
15
f3
0b
1b
fe
d5
d8
eb
2a
20
15
47
2e
19
d9
0c
ef
15
1e
35
e5
24
45
fc
2c
5e
03
f2
09
1e
eb
08
e8
fc
01
db
0a
