1c
d5
eb
e2
ff
23
f7
1f
09
13
f8
14
14
f2
df
c2
ee
27
eb
0e
f7
0f
ef
ea
1e
eb
07
e4
ef
f8
f8
e8
f0
01
ed
00
e0
13
28
1d
d3
03
d6
cf
fc
df
23
e0
18
e2
29
09
f4
26
21
f6
c7
eb
ea
f2
e2
e4
0f
ef
ff
e2
d7
e4
e8
e7
12
df
38
09
09
29
c0
27
cb
29
ee
ee
25
fa
33
f7
04
f1
25
23
03
21
1d
01
f1
d9
ee
f5
06
32
00
08
11
16
ff
ee
3a
f8
17
e9
06
fa
fc
f9
02
ec
f9
fd
ee
e0
ff
f4
31
2d
b4
db
f3
19
e7
23
ee
ef
15
07
10
d1
ec
e8
ca
f9
fd
07
06
f3
ff
df
28
ee
04
f5
1b
01
e7
ec
f9
3f
05
1c
27
06
10
07
00
12
ff
ec
0d
1f
f1
13
f6
0c
b8
f7
f4
01
fe
c4
1f
14
09
08
ec
e0
e7
e8
02
13
da
02
df
fc
2d
14
11
f8
05
fe
f2
13
f0
1e
fa
14
11
fa
17
fb
f6
2a
fe
ee
08
f5
2e
33
1e
1a
17
fe
ff
fb
ff
14
05
e7
ea
ed
f9
18
fe
fd
fd
09
fa
fb
17
d9
15
18
09
f9
08
07
ef
17
e2
ec
0d
01
03
fd
ff
16
01
34
0b
15
0f
fe
12
03
20
03
fa
05
1b
f3
04
43
2a
f1
02
f3
2d
21
de
02
d3
d2
12
1d
3f
db
1f
0e
32
17
f8
cc
f8
0c
ff
22
15
23
10
3b
13
44
31
00
f4
ed
e8
f1
04
ef
06
02
fc
12
f8
48
f1
c7
01
f0
00
04
eb
e4
03
ff
ed
24
2c
fb
2f
0a
1e
f2
e5
ed
ec
15
0f
ff
d7
20
eb
14
30
e4
19
b1
15
04
e7
09
ed
fa
0d
ff
05
36
1a
da
0e
20
32
ce
eb
fb
f7
e5
e2
0e
fc
fe
06
fd
1b
00
f3
eb
fb
da
11
cb
07
07
2a
1b
19
0e
0b
09
e4
fc
09
e6
ff
d5
f6
ff
f6
e0
dd
01
f0
07
05
e9
fc
f1
bd
ff
e6
fe
0f
f0
ec
13
21
25
fa
1b
f0
d8
fb
e9
fb
e3
ec
34
23
ee
12
bf
f5
fc
f7
fc
18
d9
e1
f5
15
1c
01
2b
0a
f1
07
eb
e8
1f
e6
e5
10
08
01
f0
02
21
eb
f6
11
e8
d3
dc
01
fd
f3
f1
1d
fd
d3
20
08
f8
0c
fd
22
0f
12
1f
f2
f9
11
f3
05
21
eb
f7
00
e6
f5
b8
e6
02
0f
1f
11
ec
01
ff
e8
ef
f6
f5
1b
27
e4
1e
e6
17
31
e7
f1
22
0c
e6
1a
07
df
15
fd
f8
ff
e2
07
21
f1
fc
10
1f
f8
f7
f5
bb
1b
04
18
cf
13
13
ec
e7
dc
f2
fe
07
0f
e7
02
d4
d2
09
d2
04
fc
2b
fb
0c
e1
dc
02
d0
f9
bf
e8
f1
e9
2d
10
df
01
22
1c
ea
e7
29
fc
0e
18
f7
d2
f0
e8
18
41
ff
e7
fe
0b
1b
ff
0d
f5
ea
e8
fd
fb
1a
f9
f4
f4
08
24
09
e2
07
2e
04
2a
e4
f9
dd
c1
21
07
15
1a
ea
e9
c1
34
f8
fc
1b
e3
f7
10
26
17
02
ff
0b
f4
f8
25
ff
06
15
d0
24
c5
06
e3
fc
e4
f1
f9
e8
d3
2b
10
1e
e5
1f
fc
0f
d0
2c
17
09
d2
fa
12
ec
07
31
eb
ee
05
e4
e7
16
e8
13
0d
19
16
e7
dc
f8
f7
1d
06
09
11
3b
2a
fd
ff
fd
21
ed
ed
02
eb
f6
f1
f3
07
fc
2f
09
17
bf
c6
18
01
f5
03
15
e2
f8
0c
12
f5
05
2f
fe
16
fd
f5
f0
33
f0
f0
f0
ed
fb
37
f8
fe
0e
fe
d2
ec
ec
cf
2e
e6
33
e7
f9
0b
ec
fd
ec
00
0f
0e
eb
16
fc
d9
f9
18
fa
fa
0c
0b
35
23
07
d9
09
05
f4
0f
0e
b1
fe
06
29
fd
08
e8
e3
25
ca
f2
2b
c8
04
e2
04
24
0e
00
00
00
00
00
00
00
00
00
00
00
00
00
00
00
00
00
00
00
00
00
00
00
00
00
00
00
00
00
00
00
00
00
00
00
00
00
00
00
00
00
00
00
00
00
00
00
00
00
00
00
00
00
00
00
00
00
00
00
00
00
00
00
00
00
00
00
00
00
00
00
00
00
00
00
00
00
00
00
00
00
00
00
00
00
00
00
00
00
00
00
00
00
00
00
00
00
00
00
00
00
00
00
00
00
00
00
00
00
00
00
00
00
00
00
00
00
00
00
00
00
00
00
00
00
00
00
00
00
00
00
00
00
00
00
00
00
00
00
00
00
00
00
00
00
00
00
00
00
00
00
00
00
00
00
00
00
00
00
00
00
00
00
00
00
00
00
00
00
00
00
00
00
00
00
00
00
00
00
00
00
00
00
00
00
00
00
00
00
00
00
00
00
00
00
00
00
00
00
00
00
00
00
00
00
00
00
00
00
00
00
00
00
00
00
00
00
00
00
00
00
00
00
00
00
00
00
00
00
00
00
00
00
00
00
00
00
00
00
00
