ec
c7
e9
08
20
2b
bc
ee
18
fa
bd
d4
ec
4c
21
0b
f3
22
38
02
15
12
cc
19
f7
e2
27
f9
19
d8
f8
de
da
23
3b
06
c8
c4
10
af
14
f0
a1
1d
fa
1e
fb
f2
fb
36
45
00
fa
2f
50
5e
27
1a
27
6a
c6
b5
af
f0
e4
0a
1c
31
f4
2d
ef
fb
1f
e4
1e
d1
bd
f5
04
d2
e7
c3
00
f9
34
10
f3
f0
ca
05
08
13
5a
0c
06
26
02
03
1a
39
09
da
eb
26
c0
13
20
01
e6
cd
04
49
38
ed
1a
ed
cb
f9
ed
03
fe
cb
15
38
de
1c
1a
00
