e3
d5
f4
f5
f3
cd
1b
01
eb
ea
f9
02
06
d7
03
f3
dc
00
11
f6
f5
08
23
01
04
29
2c
1a
00
27
d9
ef
0a
e0
04
f7
d6
e9
0b
d8
e3
0d
d7
03
f7
39
f7
ed
14
00
dc
18
f6
c9
f7
1a
e2
e0
ea
1d
fb
fe
1d
da
fa
08
f9
08
16
04
d2
ef
14
e5
e8
ea
fb
1c
22
19
e8
fe
09
ec
e9
fb
21
fd
ed
ff
08
d7
d9
eb
0f
fa
42
f9
e7
28
f3
e7
e5
f7
28
17
1f
ee
fa
25
00
14
24
05
1e
fa
ee
fb
21
cc
31
d2
e3
f2
15
ef
e8
e7
f6
f7
06
e8
d7
ff
d7
2c
0f
f0
19
fb
e6
09
f0
c1
e5
df
10
f1
ec
23
ec
fc
f0
e8
2e
1f
ea
f4
09
fd
02
35
29
09
1c
11
f4
f5
08
f2
ce
ff
40
e7
03
e5
e7
d7
00
f6
0c
19
0f
ff
ea
25
cc
11
f5
e7
12
05
ff
f8
f4
c8
fa
1f
d0
df
12
e3
d3
f5
2f
05
36
e8
37
ef
36
1f
ec
15
09
fb
b8
0a
ca
f7
df
f0
af
e2
2d
0f
e5
1f
2a
1d
1f
f6
2c
da
e4
f3
ff
01
f5
0c
14
c7
16
2e
f5
c6
ef
33
06
2a
eb
23
1d
41
e6
fe
11
fe
27
05
0c
1d
05
12
f0
07
1d
b2
d9
fb
f4
da
14
f3
da
0e
ef
39
d7
23
f9
ff
fc
eb
d0
eb
f0
c9
ec
4b
0c
de
17
17
15
ee
19
e4
d3
23
28
cc
d7
f8
3f
e6
11
19
f4
3f
2f
fd
1a
01
00
af
2a
2b
0a
31
01
d2
fd
21
f1
fc
20
08
fb
f5
35
26
14
1f
1a
07
f7
07
15
e4
c2
f1
fe
d8
34
f7
16
f5
29
d7
08
f0
18
28
cf
e1
f7
d7
d8
1e
ff
30
ba
de
e5
e6
d5
ff
f2
ec
0d
ec
f8
f6
e9
f3
02
f9
1b
00
30
06
f6
ea
0c
ea
09
f5
15
fc
04
3b
ef
c2
d2
2e
f5
12
c5
ea
1d
36
06
12
14
0a
cf
22
46
09
17
e5
b6
d9
fb
33
fb
cb
e5
fd
35
02
f7
21
0b
e9
fc
0d
1e
f0
ce
25
0a
03
07
e7
eb
fa
c8
f8
02
e7
1f
21
dc
f6
12
1d
f1
4e
e8
24
09
ea
f6
05
13
ab
d6
f0
15
e7
29
ed
fa
db
0b
07
f8
0b
09
15
17
f0
33
ea
09
12
08
1c
f1
28
00
e1
03
02
1d
f4
08
ed
f0
3e
06
b3
eb
21
19
ea
09
0a
44
1d
d0
14
02
08
fd
08
12
49
f4
02
f3
d1
1c
f8
f7
f4
f7
29
12
df
f0
fc
d6
e5
1c
c3
0a
e8
1a
0b
2d
df
d3
e6
09
e7
09
f9
e1
e6
34
e8
fc
f5
ee
0c
20
2d
e3
e5
de
2e
ec
08
df
d0
f1
15
cf
1a
17
ec
ef
ef
13
0f
0f
05
0d
f6
fc
e9
f4
f5
23
ea
0f
aa
cc
04
f9
0a
f0
dc
07
62
18
2e
eb
06
04
f7
e2
e1
ff
f2
1b
0f
c7
f9
11
f3
ee
d2
0a
09
bd
05
35
e2
1b
ea
0f
e0
13
f1
10
e4
f7
f6
f5
e7
fa
fc
0f
1d
cd
d7
03
0b
2f
06
31
d9
f9
14
f0
01
0d
16
1f
e7
37
eb
10
25
fb
f2
05
e7
05
ec
f9
c4
0e
23
f4
e2
0e
e8
e5
f6
d7
16
36
0b
e3
e3
11
22
e9
f9
08
e8
e8
14
f3
0c
f2
f1
f7
e6
19
10
fb
14
10
1f
fe
ff
c9
02
45
0e
d0
0a
c1
13
13
06
0b
16
0f
e8
d4
f8
eb
02
1f
ef
d9
43
ce
fb
fa
e7
ff
0d
22
ff
17
e1
16
fe
d5
38
1e
e4
1f
ca
1f
f2
f0
0e
de
e0
28
27
35
1b
e4
1f
e7
ea
fa
fd
fb
ed
1d
1a
f4
ed
ee
2b
de
20
f8
ec
f2
16
f9
ed
32
09
26
11
0d
f9
17
0b
e7
10
3b
f9
06
ec
02
fa
04
be
f0
e4
00
00
00
00
00
00
00
00
00
00
00
00
00
00
00
00
00
00
00
00
00
00
00
00
00
00
00
00
00
00
00
00
00
00
00
00
00
00
00
00
00
00
00
00
00
00
00
00
00
00
00
00
00
00
00
00
00
00
00
00
00
00
00
00
00
00
00
00
00
00
00
00
00
00
00
00
00
00
00
00
00
00
00
00
00
00
00
00
00
00
00
00
00
00
00
00
00
00
00
00
00
00
00
00
00
00
00
00
00
00
00
00
00
00
00
00
00
00
00
00
00
00
00
00
00
00
00
00
00
00
00
00
00
00
00
00
00
00
00
00
00
00
00
00
00
00
00
00
00
00
00
00
00
00
00
00
00
00
00
00
00
00
00
00
00
00
00
00
00
00
00
00
00
00
00
00
00
00
00
00
00
00
00
00
00
00
00
00
00
00
00
00
00
00
00
00
00
00
00
00
00
00
00
00
00
00
00
00
00
00
00
00
00
00
00
00
00
00
00
00
00
00
00
00
00
00
00
00
00
00
00
00
00
00
00
00
00
00
00
00
