c3
2f
df
ee
07
00
01
17
04
d9
0d
15
13
08
10
2a
ff
cf
22
b9
e6
07
fc
df
ea
0c
3d
3d
f7
f3
f3
44
08
f9
1c
f1
19
da
00
da
18
12
dd
1b
26
31
fb
cc
0f
f7
02
fb
12
06
1d
22
e0
03
1a
af
c9
1a
ff
de
08
19
e9
08
10
f0
1f
f5
ef
f5
18
be
2f
fe
e5
19
19
f2
18
2a
4e
e2
19
1d
f2
c4
e8
e9
f8
d8
fc
fd
0b
29
c0
ed
f5
23
1c
00
ce
e9
10
1f
0c
06
e0
fa
f7
dc
12
da
05
0c
c6
31
fb
21
f2
15
fd
f7
d3
ed
06
d7
e8
f9
0b
07
28
20
df
cb
ff
f9
26
f5
fb
ff
fb
dd
2f
f8
ef
f6
f3
d6
00
f0
08
04
fd
f4
fc
05
00
04
04
ee
21
1c
de
f4
f0
1f
ec
05
f7
ee
c7
1b
dc
f5
d5
eb
0a
20
24
06
1d
18
f9
f0
e2
1d
06
2b
e3
f5
d9
3d
fb
fb
04
15
fc
02
07
12
da
f7
d8
4f
17
f5
15
15
ef
f4
13
f4
df
f8
f7
ea
fb
f0
24
07
f1
07
04
01
2c
08
e3
f4
3d
dc
0e
e5
c9
28
1c
eb
12
00
da
04
f0
af
00
f4
1b
f0
06
00
fa
c4
14
18
c2
31
f7
f7
23
fa
0c
1b
01
d8
0b
cf
e4
f9
05
ee
04
12
27
22
29
13
11
13
f7
fa
1d
09
27
d5
03
17
cc
0a
3d
0a
b4
05
00
d6
f4
08
22
09
ff
c6
eb
00
1e
e8
fe
d3
1d
1f
1a
00
f9
f7
0e
f2
04
1d
c5
d7
28
de
da
f9
21
1d
0c
e8
0a
45
0c
02
df
10
fe
26
f3
09
fa
13
fd
54
e7
fc
22
2a
e7
1a
16
29
1d
22
de
10
f4
20
04
23
df
e2
05
f0
1f
28
fb
e2
10
0d
fe
0c
ea
fb
d5
17
e0
12
1d
fe
e9
04
f0
00
f3
19
fa
e1
0a
e9
0d
14
3d
04
06
32
f8
fc
fa
0b
2f
d7
02
e7
fc
de
05
1f
06
d7
4b
19
0a
0a
13
07
19
cb
fd
cd
ec
04
fd
f9
f1
0f
dc
d1
0a
fa
25
02
04
ec
f5
14
f3
e0
0d
d5
3e
15
f5
23
c7
da
c2
27
f8
05
1f
bf
f2
c6
e5
0b
14
e8
e9
21
0c
db
e4
10
d5
e4
f1
f5
f3
de
f2
1d
fe
0c
0a
27
3a
10
1b
d5
17
f3
de
ff
02
ff
44
2d
fe
08
ed
eb
ee
eb
ea
1b
04
fa
0f
e5
0e
e4
d9
0f
09
05
22
2a
1a
eb
ff
e7
e9
e5
dc
df
e3
2a
02
f5
fb
f4
f3
e5
cf
38
fd
f1
e6
27
03
de
38
25
03
f4
d7
16
e4
1f
f7
1a
01
13
f1
d1
01
23
0c
04
f7
18
19
f6
ce
1c
20
32
28
d5
ef
e6
fd
06
b0
2c
eb
ef
09
f0
0e
18
23
01
fa
eb
2d
ed
f8
e3
28
cf
0f
2f
0e
fd
08
1d
f7
0e
f6
fb
f9
f3
0f
11
0e
03
ed
fc
d2
ea
ef
cf
e8
2f
f0
f7
e6
3b
04
fa
0c
10
ec
d9
16
f9
d0
14
d1
f4
2a
2e
b6
1a
1a
da
e1
f7
35
fb
ff
de
ea
f6
12
0f
07
05
ee
0f
14
d9
19
00
f7
fe
45
e5
41
dd
33
02
f4
ce
fb
05
dd
0f
fa
fd
0f
15
1c
13
1b
09
0e
de
02
ea
0c
22
1b
f4
ef
fd
3a
17
15
f6
ff
20
ed
04
02
0a
0a
2b
eb
00
04
da
ed
ea
fb
c7
2f
e3
30
e7
f6
16
dd
03
fa
ce
ec
26
e3
40
f2
f4
dd
0c
01
04
f0
27
35
f4
22
1c
22
01
27
03
05
10
ed
06
06
e4
fd
eb
17
17
2c
09
f2
ec
f2
25
dd
f8
0f
0d
0c
fb
0f
f7
fc
ff
18
02
d9
f5
da
d9
ed
e5
f0
03
1b
0a
e6
f2
f5
07
e0
1b
06
ef
fd
d3
f6
f2
32
cf
f0
f7
db
10
15
04
00
00
00
00
00
00
00
00
00
00
00
00
00
00
00
00
00
00
00
00
00
00
00
00
00
00
00
00
00
00
00
00
00
00
00
00
00
00
00
00
00
00
00
00
00
00
00
00
00
00
00
00
00
00
00
00
00
00
00
00
00
00
00
00
00
00
00
00
00
00
00
00
00
00
00
00
00
00
00
00
00
00
00
00
00
00
00
00
00
00
00
00
00
00
00
00
00
00
00
00
00
00
00
00
00
00
00
00
00
00
00
00
00
00
00
00
00
00
00
00
00
00
00
00
00
00
00
00
00
00
00
00
00
00
00
00
00
00
00
00
00
00
00
00
00
00
00
00
00
00
00
00
00
00
00
00
00
00
00
00
00
00
00
00
00
00
00
00
00
00
00
00
00
00
00
00
00
00
00
00
00
00
00
00
00
00
00
00
00
00
00
00
00
00
00
00
00
00
00
00
00
00
00
00
00
00
00
00
00
00
00
00
00
00
00
00
00
00
00
00
00
00
00
00
00
00
00
00
00
00
00
00
00
00
00
00
00
00
00
00
