bf
2d
e9
ff
32
e9
1f
fe
fe
2d
dd
0a
3d
eb
00
e1
d4
d4
11
25
2f
00
18
e7
db
fb
f7
f4
d9
c7
3f
da
3b
f0
4b
ed
34
2c
a5
bc
fa
19
f7
f6
e5
05
0d
02
f7
27
2b
24
1a
1e
2c
0a
f1
30
0d
66
ec
dc
f0
1f
40
24
11
1b
20
e6
28
fb
2a
30
ff
ff
29
34
13
34
dc
fa
f0
0e
fa
04
0d
f1
ed
3d
39
ce
09
54
17
2b
fb
dd
28
35
05
0e
0a
11
07
12
16
fa
f5
f8
ed
0f
17
f1
e7
f4
03
d2
da
f0
21
0c
07
22
df
31
03
fa
