f3
04
14
e4
ee
01
03
e6
16
f7
ea
15
15
c6
03
de
ed
ff
c4
21
0c
30
d9
ee
e7
33
06
26
0f
3d
22
fa
e8
d1
ee
1b
e2
06
eb
00
04
18
fe
28
1e
ce
06
07
1d
d9
e7
c5
19
0d
0c
f9
04
33
10
07
f6
00
0e
00
ec
3b
ea
dd
f2
d4
2f
04
df
2c
f8
15
0c
1a
00
1e
ff
cb
fd
0a
ff
f6
3d
15
f7
dc
ef
02
f3
cc
16
1c
0d
01
34
25
05
ec
0f
16
12
14
07
2e
c1
dc
fb
e0
0f
d2
00
2f
30
10
f5
0f
09
f1
09
05
04
f1
09
fe
ec
18
11
fc
d7
2b
23
f5
35
0a
d5
c7
18
fe
40
d5
f3
00
14
f2
17
11
e5
2d
1c
d3
0d
06
f2
06
02
05
e7
0a
f4
db
32
0e
ed
38
fe
dd
1a
04
ff
db
f5
1d
0b
27
4f
de
28
16
08
fe
b9
ef
3b
f2
0d
e9
04
fa
20
cf
61
fd
04
1a
dd
df
f3
ec
eb
01
15
b8
02
1c
e9
fd
2a
f6
10
e7
0c
00
eb
1c
ea
cb
fa
06
e6
e5
08
f6
dd
07
00
0c
cc
ff
e8
10
e0
1f
fc
0b
f0
f1
1c
ec
fa
f6
15
fa
27
03
e0
f1
22
03
e6
d1
ef
d8
20
ea
18
09
55
dc
03
f7
07
ed
ee
f7
de
fb
2b
00
3b
14
f8
1f
dc
0e
e5
10
03
da
10
c7
0f
2f
17
0e
1a
1e
12
08
37
f3
1d
fb
c1
eb
f5
1e
18
02
21
01
f3
e5
eb
04
3f
f7
29
31
e8
03
1a
09
e1
ef
21
28
13
ed
fe
04
fd
02
0c
04
e3
13
d6
e0
f9
02
2c
d1
f4
01
09
d2
00
05
f6
21
40
04
15
e9
12
54
59
3b
0a
24
16
ed
f1
30
03
2b
13
f8
d9
0e
28
08
eb
37
07
17
14
11
e1
11
1b
2e
e0
fc
f2
04
42
18
20
31
29
f1
d5
08
d7
f5
14
de
e7
10
c0
f6
11
06
0c
29
fd
0b
0e
09
4e
20
0f
36
18
33
04
00
04
0a
40
d9
0c
08
c9
1f
dc
f5
e2
13
1b
df
fd
17
d6
12
0d
f8
15
d3
fc
d6
fb
1f
05
39
04
f7
11
15
04
e1
f1
dd
26
ff
04
14
f6
d1
e0
15
00
fb
00
e5
0f
ed
0d
4f
02
23
0d
f9
06
fc
14
e3
ed
07
26
e8
27
15
e2
f2
e2
fb
fd
d2
ef
f8
df
20
ff
df
fd
05
fe
09
d8
54
04
17
12
1d
04
f8
b9
bd
10
de
1a
e0
b9
06
24
05
10
ee
1e
e8
f6
e5
21
0e
f4
da
f1
08
21
07
da
d6
05
d7
4b
14
ed
b7
e1
03
2c
e9
00
dd
02
0a
0c
fb
10
05
eb
06
12
f7
f7
ef
17
f5
e9
00
d1
f1
fb
1f
0a
09
e2
fb
ff
15
cc
1a
e5
08
cb
f0
cc
26
29
07
e9
22
ef
17
f1
e1
ff
f5
ce
09
e5
1f
dd
1a
19
f9
08
ff
fd
ee
d1
03
f1
ce
14
07
04
f9
23
21
fe
0a
3d
07
05
f9
ee
cd
de
0c
07
1c
d3
10
23
bd
f5
e5
00
dc
ff
f1
e5
f9
0f
ed
0a
e3
fa
ed
08
1e
1d
ee
ff
26
f9
fb
22
14
e6
22
07
f4
0e
e2
07
1e
17
03
25
22
0c
03
ec
0a
c6
1a
1a
ee
fd
14
03
1d
e5
13
11
0a
ef
0f
f6
12
d9
f0
02
3b
f6
d1
38
e6
fd
11
38
e6
f3
00
fc
ec
e4
0e
e3
e8
fd
0d
1d
c5
e0
ca
15
fe
fb
dc
44
fd
29
35
02
f9
24
18
22
f7
c6
e0
fb
01
da
2b
e5
ce
fd
42
1a
11
11
26
f7
e6
c4
03
38
29
f0
ef
07
f2
68
ef
20
10
fc
17
24
0a
06
ec
f1
09
c4
24
07
07
33
dc
ee
0b
1c
00
ed
ef
eb
40
19
f9
f2
f1
2c
32
fe
38
40
0a
2f
16
ee
b7
f8
3c
00
00
00
00
00
00
00
00
00
00
00
00
00
00
00
00
00
00
00
00
00
00
00
00
00
00
00
00
00
00
00
00
00
00
00
00
00
00
00
00
00
00
00
00
00
00
00
00
00
00
00
00
00
00
00
00
00
00
00
00
00
00
00
00
00
00
00
00
00
00
00
00
00
00
00
00
00
00
00
00
00
00
00
00
00
00
00
00
00
00
00
00
00
00
00
00
00
00
00
00
00
00
00
00
00
00
00
00
00
00
00
00
00
00
00
00
00
00
00
00
00
00
00
00
00
00
00
00
00
00
00
00
00
00
00
00
00
00
00
00
00
00
00
00
00
00
00
00
00
00
00
00
00
00
00
00
00
00
00
00
00
00
00
00
00
00
00
00
00
00
00
00
00
00
00
00
00
00
00
00
00
00
00
00
00
00
00
00
00
00
00
00
00
00
00
00
00
00
00
00
00
00
00
00
00
00
00
00
00
00
00
00
00
00
00
00
00
00
00
00
00
00
00
00
00
00
00
00
00
00
00
00
00
00
00
00
00
00
00
00
