d2
06
ec
e8
1c
3c
30
d3
11
16
28
eb
10
01
d6
e5
f4
2e
f7
ff
1d
fd
21
1b
0b
d5
f7
e1
d8
2b
e7
2f
fc
0a
07
06
08
f9
06
05
fe
29
08
25
bb
06
3d
e2
0c
1a
ee
d8
ea
01
00
ff
03
0b
31
fa
de
f3
14
f3
da
f4
05
1e
0c
36
01
13
f4
fb
01
18
ed
ee
f1
f6
0e
fd
0d
dc
d1
1e
ef
ef
ea
d1
0f
01
d5
1d
02
c8
ea
14
ec
2e
27
21
11
f7
28
02
c4
03
f4
dd
0e
de
fb
01
f0
d2
fc
f9
f5
f0
02
de
e0
f8
f6
28
41
fb
0a
ff
09
d7
3b
30
db
cb
03
18
0c
0a
e8
11
0f
06
19
1c
12
cf
d4
d4
f1
1b
e9
f8
25
f7
cc
00
08
ce
f8
f3
05
f5
13
eb
c8
0a
04
f0
03
f3
ed
d7
18
05
f4
e3
0f
fb
fd
0d
05
ff
1a
f4
25
cf
31
fd
04
01
03
d7
e3
ea
ea
0e
18
04
1f
ec
f4
e0
fa
da
16
e6
f2
03
28
0d
fb
17
35
d0
14
1e
25
cc
15
fb
06
0e
11
e8
f0
fd
0c
0f
1a
fb
da
e6
ff
26
fb
1c
11
10
c6
da
b2
ee
f9
0d
04
21
ea
12
05
10
e1
11
ee
1a
e2
fc
eb
fe
cf
cf
f5
cc
28
d1
25
e6
ee
f7
01
f0
cf
04
e4
b5
0d
37
ec
dd
2b
d9
17
f8
f6
15
aa
bf
ff
22
dd
ed
fe
fc
05
e8
29
f6
f0
fb
f3
1f
11
cd
f9
07
ce
e6
1a
fa
2d
09
06
e5
35
1f
db
d8
0a
d8
0f
04
12
00
21
ef
ee
16
d3
ef
fe
c4
20
0c
fd
00
21
de
e5
ed
0a
07
fb
16
d5
0a
c2
21
d0
09
14
1b
dc
2c
de
32
02
0c
32
e4
fc
22
e1
02
f0
ee
0d
f9
0b
fa
ea
fd
2c
e1
10
38
fe
14
06
12
29
d2
d1
22
e1
e6
4d
f3
08
27
e0
ce
0f
20
1a
2f
14
db
18
17
06
dc
f9
e0
e4
09
fa
ea
f8
c3
e9
e6
07
e5
ed
cc
10
0a
0d
ec
c9
f3
3e
ee
e0
35
35
fc
10
00
fd
ea
28
d6
16
0a
e2
d8
e4
0f
08
0c
1a
00
11
fe
f8
f0
d5
e2
f7
2c
04
23
0a
f2
18
df
2e
01
11
f0
3a
1b
fd
e9
0f
e9
fe
10
20
d8
dc
f6
f4
1d
09
1b
ec
da
f0
15
dd
c9
e3
e4
ec
0e
07
07
f9
06
1c
fe
e6
e9
c2
0a
0d
0a
f6
1d
12
e1
25
18
04
fa
fd
0c
f6
05
1b
d2
dc
f9
0f
24
02
f8
0e
fe
08
f6
e0
fd
df
ed
10
0b
04
0f
d2
0d
fc
db
0c
3d
ef
de
13
11
ea
07
f9
fa
03
12
3a
f9
0d
30
f8
f6
22
2b
c9
0d
12
14
19
fb
17
f2
f4
08
ca
2f
ce
f2
e9
f1
e5
23
3a
f8
f4
db
ca
12
fd
d9
f6
1f
f0
41
0c
25
f0
15
27
06
f7
e9
f7
fa
c9
00
ff
05
e0
00
20
c7
fe
f3
e1
0e
1d
fe
0b
0f
17
0d
eb
01
0f
23
cb
ff
fa
eb
04
13
0b
ed
d4
01
0a
f7
09
06
f9
1d
3e
d6
1b
f8
cd
05
fd
1d
27
ed
2c
2a
09
02
19
ff
c3
e3
e7
f3
f6
f8
e2
f4
e6
13
0e
06
fb
d6
24
14
ec
2a
fd
e9
10
5e
e9
1f
f7
32
f3
27
f0
3b
fb
27
e8
e5
ff
17
04
f8
03
fd
07
0c
f4
0b
d9
e3
e9
f7
fa
0a
0c
36
d9
10
23
c9
f1
fa
21
0c
22
05
e2
e8
09
eb
1d
16
e1
18
04
3a
27
ea
c0
dd
03
1c
f1
0d
02
fe
08
e2
da
22
ff
11
23
da
15
f0
1c
1c
0d
11
0a
00
08
0f
17
11
18
fc
39
ea
02
01
08
17
e4
fb
fb
f6
10
0f
fe
00
16
22
01
f3
df
20
c8
dd
d8
09
ea
d9
e4
09
0c
fe
00
00
00
00
00
00
00
00
00
00
00
00
00
00
00
00
00
00
00
00
00
00
00
00
00
00
00
00
00
00
00
00
00
00
00
00
00
00
00
00
00
00
00
00
00
00
00
00
00
00
00
00
00
00
00
00
00
00
00
00
00
00
00
00
00
00
00
00
00
00
00
00
00
00
00
00
00
00
00
00
00
00
00
00
00
00
00
00
00
00
00
00
00
00
00
00
00
00
00
00
00
00
00
00
00
00
00
00
00
00
00
00
00
00
00
00
00
00
00
00
00
00
00
00
00
00
00
00
00
00
00
00
00
00
00
00
00
00
00
00
00
00
00
00
00
00
00
00
00
00
00
00
00
00
00
00
00
00
00
00
00
00
00
00
00
00
00
00
00
00
00
00
00
00
00
00
00
00
00
00
00
00
00
00
00
00
00
00
00
00
00
00
00
00
00
00
00
00
00
00
00
00
00
00
00
00
00
00
00
00
00
00
00
00
00
00
00
00
00
00
00
00
00
00
00
00
00
00
00
00
00
00
00
00
00
00
00
00
00
00
