28
f5
f0
02
f5
31
2b
0a
4a
ff
e8
fa
00
04
13
e1
ea
0b
d2
ef
04
28
13
e7
fe
08
03
03
e8
22
db
08
03
0a
27
22
1d
09
f0
e2
15
eb
ef
ea
ef
f1
fa
a4
cf
e5
fa
04
e6
19
f5
f9
f6
d0
f2
e8
e3
1c
f3
52
0d
1f
16
21
0f
0a
12
f9
3f
3e
ff
e3
f8
ed
17
f8
29
ed
06
d1
d1
fb
f6
16
f4
e8
f6
f8
f2
0f
07
05
12
d2
01
ed
fc
fe
2c
fb
1a
de
0e
2c
c6
d0
f0
3b
08
e7
f2
dd
00
18
f4
15
0d
17
39
ff
0c
f1
f0
e5
f6
1b
0b
2b
14
03
0f
31
2e
0a
1e
23
c5
d9
fb
00
07
01
ed
de
1c
f4
ee
f3
1d
f6
04
05
35
1b
0e
d1
0b
fd
0a
f0
24
09
ff
04
c0
f7
22
f3
00
2b
fd
25
dd
d1
db
33
00
42
ee
fe
10
f8
e6
12
f9
f2
e4
34
28
e1
fa
fc
1d
08
1b
1d
f0
f6
1d
ed
1b
14
f2
ef
1e
ff
11
03
22
1e
d5
04
f4
17
f9
06
f6
e8
0a
c6
da
01
2b
df
ed
cf
ef
0d
06
12
eb
07
d7
3c
0e
03
e2
cd
ea
f6
df
f0
ea
fb
d5
ea
35
00
c2
e3
07
d3
10
14
e8
b2
e4
f4
fd
16
24
02
10
25
14
09
da
ea
28
06
26
e4
10
be
ef
02
fd
e7
e9
f8
01
eb
ed
09
e7
06
f8
14
03
ec
d8
fb
ee
cf
31
03
00
e0
e5
fd
c7
31
17
03
35
e4
ea
f2
15
fe
f7
24
e7
fa
fd
1d
1c
08
02
fb
04
bf
15
ef
ee
fe
2c
d9
18
db
09
fb
fb
ba
04
c7
11
11
fb
d5
ff
ff
03
0b
fc
f9
ea
f2
cf
f0
f7
ca
e1
27
11
02
f1
03
1f
25
07
04
11
07
e3
2d
f0
0b
f0
11
0c
0e
24
f3
05
07
06
f5
ff
21
2d
c0
09
fb
00
ed
ee
de
06
22
f6
fb
15
ee
08
08
e9
07
2b
e3
fd
29
d2
fc
fe
0b
d6
f7
1a
1a
22
10
f2
d1
ed
f9
f6
be
fe
e7
10
19
03
c2
1e
1f
22
14
eb
f9
1a
0e
0f
c8
26
f2
e2
09
46
f4
c1
21
10
db
01
1e
18
18
41
1a
12
47
f8
16
fc
05
fe
d1
e0
dc
ea
fd
12
23
05
fb
23
d6
2b
f7
26
09
d9
f4
04
fc
f7
ef
ff
f4
00
0e
f3
fd
29
47
0d
0a
0a
f7
2a
29
20
d7
e6
06
c7
2c
13
f3
fb
f8
26
c6
e4
d4
16
f8
bc
f0
37
d8
05
13
e2
1e
15
e4
00
02
f4
e9
03
ed
03
fa
2e
f5
e9
df
16
dd
c4
0b
23
10
0b
26
fa
38
e8
1a
f3
fb
fc
fd
1c
f1
12
f9
22
20
14
cb
fe
d3
0c
dc
e3
fe
d6
e7
e4
c2
24
f3
ee
ff
14
fc
fa
01
f7
08
dc
e4
0a
f6
0a
fd
15
17
00
17
1a
ea
18
fa
cf
eb
ee
1c
09
12
f3
24
ef
03
25
fc
ea
00
f9
16
da
26
1e
da
0b
f3
ee
0b
15
22
30
2f
ee
2f
24
fa
09
ff
fc
f8
df
12
e8
1e
1b
1d
4f
0e
f7
fd
11
ee
fc
cf
ee
e9
29
09
cd
19
d2
ff
01
03
fd
15
05
d8
f2
02
d0
1c
da
ea
09
f0
e0
f0
d9
22
ba
e3
dc
1b
f1
0f
ce
d0
e9
fa
1f
00
f0
01
00
ec
ec
f2
12
e4
f7
af
ea
14
f1
24
eb
d5
de
ed
2e
15
e8
1e
e1
f8
0e
44
35
36
01
d1
f6
1e
f0
14
1c
ec
b5
38
f8
1f
e7
cc
de
1f
eb
14
0d
06
e0
cf
df
09
2d
c4
08
db
dc
f8
bb
e7
22
c7
09
06
0a
12
f0
fd
0b
f2
dc
e3
fa
1e
d6
e6
ee
2a
fa
09
22
10
ef
0e
e7
24
d5
31
e8
e6
fb
0a
fa
fb
ea
d7
e5
14
00
d3
e4
1d
20
09
00
00
00
00
00
00
00
00
00
00
00
00
00
00
00
00
00
00
00
00
00
00
00
00
00
00
00
00
00
00
00
00
00
00
00
00
00
00
00
00
00
00
00
00
00
00
00
00
00
00
00
00
00
00
00
00
00
00
00
00
00
00
00
00
00
00
00
00
00
00
00
00
00
00
00
00
00
00
00
00
00
00
00
00
00
00
00
00
00
00
00
00
00
00
00
00
00
00
00
00
00
00
00
00
00
00
00
00
00
00
00
00
00
00
00
00
00
00
00
00
00
00
00
00
00
00
00
00
00
00
00
00
00
00
00
00
00
00
00
00
00
00
00
00
00
00
00
00
00
00
00
00
00
00
00
00
00
00
00
00
00
00
00
00
00
00
00
00
00
00
00
00
00
00
00
00
00
00
00
00
00
00
00
00
00
00
00
00
00
00
00
00
00
00
00
00
00
00
00
00
00
00
00
00
00
00
00
00
00
00
00
00
00
00
00
00
00
00
00
00
00
00
00
00
00
00
00
00
00
00
00
00
00
00
00
00
00
00
00
00
