0e
10
fb
f9
0e
5c
e8
fd
fc
31
e4
19
e6
13
11
48
06
fd
0d
ec
fc
04
27
47
09
23
07
fb
04
0f
43
c4
e5
0d
ef
39
06
30
1a
0c
18
ca
25
11
ef
1d
a9
e6
e8
37
0c
04
09
22
00
7f
09
b1
27
29
ee
0e
bb
05
e2
f3
e0
13
cf
1e
2e
13
e2
dd
17
14
d8
e9
30
fc
ff
2e
53
07
f3
fe
e6
0b
2c
08
f5
4a
00
18
14
25
ed
1a
c2
07
21
09
18
02
f6
3d
fd
e8
05
06
ff
e2
1b
0d
35
b8
17
18
0d
fd
d7
23
00
ea
0e
a3
26
fe
