ee
2b
2c
c5
2b
55
10
d3
bc
f5
d3
28
0e
0e
e0
fa
01
15
ef
1f
d7
16
0b
f5
f2
e1
af
04
da
03
1f
1d
3c
cb
f9
ff
fb
ec
31
b8
08
f3
28
fe
00
0f
3a
f2
dd
15
f0
dc
e8
26
f6
db
e2
fc
2c
2b
06
d4
71
26
40
c5
d8
e6
f9
fa
f1
1b
cb
24
e9
f4
e3
03
2a
15
29
c9
22
e5
d8
0e
f7
cd
3f
29
04
d5
03
e0
e7
04
29
19
2b
ea
dc
19
fd
08
db
a7
fb
f2
e9
2e
0d
10
e8
09
f0
d0
2e
f6
03
36
d5
04
ec
01
e5
fc
35
fc
