1c
43
0f
03
df
e3
f2
1b
02
20
05
ef
f2
fc
fc
fb
f7
d8
f4
0f
02
f6
fd
cb
b4
d1
fa
09
dd
39
fa
15
e3
07
fb
12
18
e7
25
e3
f9
04
09
f6
fe
ee
e8
09
05
30
f1
e6
f6
d2
1b
23
f5
ff
e3
ef
20
2a
fb
2f
16
da
e5
22
df
25
ce
f0
d1
0e
f6
08
01
0e
0d
10
e5
23
05
11
e5
14
2f
ed
46
3d
05
fd
fd
e6
21
10
fe
ea
fe
cc
d3
11
3d
1b
03
f6
1f
ed
db
0b
25
f3
f5
34
13
30
3b
e6
94
1f
48
e0
db
01
07
18
e2
01
02
f5
09
e6
f7
40
ce
d6
f4
0a
13
17
f7
1e
eb
e9
ec
f9
10
1a
ef
06
f6
d9
d1
c1
0e
fb
d2
ef
f5
14
eb
c9
05
08
1d
f0
05
0d
fb
24
e6
21
11
1b
14
de
22
ea
01
00
fa
eb
cc
0e
d2
dd
02
fe
db
e0
33
06
15
2e
e3
fc
dc
01
e2
f5
0b
e4
76
fa
ef
1a
08
ed
d2
b6
10
ff
f2
fc
00
c5
28
ef
26
fe
11
1e
13
01
02
d4
03
e7
19
fc
0a
22
0e
1f
1c
24
14
50
30
12
f8
0a
eb
11
fe
df
2b
3d
e4
fe
0f
28
0b
f8
ef
2c
f9
ff
e8
ee
ef
ef
07
e3
0a
24
e7
ff
f1
1c
07
bc
d7
ef
b2
f5
00
21
27
f5
17
ff
1a
ff
1e
0d
be
f5
00
f2
20
e9
1d
fa
d3
1e
cd
f8
0e
f8
f6
1e
16
20
2c
f4
10
fe
ec
3d
11
23
0f
0d
29
c1
e8
22
de
ce
0b
16
00
1d
2c
04
fb
f8
bc
fd
24
25
ff
ed
0c
d3
42
16
2e
03
04
2c
15
ea
eb
f7
17
0c
fc
f0
f4
e9
eb
04
23
59
d0
17
f9
1c
16
f8
ed
05
01
12
f6
e1
ec
18
25
04
f7
09
0f
15
f7
02
ea
15
17
52
c4
1b
10
1f
31
ff
ed
bd
fe
e6
14
df
12
ca
f4
4b
ff
17
18
f6
fe
ff
eb
d5
0e
1a
ee
0f
06
f8
e9
d8
03
dc
05
2d
f2
05
1b
d8
e3
0e
fe
0f
0a
1a
f8
1f
1b
dd
15
09
0e
f3
ba
3a
25
0d
0c
e7
d0
bf
ea
fb
f1
1e
10
f1
e1
0e
21
18
d7
2d
14
fb
f8
04
e3
2b
f5
ed
04
ed
c6
e3
fd
c8
df
0f
da
e2
f0
04
0e
04
f9
05
ed
fb
e3
e8
0d
2d
f1
e0
f5
04
eb
04
09
eb
f0
dc
16
23
fd
eb
be
41
fa
12
11
15
22
15
f6
dc
fb
fd
17
ff
09
b9
0a
b5
d1
12
0a
ee
25
f9
0d
e6
f4
13
29
f2
1b
24
01
10
00
f7
26
ee
05
ec
25
26
d6
db
e8
15
05
0f
10
2b
ea
01
f9
f7
09
ee
f3
04
ee
ef
19
0a
1f
02
17
3e
fa
f3
f4
d5
05
f6
f3
a8
22
1d
0d
f5
fc
03
e5
ef
33
05
11
11
d7
12
0d
1b
29
04
04
0f
f2
ea
f8
06
06
f8
d7
12
15
dd
f1
f4
04
08
17
2a
fc
17
be
e9
02
05
20
0a
0e
2c
13
0e
06
fd
eb
3c
cf
e4
0f
f2
fb
ef
1c
13
18
c3
f9
de
ed
f4
0f
18
bd
b1
ef
ee
08
f0
fb
d6
f5
26
10
eb
17
0d
06
cb
f3
dc
0b
e4
13
c4
ee
00
1f
16
03
f0
f3
37
33
36
0b
dd
f3
12
19
1a
e0
ed
08
0d
0e
e9
26
29
fe
e2
38
eb
eb
2e
de
09
d9
c7
ec
15
e1
16
07
eb
fe
fc
d4
ca
13
11
f0
07
01
cc
10
2f
0a
fe
dd
f0
2e
11
de
f5
ff
f7
f3
e4
d7
05
29
ed
01
1d
02
35
1d
13
19
0a
ff
1d
08
06
f7
04
06
ed
f5
d1
d6
c7
18
50
02
e6
1a
00
fb
ea
27
fb
0e
05
f3
f6
dc
1b
26
d5
36
1c
dc
f5
10
e7
ea
2f
fe
df
fa
db
c7
08
00
00
00
00
00
00
00
00
00
00
00
00
00
00
00
00
00
00
00
00
00
00
00
00
00
00
00
00
00
00
00
00
00
00
00
00
00
00
00
00
00
00
00
00
00
00
00
00
00
00
00
00
00
00
00
00
00
00
00
00
00
00
00
00
00
00
00
00
00
00
00
00
00
00
00
00
00
00
00
00
00
00
00
00
00
00
00
00
00
00
00
00
00
00
00
00
00
00
00
00
00
00
00
00
00
00
00
00
00
00
00
00
00
00
00
00
00
00
00
00
00
00
00
00
00
00
00
00
00
00
00
00
00
00
00
00
00
00
00
00
00
00
00
00
00
00
00
00
00
00
00
00
00
00
00
00
00
00
00
00
00
00
00
00
00
00
00
00
00
00
00
00
00
00
00
00
00
00
00
00
00
00
00
00
00
00
00
00
00
00
00
00
00
00
00
00
00
00
00
00
00
00
00
00
00
00
00
00
00
00
00
00
00
00
00
00
00
00
00
00
00
00
00
00
00
00
00
00
00
00
00
00
00
00
00
00
00
00
00
00
