10
1b
1d
2b
da
de
b8
c7
fa
da
ee
0f
21
01
fa
ed
20
ea
40
f4
03
1f
27
14
0f
0d
e7
23
11
f1
0e
27
dd
b9
06
e8
27
19
ff
14
f0
0c
f5
e6
e9
1e
f3
0b
e4
0e
f3
28
c7
1b
fd
e8
2e
ff
00
fa
f6
e8
e7
1d
e8
31
f0
0b
e4
fe
fe
1a
f1
15
f2
04
19
08
0a
f7
fb
1e
e3
19
c3
0e
fb
12
ff
f4
18
e8
0e
e3
cd
35
39
1d
24
f1
47
cf
0f
2e
eb
f5
ee
e0
cb
02
14
08
24
1e
fd
04
dc
0a
f5
07
00
f7
fc
f0
12
ef
0c
dc
19
f9
ca
20
f0
fb
fb
f9
09
d0
ed
f5
1a
d9
05
1a
e3
f2
3f
f4
0f
e3
fb
ef
2e
fe
12
17
12
f2
fe
e9
c7
1e
ff
fd
49
f4
02
dc
e3
d0
32
14
26
f5
04
e3
d3
d1
2d
11
f2
0f
fc
ea
03
e0
0f
e9
19
d8
21
09
e3
e5
e6
fd
e8
3f
c5
0a
17
29
e6
dd
37
f3
15
04
f8
12
ed
eb
e3
c9
06
21
db
fa
05
c4
22
b4
e5
3a
f4
12
c8
06
1e
eb
ce
07
cb
ce
fd
d9
ec
1d
e8
e1
0c
ca
e5
f9
e4
e1
0e
39
d4
fe
e5
e6
da
3f
bd
f3
1d
00
27
0d
09
17
01
15
0a
fc
08
0e
f6
06
da
fc
eb
fd
e5
f5
fc
0a
f7
01
05
ff
18
ec
2f
d8
c8
e3
06
02
e5
1b
e7
0b
14
e7
14
12
fc
d8
13
f5
dc
ff
26
d3
d8
e1
30
1d
d3
e5
25
e3
e6
ef
08
33
1b
dc
3a
21
14
e3
d7
13
ca
ee
f5
0f
f6
e9
1a
ed
d5
f2
dd
e2
de
eb
e3
02
2d
30
10
0c
de
26
10
1b
de
ea
ec
18
03
f9
fd
0e
36
26
1c
e1
e8
25
f6
04
f8
37
de
d6
0a
ed
18
e9
1e
ed
0d
09
1d
e5
1d
e9
0c
06
f0
0e
00
01
17
da
08
c1
cf
ea
fc
fc
15
d3
13
e8
0a
32
fe
1d
dc
05
e3
1f
24
35
db
fb
10
c5
16
fc
26
e6
f6
de
0a
d8
26
5f
b1
10
e5
df
e1
d8
36
19
0c
e8
fa
d0
db
05
02
1b
e6
32
13
de
18
d7
0f
1b
01
0a
ec
fb
f0
ec
f2
36
cd
0a
f7
0b
e7
0f
fb
15
fa
24
1e
e0
e0
0e
20
02
e0
57
fa
c1
42
f7
fb
de
01
f7
e0
36
f9
0c
e9
27
fa
20
1b
ec
d4
f0
04
e1
11
d2
04
08
0f
04
bb
eb
00
f9
1f
d3
0b
1c
30
01
0d
21
f7
0f
ec
09
0b
14
2f
d0
17
00
18
dd
17
f2
e8
0f
03
3b
c9
13
04
fa
19
00
0f
ed
ea
dc
f3
29
d8
1f
0d
ed
09
fe
0b
04
d6
fd
f0
f3
06
f1
f1
e7
f9
1a
f1
0b
00
06
e2
e0
0f
01
0a
e8
13
12
07
ec
40
0b
e3
e6
32
c9
f4
07
08
dc
d5
0c
de
c4
ec
c0
02
d9
0c
f5
f1
01
f4
1a
50
e7
fa
2e
03
ea
f5
19
ef
11
09
18
0d
fa
2b
f4
0b
e0
0e
2e
1f
f2
e4
23
15
d7
de
e1
02
02
f8
29
fa
fc
fe
d1
0e
f1
f6
f8
0e
fd
c8
1b
e3
ae
ff
fa
06
e8
c2
24
f7
cd
fe
ea
44
f8
d1
d0
2b
cb
0d
20
22
eb
0f
1d
e8
1a
f3
0f
17
2e
40
1f
f3
25
06
f5
f1
b9
fe
08
f3
10
06
ff
13
e3
f8
0f
30
44
10
df
d9
18
f3
e7
af
f2
21
03
ef
e9
06
fc
07
d8
1a
ff
f8
d0
00
1a
b1
f6
25
27
e1
f4
34
10
fc
01
04
fd
09
d6
37
e5
d4
10
41
2c
26
ed
0d
e4
36
25
0e
10
35
0a
02
05
dd
10
1f
01
ed
02
17
03
09
01
f8
16
fa
13
0b
dc
02
e0
07
19
c9
f0
ec
21
ee
fc
0c
e9
bc
12
e4
0b
ec
ff
f4
e5
00
00
00
00
00
00
00
00
00
00
00
00
00
00
00
00
00
00
00
00
00
00
00
00
00
00
00
00
00
00
00
00
00
00
00
00
00
00
00
00
00
00
00
00
00
00
00
00
00
00
00
00
00
00
00
00
00
00
00
00
00
00
00
00
00
00
00
00
00
00
00
00
00
00
00
00
00
00
00
00
00
00
00
00
00
00
00
00
00
00
00
00
00
00
00
00
00
00
00
00
00
00
00
00
00
00
00
00
00
00
00
00
00
00
00
00
00
00
00
00
00
00
00
00
00
00
00
00
00
00
00
00
00
00
00
00
00
00
00
00
00
00
00
00
00
00
00
00
00
00
00
00
00
00
00
00
00
00
00
00
00
00
00
00
00
00
00
00
00
00
00
00
00
00
00
00
00
00
00
00
00
00
00
00
00
00
00
00
00
00
00
00
00
00
00
00
00
00
00
00
00
00
00
00
00
00
00
00
00
00
00
00
00
00
00
00
00
00
00
00
00
00
00
00
00
00
00
00
00
00
00
00
00
00
00
00
00
00
00
00
