1c
0f
f6
2b
18
fc
dc
02
20
fe
cc
08
1a
f5
0a
f2
37
fd
f4
df
ee
1c
00
bf
3b
09
0a
14
fb
09
fe
51
23
01
02
12
ef
31
33
e7
2d
11
00
09
28
16
00
2c
0d
d9
fb
e5
f0
28
13
0c
0a
26
dd
ed
d9
5f
d7
1b
de
eb
10
fd
17
fb
07
00
2c
1c
c0
ed
23
12
55
00
3b
c8
ec
e7
d9
43
f1
19
d9
bb
db
02
d7
1b
eb
ef
1f
21
1d
d9
41
0f
30
10
1b
37
fb
03
23
17
18
52
2e
e6
d7
08
06
f2
09
cd
50
11
15
3c
0f
03
17
0f
