08
0e
01
10
11
21
fa
fc
ea
fa
06
f5
ee
3d
0b
d5
f4
20
30
19
1a
36
3e
0a
fb
30
08
db
c9
c8
ec
f2
2a
14
ef
19
da
f2
fa
fe
de
1c
fe
cd
e5
15
19
fb
ed
0b
e8
e3
fd
0a
ec
c7
20
19
f3
05
15
1b
04
21
dd
10
02
14
fa
13
28
16
0a
0d
20
09
18
fb
f5
eb
06
0e
07
f4
fb
f4
02
0a
06
04
9a
0b
f0
08
29
03
ff
17
0d
ff
19
fc
00
fa
04
f7
04
f8
23
20
e9
1f
b8
ed
07
0f
20
f1
09
1c
0b
f8
ff
17
04
ff
f1
d0
dc
09
2c
cd
0c
11
f7
07
e7
0d
23
f4
1c
e8
f0
0d
da
eb
f3
01
23
0d
fa
17
0a
f3
e9
06
23
e4
dc
16
e3
f6
d9
04
01
e0
f3
21
f7
27
0e
fe
16
f4
0e
ed
e7
19
f0
2f
00
ea
06
13
ff
10
eb
d6
d7
f8
e6
ea
e6
fe
f3
f1
20
00
16
f2
05
15
11
e7
04
0f
d5
1a
fc
08
10
27
e8
0f
d9
16
e1
dc
04
0d
10
de
ff
07
3e
2b
f6
ff
d9
f0
10
e9
f1
05
e5
f5
1a
17
0f
1e
02
02
15
cb
ca
e0
0d
08
01
02
04
04
e7
1e
f9
0c
16
c2
0e
e0
e3
0f
d6
e2
21
f0
2d
01
e1
d0
11
18
c6
1b
12
e5
05
00
01
e8
08
ca
e2
16
24
0f
cd
1c
f0
d2
1c
13
fa
fa
f8
09
de
07
45
0f
fd
e6
e4
2a
ef
de
03
37
13
1d
fa
fa
ce
e6
fd
f5
f2
20
3b
09
08
fe
31
12
e6
fd
1a
03
bd
f4
dd
dd
00
31
08
21
e6
11
f8
17
18
d8
da
f9
fa
25
00
05
d6
34
f2
fe
fe
df
e3
0c
e4
cf
12
0f
f5
0e
ed
08
d2
e1
01
e9
f3
04
fb
00
d6
df
17
0e
02
0c
41
f0
fd
0f
13
fb
1a
02
09
ef
0d
fe
01
09
20
fe
0c
fc
0e
d6
f2
ff
dd
e4
03
de
ee
e9
06
db
05
e6
0e
01
54
ee
0e
19
fb
09
3e
f4
29
05
c6
df
da
04
d7
f9
ed
01
2d
ef
35
dc
01
0e
25
12
e6
10
3e
10
ef
2b
06
fd
30
e2
30
ea
39
d3
26
2e
0f
ff
1f
3d
06
18
f2
00
fe
e8
ea
16
e1
f6
09
0f
0b
11
09
c3
1a
1d
f7
b6
db
12
f5
20
36
fa
16
16
30
03
d6
e0
10
e8
f0
25
22
c5
1e
16
e3
4b
de
04
dd
c7
f7
0d
ef
24
2f
e7
0a
ec
d7
e5
17
18
dd
f4
03
02
e4
de
e3
f8
04
c6
fc
ef
00
d5
e8
e6
0d
06
32
d2
14
0a
f9
0b
f4
be
fb
0b
e8
17
1c
18
1f
f1
e4
fa
e9
fc
cc
fd
0f
f8
dd
ef
ba
ff
ec
fa
d8
15
fa
df
da
01
30
06
20
1a
ed
0a
ec
e0
2b
12
f8
eb
09
04
d4
03
21
14
19
0b
f7
b4
02
23
f4
22
ef
0f
d5
10
fd
fb
1c
05
f4
25
e3
df
18
fd
05
1a
fb
06
d1
07
ef
0b
16
ea
ef
14
11
1a
c2
28
fd
cf
12
07
f5
22
f2
f6
0e
dc
ed
27
33
17
06
1a
33
0a
06
dd
19
fd
ef
dc
fa
03
f5
fb
01
03
35
1f
fb
d8
44
d3
02
0c
d9
f1
0e
06
fd
02
f0
26
da
ef
07
ef
2b
0d
f3
2a
ef
07
08
c1
ff
f2
01
02
ec
e3
06
0a
15
c3
18
fd
05
dc
39
d5
db
09
03
17
2d
ee
12
ed
f7
df
f5
04
e3
f4
fb
05
f1
1e
02
e8
0d
0c
f8
e0
f8
bc
04
e7
f0
f8
e8
f6
f2
da
f5
fe
eb
d5
e3
d9
fc
1d
31
e9
22
cb
17
ed
07
e7
17
0c
36
ff
f8
31
d9
f0
db
0d
d9
07
fa
00
14
f8
08
de
00
19
bf
fe
ff
fa
f3
21
11
22
01
df
0c
04
d2
ff
00
00
00
00
00
00
00
00
00
00
00
00
00
00
00
00
00
00
00
00
00
00
00
00
00
00
00
00
00
00
00
00
00
00
00
00
00
00
00
00
00
00
00
00
00
00
00
00
00
00
00
00
00
00
00
00
00
00
00
00
00
00
00
00
00
00
00
00
00
00
00
00
00
00
00
00
00
00
00
00
00
00
00
00
00
00
00
00
00
00
00
00
00
00
00
00
00
00
00
00
00
00
00
00
00
00
00
00
00
00
00
00
00
00
00
00
00
00
00
00
00
00
00
00
00
00
00
00
00
00
00
00
00
00
00
00
00
00
00
00
00
00
00
00
00
00
00
00
00
00
00
00
00
00
00
00
00
00
00
00
00
00
00
00
00
00
00
00
00
00
00
00
00
00
00
00
00
00
00
00
00
00
00
00
00
00
00
00
00
00
00
00
00
00
00
00
00
00
00
00
00
00
00
00
00
00
00
00
00
00
00
00
00
00
00
00
00
00
00
00
00
00
00
00
00
00
00
00
00
00
00
00
00
00
00
00
00
00
00
00
