1c
e7
fb
af
f7
d6
f3
20
fa
13
18
d1
dd
ed
f4
00
13
f4
20
d0
11
39
f8
e3
e0
22
ed
45
ee
da
e8
1d
25
0b
0a
1d
ed
16
14
d8
52
3f
c6
e1
16
3d
20
2e
e4
e4
02
02
df
05
0d
e3
00
27
0b
1d
23
30
af
03
10
04
07
da
1f
db
e4
28
0e
20
f5
10
cb
f1
e0
f7
d4
f5
0d
f9
0f
4e
1e
1c
dc
0e
20
25
ea
31
fc
1c
b3
1a
d2
15
17
f1
02
0c
0a
1d
03
e9
28
cc
31
54
18
0d
1d
ff
11
2a
04
f1
0d
bb
f6
d7
10
01
13
fd
