ed
b3
fa
fa
fa
17
10
1f
48
1d
14
01
eb
11
eb
d0
28
1a
06
35
db
12
f4
0c
ec
ff
24
e6
dd
0f
39
ff
ee
0c
35
04
e6
dd
f7
01
13
21
e4
cf
0b
f3
ef
01
13
e6
e5
ff
e4
1f
03
ea
1a
0a
ef
e9
17
f1
e5
d8
dc
1e
1e
f5
32
d4
08
1f
db
ec
3d
fd
17
07
07
fe
e4
08
ee
ca
05
d4
e8
0e
18
c8
d8
f2
e9
13
cd
f0
d3
f9
e8
f3
ef
03
dc
03
ef
f1
e9
c3
ec
31
ef
00
01
f8
1b
f2
15
e4
ee
e6
d4
fd
08
de
f9
08
04
dd
25
0d
0c
d9
e2
da
e3
1f
f6
ef
f9
3e
01
db
e9
fe
ff
fb
e9
19
e1
05
0d
ff
d8
20
f9
1d
f1
e2
2d
df
01
1f
09
d6
f8
f5
1d
0c
2a
10
e5
21
1a
fc
02
e3
ea
08
09
f1
f8
dc
0c
e9
eb
f6
12
06
fb
f2
f1
f4
e6
2f
e1
03
fb
09
30
fb
f9
3b
e4
0f
dd
f0
02
fb
10
27
1b
d7
08
cb
ce
b2
2a
10
d0
0e
f1
cd
e9
26
2c
21
c1
fa
12
e4
df
fb
20
18
d2
fc
ff
17
03
f9
db
dc
0c
28
36
00
0b
23
f9
36
e3
e9
08
04
e5
e4
d9
fc
26
e1
dc
e1
17
20
03
fa
da
c9
f3
db
e2
10
0a
e8
eb
28
dc
9c
eb
09
28
28
fe
09
e2
d1
e0
14
06
f3
e1
04
ff
11
e8
c5
e7
04
ea
11
33
0c
0f
0c
31
ee
d2
02
a9
e9
dc
e3
f3
f2
07
17
15
04
16
14
05
32
e3
f6
db
dc
10
3f
0a
18
0f
05
18
c6
13
cb
f8
dd
f3
12
20
04
08
0c
de
10
ef
0c
05
0d
01
1c
fe
17
f5
20
19
f8
01
0b
13
29
09
15
06
c8
0d
f4
0e
10
e6
3b
15
e6
01
f5
0f
08
12
e4
e1
cb
f5
fb
fd
12
f3
f1
f1
1a
0c
f3
0b
bb
ef
e0
f2
02
0d
06
29
18
1f
ef
fe
24
e9
05
f9
f0
3c
22
16
00
08
f8
e6
e0
1b
f4
d8
09
20
ea
47
10
e8
ff
1b
2a
27
e4
05
13
00
e5
dd
18
2e
c8
da
08
0b
fb
f6
e7
08
f2
f8
1d
d2
ee
18
ee
ed
ef
0b
de
18
fa
ea
ed
ea
25
2c
15
00
fd
17
0d
e4
f2
dc
0b
0a
f4
03
ed
e7
e7
04
2f
19
e2
0f
ea
e4
33
e7
1c
cc
24
da
ef
f4
32
56
ff
e5
ca
f1
07
d6
19
3f
da
c1
08
e7
f2
e7
0f
06
f5
00
1c
e1
e5
d6
20
ec
fb
0e
df
34
11
e2
ed
f5
f7
13
f3
f3
09
df
1a
13
20
24
e2
1c
03
1a
e2
f4
4c
e3
d4
17
f0
e4
f9
11
d3
ca
e9
09
2d
e7
fe
dd
f9
e9
e0
f2
d6
fa
04
2b
1c
10
ce
13
f3
1f
09
e6
1a
0d
1d
f7
07
df
ec
01
ea
f0
19
e5
08
18
db
da
09
e6
f8
cc
fa
f1
f8
0c
db
e6
0a
19
1e
0d
14
fc
f5
f5
0f
0d
0a
e4
16
03
2a
d8
0e
2c
fd
ee
f3
f0
df
fb
ed
0f
16
01
0c
39
12
f7
e4
1a
f1
11
4a
e1
cc
f6
fc
fe
21
ed
e9
07
fb
f4
08
0a
42
f4
17
05
11
d7
05
1c
d3
03
19
1d
d9
fc
18
f4
e9
f2
08
16
c7
12
e5
0a
e5
fd
20
11
01
13
eb
0e
33
eb
e5
16
0c
e5
f8
17
e7
08
f9
bb
00
fa
27
f7
eb
11
12
29
f7
fa
1a
16
e9
e1
eb
ed
c2
f6
fe
fa
01
08
0d
32
21
e3
0b
17
ca
00
18
0c
21
1c
fe
ea
1d
fa
ff
f8
04
2b
fe
e6
ff
f2
2a
0b
08
db
fe
dc
0e
f6
1a
00
f6
0c
14
fe
01
02
45
28
ef
16
d0
0c
ef
fa
fa
eb
12
fb
22
12
e0
2a
04
ee
11
18
f2
2f
09
09
e4
00
00
00
00
00
00
00
00
00
00
00
00
00
00
00
00
00
00
00
00
00
00
00
00
00
00
00
00
00
00
00
00
00
00
00
00
00
00
00
00
00
00
00
00
00
00
00
00
00
00
00
00
00
00
00
00
00
00
00
00
00
00
00
00
00
00
00
00
00
00
00
00
00
00
00
00
00
00
00
00
00
00
00
00
00
00
00
00
00
00
00
00
00
00
00
00
00
00
00
00
00
00
00
00
00
00
00
00
00
00
00
00
00
00
00
00
00
00
00
00
00
00
00
00
00
00
00
00
00
00
00
00
00
00
00
00
00
00
00
00
00
00
00
00
00
00
00
00
00
00
00
00
00
00
00
00
00
00
00
00
00
00
00
00
00
00
00
00
00
00
00
00
00
00
00
00
00
00
00
00
00
00
00
00
00
00
00
00
00
00
00
00
00
00
00
00
00
00
00
00
00
00
00
00
00
00
00
00
00
00
00
00
00
00
00
00
00
00
00
00
00
00
00
00
00
00
00
00
00
00
00
00
00
00
00
00
00
00
00
00
