1f
c9
e6
f7
eb
13
e6
10
d6
f8
33
e0
f8
f2
2d
c6
2c
39
f3
dd
23
1d
0e
11
ff
d5
13
f6
35
2e
c6
f9
ca
1e
16
ff
32
20
f6
e2
03
e7
d9
2d
fe
09
ea
e7
f3
02
fe
bc
04
07
12
00
f6
33
0c
d1
f7
1b
dd
b6
f1
1c
cf
1f
bf
db
30
cf
d3
19
0a
2f
eb
08
08
0e
fc
07
16
18
e5
dd
17
0c
da
fb
1d
20
de
ec
c2
e8
e8
f9
e5
e8
2c
09
23
f3
18
d9
cf
0a
e6
27
00
f8
44
f9
f0
e2
e7
e8
e6
e0
17
26
21
1f
f3
be
fd
02
f9
19
14
1c
1a
06
e8
d2
17
11
16
0c
dd
16
0c
ea
13
ef
0e
c8
fa
d2
d3
33
de
35
29
0a
f2
0d
06
ec
e4
0a
29
e5
ca
f4
e3
09
0a
dc
14
1a
27
03
ff
e2
24
ef
12
f1
0c
c3
e5
f9
03
e5
f2
e3
1c
05
12
e1
01
00
da
e8
07
13
fb
1d
18
04
f1
fc
19
ff
30
11
13
00
09
eb
12
03
cd
00
1f
29
f9
02
e6
1d
1d
ff
06
10
d9
28
00
c6
0d
05
16
1c
2d
f4
ed
fe
ee
d7
e2
07
2a
fd
0f
cf
02
17
19
1e
04
d1
ff
2c
20
0e
fd
f4
c5
0e
d0
e6
3e
bf
f8
f6
de
0c
00
ed
34
0d
f1
fd
2d
08
f8
01
e3
ed
ed
21
e2
ce
fb
00
ff
01
13
ed
f1
ca
e7
08
d9
fe
19
0d
05
00
0f
df
e9
25
1c
f2
d5
e1
2e
eb
35
f0
fb
0b
40
00
23
f9
fe
e4
e3
ff
32
fe
0e
e0
f5
04
00
32
41
fc
2f
12
14
17
e2
02
ee
d4
1e
e7
df
cf
21
01
ed
ed
2d
06
06
ff
f8
1e
0f
2d
df
d2
ff
24
0b
20
16
f3
15
03
2b
df
16
d6
e9
1f
21
02
c2
20
e8
f6
e6
17
e3
ed
f1
14
d0
12
df
1a
e9
ff
eb
02
27
d3
1d
eb
fc
d6
14
e0
ff
dd
e3
0d
33
fe
0e
02
f3
0a
fb
e3
11
10
17
0a
dc
fa
fd
f6
04
f8
25
e4
03
fc
00
3a
26
f3
2d
13
ef
f3
ef
0b
01
29
f4
09
2b
f4
f4
16
fc
f9
ea
0b
05
03
2d
10
1d
db
e0
0b
0c
18
d3
eb
ee
fc
e4
ff
0a
ef
1f
ff
11
1a
d6
f8
fc
f5
06
e9
ee
09
fb
04
22
0e
ec
53
0c
eb
19
c9
1e
07
01
07
05
f3
09
f5
df
17
27
22
33
05
0c
ed
e2
00
31
30
f9
dd
1e
e2
ef
eb
33
f4
e3
10
17
aa
fb
01
f7
f2
17
47
04
ec
11
19
fd
fe
11
3d
f7
10
20
0c
ef
f3
f1
f3
20
fb
1a
dc
00
3a
19
f7
c0
07
f1
2c
f5
f9
14
f7
1f
f3
e2
ce
08
1d
0c
0b
f8
ff
12
e5
ea
0f
fd
fc
25
c3
e3
08
08
c9
f0
14
f9
1c
28
1c
28
ff
f1
01
f6
d2
e5
03
d4
e6
0c
ef
e9
0b
d9
04
f8
db
0c
ee
2a
0f
f6
d4
04
e2
f1
19
1f
f2
29
0d
f8
f3
0f
14
19
0a
e5
16
f5
fb
0b
e6
c6
12
fa
f8
1d
c5
1d
f5
18
ef
00
04
e3
16
32
0d
1d
e4
f4
1a
eb
e9
ce
0f
d6
f8
e5
ff
eb
f7
0e
bf
16
28
ea
03
fc
f2
c7
f0
3f
ed
03
1a
06
0c
1c
e6
05
1a
f9
d7
e5
dc
4c
f6
f0
19
f1
b2
0c
26
0b
0a
e3
ee
e8
28
24
13
f7
df
d4
d3
df
25
18
fd
f4
da
e4
0e
fb
16
d8
0a
0a
e1
de
18
f9
fd
fd
e8
08
29
5a
e8
fa
05
03
09
e6
0e
f3
03
f1
17
21
1f
d8
07
f6
fb
ed
f6
f1
03
ea
10
fa
06
26
fa
fd
0a
1e
17
ec
e3
3e
c6
1e
e1
0d
06
3d
ef
07
ef
ed
f9
fa
0c
df
ed
b8
f1
f2
eb
1f
ea
f0
08
00
00
00
00
00
00
00
00
00
00
00
00
00
00
00
00
00
00
00
00
00
00
00
00
00
00
00
00
00
00
00
00
00
00
00
00
00
00
00
00
00
00
00
00
00
00
00
00
00
00
00
00
00
00
00
00
00
00
00
00
00
00
00
00
00
00
00
00
00
00
00
00
00
00
00
00
00
00
00
00
00
00
00
00
00
00
00
00
00
00
00
00
00
00
00
00
00
00
00
00
00
00
00
00
00
00
00
00
00
00
00
00
00
00
00
00
00
00
00
00
00
00
00
00
00
00
00
00
00
00
00
00
00
00
00
00
00
00
00
00
00
00
00
00
00
00
00
00
00
00
00
00
00
00
00
00
00
00
00
00
00
00
00
00
00
00
00
00
00
00
00
00
00
00
00
00
00
00
00
00
00
00
00
00
00
00
00
00
00
00
00
00
00
00
00
00
00
00
00
00
00
00
00
00
00
00
00
00
00
00
00
00
00
00
00
00
00
00
00
00
00
00
00
00
00
00
00
00
00
00
00
00
00
00
00
00
00
00
00
00
