21
08
08
2a
08
30
ed
ed
0d
df
f2
15
0c
35
28
05
fd
eb
df
00
11
42
e3
e6
e9
07
24
ce
cd
e4
cd
1d
09
00
f3
14
fb
ea
f7
0b
d1
f4
03
fb
07
db
06
18
ef
1d
2b
1e
15
13
f3
eb
19
1e
05
07
09
15
fd
04
d7
ef
dd
07
10
f6
16
f9
44
09
2d
f8
0f
d9
0e
26
0a
ff
2c
d9
e3
d6
e9
2e
01
11
de
11
e4
ea
02
0d
fd
d8
fc
0b
24
09
d3
e1
42
f7
e5
11
cb
0b
0c
1a
e7
e3
18
1c
e2
1a
38
18
0c
0f
0e
2a
1e
f6
06
04
27
15
f8
fa
3d
e0
f1
30
0a
04
18
ec
1c
fd
34
fd
e0
16
e3
b5
02
fa
ea
1a
d4
25
2c
19
00
2f
1e
1a
22
07
db
dd
f2
da
38
0e
02
18
fc
e8
f2
25
1e
23
02
ff
1c
dd
fe
dd
ea
09
11
1a
25
eb
fb
10
00
ea
f0
0a
f9
f8
07
02
25
ef
d0
0f
01
26
17
d8
11
d6
38
e4
05
20
f2
26
14
e3
ec
ce
e4
05
d6
11
10
0b
e7
dc
00
20
1b
02
d9
0d
06
f2
42
1c
20
16
0d
01
0d
ef
e0
11
05
e2
0a
f2
ef
eb
fc
c0
31
06
d3
0d
0b
e9
2f
eb
e3
ea
fb
c9
0d
ea
2a
00
fe
2e
20
f8
1d
02
d1
03
02
f1
fa
05
08
de
27
28
03
13
f8
d1
ec
dc
da
e8
b9
24
27
1d
0b
4c
ff
19
18
18
25
f3
2b
f4
f3
e7
dc
2b
de
2f
f6
08
fd
c6
0a
14
fe
d8
0d
c3
f4
0c
1a
14
30
18
12
22
37
fe
e7
23
e5
fb
06
37
e4
db
1a
11
0f
df
04
05
0d
42
f2
fc
ff
0a
2e
26
4f
ff
d9
00
fa
e6
eb
10
db
f8
12
ea
f6
ee
ed
01
01
11
f2
eb
11
d7
09
2a
09
11
f2
f2
f8
3e
13
d9
e9
f7
ee
c5
0f
06
11
f9
06
fe
d8
04
02
e7
04
fd
3a
1f
08
f1
2c
0e
21
0b
ea
05
0d
15
09
26
1d
fc
fc
fe
1c
20
de
ea
e9
c8
05
36
fd
0d
1b
16
d2
08
13
1d
08
24
05
ff
2b
2a
25
e2
14
0b
05
fd
17
18
f8
0b
fd
0d
13
e1
ea
2b
d6
2d
0d
09
09
1d
e3
ea
df
1d
db
3d
e1
0f
c4
1b
32
34
41
1f
fc
01
e4
e1
36
fe
07
49
01
fb
08
f2
06
20
06
1b
13
26
42
17
dc
2c
e7
1d
18
f9
02
f8
11
df
f0
be
06
0b
e5
07
f5
12
ee
0b
26
f0
e9
37
0c
07
09
03
ef
e7
25
c9
26
15
fe
ef
be
f5
15
22
03
fd
13
f2
c4
16
e8
e0
f8
11
e2
18
d7
28
f5
15
da
fa
c8
32
26
0a
2e
dc
1b
0d
ec
0e
f1
d8
d1
fe
00
01
0a
d0
33
09
d3
07
ec
23
49
ec
d7
d0
05
ce
f0
ea
0d
f3
cf
2d
ce
00
ff
cf
e5
ea
ed
0f
df
de
ec
18
f4
e4
f4
05
d1
ea
03
14
ec
10
b1
0a
e4
e8
f1
ec
31
fc
0e
0f
17
de
ff
13
fe
fd
e0
fa
10
3b
d3
ff
d5
2b
cd
47
4a
dd
ec
f2
19
f1
09
fb
0b
e4
02
ef
03
ec
f9
f4
e9
1a
18
d8
e5
e2
c8
10
2d
dc
01
e3
ed
f7
16
f1
08
ad
3d
23
09
0c
2f
ea
1b
f0
f6
fe
2d
b3
26
1f
de
04
03
1f
f6
0b
07
10
f1
0e
d4
1f
00
0a
0b
dc
34
f5
09
f5
29
f3
16
11
20
04
17
10
1c
05
10
19
f2
fb
f5
db
28
13
d6
00
1c
33
0c
0c
de
d5
03
2e
0b
c7
11
3c
09
f7
f8
f2
bd
fe
f9
e0
0a
de
ff
21
3d
27
0b
24
eb
04
f5
09
e9
df
d5
fc
05
02
e9
1d
df
ea
f0
1d
e0
fc
ec
3b
13
23
06
f2
06
f5
e6
05
00
00
00
00
00
00
00
00
00
00
00
00
00
00
00
00
00
00
00
00
00
00
00
00
00
00
00
00
00
00
00
00
00
00
00
00
00
00
00
00
00
00
00
00
00
00
00
00
00
00
00
00
00
00
00
00
00
00
00
00
00
00
00
00
00
00
00
00
00
00
00
00
00
00
00
00
00
00
00
00
00
00
00
00
00
00
00
00
00
00
00
00
00
00
00
00
00
00
00
00
00
00
00
00
00
00
00
00
00
00
00
00
00
00
00
00
00
00
00
00
00
00
00
00
00
00
00
00
00
00
00
00
00
00
00
00
00
00
00
00
00
00
00
00
00
00
00
00
00
00
00
00
00
00
00
00
00
00
00
00
00
00
00
00
00
00
00
00
00
00
00
00
00
00
00
00
00
00
00
00
00
00
00
00
00
00
00
00
00
00
00
00
00
00
00
00
00
00
00
00
00
00
00
00
00
00
00
00
00
00
00
00
00
00
00
00
00
00
00
00
00
00
00
00
00
00
00
00
00
00
00
00
00
00
00
00
00
00
00
00
