08
20
15
01
41
f8
db
df
bf
ef
3d
ed
f8
21
f5
1f
24
77
a0
11
05
d1
04
d7
c0
0b
45
e0
27
cf
d1
f4
c8
22
64
35
0a
ea
f7
ca
2a
10
02
10
ec
c3
69
e8
05
14
df
26
ed
fb
17
d3
b4
14
44
46
df
de
18
e2
0c
e8
10
45
de
eb
21
11
dd
dc
ee
2d
01
4a
f2
08
26
22
fe
0f
2b
fe
03
09
f3
b9
0b
fe
ce
e7
da
ee
0a
e9
d5
1c
36
29
e7
41
16
27
fe
f8
cc
da
fe
d2
2c
00
ce
1b
05
e1
06
cb
14
0d
e1
1c
4f
04
fb
02
