02
09
10
1f
ea
ea
08
d7
e5
18
0d
fc
f0
ec
d9
17
07
fe
f6
c6
1d
f3
fe
fc
0c
dd
f9
06
18
f6
06
30
1b
f7
cf
11
c8
03
06
00
01
32
d5
2a
e4
e5
f4
26
19
f4
be
ee
f6
f0
1d
f4
05
c8
04
21
08
21
17
08
ef
e9
13
fc
08
f2
0c
ff
06
e6
0f
0b
2b
ef
fd
15
2a
da
19
02
f4
06
28
12
f7
1a
ea
df
1e
c7
e2
fa
ce
ed
fd
f0
1a
20
24
0d
c3
fd
c7
dc
25
e0
e1
f7
01
f9
11
dc
18
f1
01
ea
30
11
2d
e1
1b
f0
05
01
06
15
e7
45
f9
d0
2e
c5
e1
02
03
fe
12
e4
c7
e7
0a
01
2b
fa
f3
df
15
0e
bb
b1
db
db
f2
f1
ca
28
14
e9
32
ce
d7
eb
ee
e7
26
34
ff
c5
f4
08
16
e7
45
b0
e6
f9
01
f0
f4
cc
06
d2
e7
dc
f8
da
e6
0e
1d
ee
19
fb
fa
1a
cc
f3
1b
46
32
12
e0
f6
00
e8
1c
34
ee
ff
c1
28
da
f4
39
02
eb
07
ba
f6
00
f4
31
34
0a
35
08
d7
0a
fa
19
e5
0f
16
e0
eb
f5
1a
0d
e8
ca
d7
fe
e7
cf
ea
f4
b6
1a
01
17
c6
0b
1b
00
cb
f7
05
fa
1c
23
f3
e0
15
e1
0c
f5
f3
f0
ff
07
ce
14
16
30
0f
2f
fd
1e
f9
f4
a6
11
07
01
19
e6
f5
1c
16
32
1d
e3
1f
0e
ef
f9
e1
11
1d
01
1b
db
e4
03
20
25
ff
fb
e8
e6
1f
0b
f3
1d
ee
ef
1a
ec
16
ef
01
ef
f9
1f
eb
ce
f6
f2
07
11
fe
21
1d
07
ef
41
18
0d
31
3a
10
f0
00
04
f0
f3
10
fe
f0
fe
12
d0
e0
20
20
db
03
f8
18
0e
1d
04
0c
d6
0b
23
fc
58
12
e8
00
e4
d9
e7
cd
fd
e7
23
02
f2
e1
f7
3f
f8
f5
e9
03
0f
f5
20
e8
17
ef
bf
e5
0a
ba
0d
0c
ee
29
11
e1
e7
06
d7
ed
d9
f2
06
e1
0e
eb
ff
18
fd
fd
00
15
ef
f5
bd
11
0a
15
eb
01
e3
fa
f8
ea
17
d9
09
f1
26
24
04
21
02
d6
12
1b
ff
f8
f6
35
fb
f5
ec
da
f0
e5
10
d1
e7
08
f4
ef
f5
e3
03
2b
fc
dd
33
f9
eb
18
2b
d4
f6
e1
14
f7
1b
20
31
fe
0e
0e
fe
ef
f7
fb
0b
0c
f9
e4
db
21
dd
46
1e
0a
e2
09
07
e6
23
0b
d0
07
f3
f8
f8
dc
f7
cf
18
f2
26
f9
00
1b
32
e7
0f
18
09
1f
fb
f8
f5
ff
1d
ed
f5
ee
f0
f1
00
ec
f8
04
0f
10
fc
01
0c
04
f6
cb
23
e2
09
09
e8
f7
f1
ef
02
c3
f3
10
02
f3
1d
f9
02
11
26
2f
c8
f5
f3
05
ff
df
d7
15
fa
f0
1b
f2
d4
0b
13
fa
30
0b
05
d0
32
13
33
04
cc
0b
e6
07
02
1e
e0
d6
ff
15
cc
ed
f0
04
dc
e1
d5
98
33
19
eb
13
f0
f8
e7
e3
eb
f4
11
d8
f1
fe
d8
e7
06
d8
4a
0c
9c
fc
fd
23
ee
e8
f2
27
0e
e3
e1
0f
f9
1b
d6
05
0f
d0
f8
cf
26
0c
0a
05
ee
1b
d1
ee
bf
07
ee
d4
05
fe
bc
ce
e0
ea
e4
ff
dc
e4
e6
17
2d
ab
ce
03
c6
fb
0d
e0
dd
da
3b
ba
00
ed
fc
f9
f9
f8
1b
4d
35
e3
0d
fc
21
18
26
33
fb
1c
dd
f6
11
22
0f
04
e6
25
05
0a
3f
15
9d
36
24
ea
f6
1a
f1
ea
02
26
0e
e5
06
31
33
dc
c7
f9
01
f7
f7
0e
f0
fa
f3
19
1f
0d
0c
d6
00
f7
05
fc
0e
db
e2
29
12
1f
bf
14
c8
15
0a
09
01
1d
d7
07
ec
00
f2
d5
21
04
f8
07
1d
0a
d1
fe
14
20
23
03
18
19
20
eb
00
00
00
00
00
00
00
00
00
00
00
00
00
00
00
00
00
00
00
00
00
00
00
00
00
00
00
00
00
00
00
00
00
00
00
00
00
00
00
00
00
00
00
00
00
00
00
00
00
00
00
00
00
00
00
00
00
00
00
00
00
00
00
00
00
00
00
00
00
00
00
00
00
00
00
00
00
00
00
00
00
00
00
00
00
00
00
00
00
00
00
00
00
00
00
00
00
00
00
00
00
00
00
00
00
00
00
00
00
00
00
00
00
00
00
00
00
00
00
00
00
00
00
00
00
00
00
00
00
00
00
00
00
00
00
00
00
00
00
00
00
00
00
00
00
00
00
00
00
00
00
00
00
00
00
00
00
00
00
00
00
00
00
00
00
00
00
00
00
00
00
00
00
00
00
00
00
00
00
00
00
00
00
00
00
00
00
00
00
00
00
00
00
00
00
00
00
00
00
00
00
00
00
00
00
00
00
00
00
00
00
00
00
00
00
00
00
00
00
00
00
00
00
00
00
00
00
00
00
00
00
00
00
00
00
00
00
00
00
00
