f3
11
1f
fc
26
fa
0e
1a
08
a8
32
18
29
e9
19
e2
12
df
f9
e8
13
07
ed
04
d6
fb
c4
0f
18
23
2f
f3
f3
29
17
ff
16
00
e8
c8
20
ed
00
11
00
07
fe
ed
19
f7
fe
e0
16
15
e2
ed
f0
37
fa
1b
1c
ef
2c
14
02
f4
e4
f7
e8
3a
df
e9
c3
d6
03
cf
f1
0e
e5
13
f7
05
04
ee
fc
e6
2f
fd
20
0f
f0
21
22
e6
d5
26
c6
11
fd
00
fa
ee
d4
17
0e
19
b5
1e
1c
c3
0c
fb
d6
fc
11
e1
28
17
f2
23
15
f1
3d
0c
12
28
20
3a
04
15
fd
f5
31
fa
00
28
fb
1c
fb
ee
09
ff
15
20
e1
3a
df
20
04
e1
3e
13
34
06
01
32
ec
51
15
07
f8
e1
05
18
fb
ea
28
c2
f2
16
fb
f6
db
16
30
df
09
28
09
28
05
1f
19
0c
0a
f6
0a
dc
06
15
15
e4
f0
0b
da
f9
f5
fc
ff
f0
2a
18
e7
e6
f4
1b
1e
0a
04
08
ff
20
ef
15
f6
e6
07
ee
f2
d7
e3
01
f3
07
dc
18
14
0c
02
02
fb
ee
eb
cb
e4
02
06
1b
1e
17
ea
11
0f
d5
ec
e7
fd
dc
0f
c4
e4
e1
fb
0d
1d
00
03
de
1c
07
01
e8
02
f7
dc
f8
cc
25
06
0b
01
1c
f5
ff
cf
e3
ea
c3
f5
f6
f8
ff
ff
f0
2e
fb
ec
25
b8
04
ce
1c
fe
f0
d2
d0
e9
df
f5
e0
ff
fb
09
0e
1e
cb
17
f2
eb
16
08
17
02
2b
f1
dd
10
fd
09
11
d7
01
fd
f6
f7
13
f2
e7
eb
e5
f8
d6
0a
27
07
25
15
1e
31
f8
ea
1f
1f
d4
e9
e5
c1
2c
00
ee
f5
f8
1d
e3
24
f6
18
03
0b
cc
fe
48
59
b4
fc
fe
ed
e8
2d
1e
15
e7
02
fd
3c
02
ea
29
f6
f0
d7
e2
0e
22
ec
10
e6
21
fb
11
12
22
f8
0f
1b
11
04
ff
0c
fc
eb
0f
23
f6
1d
cc
10
f7
fc
22
2d
ea
0f
e1
df
ff
c4
b8
00
1d
e6
e7
15
fe
03
e2
15
1a
07
e6
e6
0c
cf
e8
12
fe
07
d9
08
ee
d3
12
ea
f3
0a
e8
cf
24
df
ec
ef
f5
f3
ff
3c
eb
18
07
23
2b
23
14
00
09
d9
28
f2
1b
26
16
f4
0c
29
3c
36
d8
08
41
05
2f
ff
2c
16
0a
ef
12
2f
d8
ee
26
0a
fc
02
e3
21
17
f6
03
f3
ee
1d
e6
bf
cb
f9
02
25
2e
18
fe
f6
14
29
12
ff
f1
df
27
01
30
fe
08
fc
de
14
fa
f9
16
eb
3f
e9
1c
f0
e0
cd
f9
23
00
0b
15
12
18
30
f6
f0
06
2d
fa
29
05
1c
1c
fb
ee
de
2c
1e
25
17
2c
04
16
e3
e3
21
f6
d7
ed
09
1e
e7
1d
ef
dd
ea
ed
2a
02
0b
20
1a
fc
f5
18
fb
de
ef
e2
fc
fb
40
ed
0a
f7
1f
e7
05
1f
ec
fb
04
f3
ec
41
0e
05
29
02
fc
12
ef
fb
f3
ef
00
e5
ef
37
e8
3d
32
e6
05
23
d8
09
e2
21
d0
15
08
c2
f4
fd
22
ce
10
fa
f4
06
ff
eb
cf
39
3a
fb
be
27
22
f8
f3
27
2e
2e
f1
c2
28
16
ea
f4
06
1d
e7
eb
0e
2a
f7
d3
38
e1
ff
fb
14
cb
15
d7
0e
f7
f1
ec
e9
33
ea
d7
05
11
dd
eb
0c
06
ed
e9
ff
ef
fe
17
ad
13
d2
da
25
18
15
fd
e5
ff
f4
f6
ec
44
f5
fb
00
e1
f8
ea
dc
f3
d4
32
f6
ee
ed
f4
2e
29
f1
22
ea
0a
12
08
1d
fb
e7
f3
f2
05
ec
2b
d6
23
0b
f6
25
ee
1c
1c
f2
ff
07
e4
16
07
fc
08
15
11
f0
dd
04
10
d8
12
ff
39
12
e8
eb
e7
fe
22
dc
15
06
f1
fe
07
2a
d9
35
12
06
00
00
00
00
00
00
00
00
00
00
00
00
00
00
00
00
00
00
00
00
00
00
00
00
00
00
00
00
00
00
00
00
00
00
00
00
00
00
00
00
00
00
00
00
00
00
00
00
00
00
00
00
00
00
00
00
00
00
00
00
00
00
00
00
00
00
00
00
00
00
00
00
00
00
00
00
00
00
00
00
00
00
00
00
00
00
00
00
00
00
00
00
00
00
00
00
00
00
00
00
00
00
00
00
00
00
00
00
00
00
00
00
00
00
00
00
00
00
00
00
00
00
00
00
00
00
00
00
00
00
00
00
00
00
00
00
00
00
00
00
00
00
00
00
00
00
00
00
00
00
00
00
00
00
00
00
00
00
00
00
00
00
00
00
00
00
00
00
00
00
00
00
00
00
00
00
00
00
00
00
00
00
00
00
00
00
00
00
00
00
00
00
00
00
00
00
00
00
00
00
00
00
00
00
00
00
00
00
00
00
00
00
00
00
00
00
00
00
00
00
00
00
00
00
00
00
00
00
00
00
00
00
00
00
00
00
00
00
00
00
00
