e5
f5
df
fa
f7
21
e1
32
fe
b9
0b
f7
17
1d
df
14
04
f0
43
0d
f3
00
14
15
f1
13
3a
fc
06
ff
16
d8
04
04
e7
31
1a
df
e5
17
d5
f8
ef
fb
f9
31
f5
e5
19
fd
5a
ff
05
cc
09
ee
c2
1f
05
e2
ee
2d
1f
0e
14
f6
0f
fd
1e
dd
f7
06
29
0d
29
07
0d
20
b8
fe
ce
0b
fa
e7
df
f1
19
f3
f2
d5
27
0c
d8
dc
15
e5
0e
0c
ef
2e
e6
02
dc
00
f8
1c
0f
d7
2a
03
12
10
d2
fa
cf
e4
24
06
c7
d1
eb
e3
2b
d0
2b
fa
dd
04
28
fb
e7
cc
18
ed
f2
eb
11
03
e0
06
02
45
3a
e7
02
1b
09
ea
f4
d7
ce
1b
fd
09
f8
0b
ff
15
18
0b
ef
20
f9
15
ef
f5
0d
e3
10
ff
01
d4
0f
f5
0c
1d
f9
e1
eb
e1
05
1d
12
0b
0c
0b
1b
ed
10
56
04
0d
04
f1
18
16
57
2e
e6
e6
1c
19
ec
1f
07
29
e2
f4
07
ef
1e
18
0a
ff
e6
00
f1
f0
49
ee
0d
3e
e1
24
0e
3c
29
1b
0c
02
14
d1
f0
24
ef
08
e8
ea
cc
32
01
09
1e
2e
e2
49
20
ee
fb
25
00
dd
e4
f9
18
08
2d
36
21
37
13
fd
00
1b
31
f7
e1
22
09
08
e6
18
09
c4
cc
f0
fe
22
2b
f7
e3
fe
05
d9
1c
06
0b
d9
fe
f0
0f
07
1b
19
f3
cb
45
ea
f4
08
ee
ea
36
06
17
f1
d6
cc
f5
e7
e0
f1
13
2f
f1
19
e3
e9
e8
f7
e3
f4
d1
1c
ed
f0
d9
26
ed
e7
05
ca
36
20
f0
01
e5
08
05
20
e0
e8
2b
d3
26
21
ff
22
d1
e2
03
ee
f5
ff
06
df
14
00
d8
20
18
0b
1a
eb
e9
b3
fc
0b
36
c1
fa
c5
1d
31
f2
19
ff
f4
13
0b
f2
19
b3
eb
d9
05
e3
f5
f3
f9
fa
28
06
1d
10
d3
db
15
1a
07
fb
cb
fa
08
1c
ef
da
e3
34
eb
dc
f8
c0
2e
e1
1a
d0
c0
53
e0
15
cb
f5
e7
cf
0c
e6
35
04
f5
18
08
e2
27
24
f8
ed
1e
07
ec
0e
02
04
e3
03
dd
e4
0d
05
f2
de
f4
e4
e7
12
1c
fd
27
1c
04
14
20
17
21
37
01
fe
fc
2a
1c
ec
ec
02
0f
e8
2f
e8
ff
e8
1d
f3
fb
cd
f8
cb
28
d5
ec
dd
2d
10
0b
1b
0c
14
0a
b6
02
19
d3
01
1e
e6
17
2c
f9
f9
e5
e9
e0
22
ea
e4
ea
16
ed
00
00
ca
dd
f8
ef
0b
e0
00
1e
d1
31
18
ff
29
18
ea
e9
0d
e5
ed
02
d3
01
ec
01
e4
f5
f7
02
22
0e
2a
d9
ea
f4
fa
ff
0c
16
db
f6
dc
d7
29
fc
ea
13
f7
fa
e2
0b
ed
df
07
e3
d2
ee
10
05
d4
ce
0d
13
02
c8
10
30
0a
0e
0d
1d
d0
e9
ef
01
0b
df
03
e8
08
fb
09
f5
04
23
0a
eb
d3
f0
0e
03
e2
ce
28
df
fa
d1
06
19
f3
1a
e5
e4
ff
08
ee
0d
25
10
fb
00
2d
26
fe
c9
f6
02
ef
f3
e8
ec
20
03
21
e2
11
33
16
23
00
1c
05
08
28
04
eb
eb
15
db
24
e6
02
12
f8
e0
18
30
ec
e4
f2
db
e0
ee
06
ff
f5
12
ed
14
03
d1
f9
f1
ea
0c
f9
d6
16
df
15
01
0d
01
f1
fa
fb
eb
34
0e
f8
f9
00
f0
ee
fb
1b
f5
42
f1
1e
3a
06
19
0d
25
c0
17
1d
d5
0b
d8
2d
dd
08
fd
f9
0a
e9
ef
ee
f7
14
1d
13
fd
18
c9
15
e5
0b
ee
fb
06
02
e6
13
01
f5
24
e7
f8
0e
f6
f5
f1
dc
12
ed
34
07
fa
0e
ee
1c
c5
dc
30
fb
36
09
ee
d3
b7
06
f9
17
17
11
da
fd
ec
01
25
03
14
0b
f6
00
00
00
00
00
00
00
00
00
00
00
00
00
00
00
00
00
00
00
00
00
00
00
00
00
00
00
00
00
00
00
00
00
00
00
00
00
00
00
00
00
00
00
00
00
00
00
00
00
00
00
00
00
00
00
00
00
00
00
00
00
00
00
00
00
00
00
00
00
00
00
00
00
00
00
00
00
00
00
00
00
00
00
00
00
00
00
00
00
00
00
00
00
00
00
00
00
00
00
00
00
00
00
00
00
00
00
00
00
00
00
00
00
00
00
00
00
00
00
00
00
00
00
00
00
00
00
00
00
00
00
00
00
00
00
00
00
00
00
00
00
00
00
00
00
00
00
00
00
00
00
00
00
00
00
00
00
00
00
00
00
00
00
00
00
00
00
00
00
00
00
00
00
00
00
00
00
00
00
00
00
00
00
00
00
00
00
00
00
00
00
00
00
00
00
00
00
00
00
00
00
00
00
00
00
00
00
00
00
00
00
00
00
00
00
00
00
00
00
00
00
00
00
00
00
00
00
00
00
00
00
00
00
00
00
00
00
00
00
00
