0a
12
14
1a
34
09
ea
f8
33
2b
0a
00
f8
32
e7
3f
ba
ee
0c
2a
00
da
f2
f1
1a
cd
13
f0
f2
0d
04
17
1d
e1
f8
f7
d5
da
27
f6
d2
20
f1
fe
b6
ee
fd
f8
fb
e8
f1
27
f0
e1
3d
f0
c2
fc
09
ee
10
d8
f3
06
ed
0a
0c
01
fe
49
2b
fa
28
ea
0d
fa
d6
e7
d7
26
11
01
ee
0a
01
19
fa
0c
e4
d7
03
e6
14
d7
ef
02
e5
0a
ef
fb
db
f5
09
f5
17
22
c4
27
1a
3f
27
f8
52
00
d2
d3
f2
d8
0f
f9
da
dd
da
04
d3
16
2f
ef
ed
f5
05
15
09
01
f9
27
02
04
f2
23
d5
e8
e1
0f
22
0f
fd
f7
e7
0d
14
22
26
ff
0c
f7
fe
f0
da
f2
ef
d8
f2
e5
f5
01
00
38
1e
01
11
13
19
d8
0c
12
19
e9
0d
d8
e7
28
fe
0a
1a
c8
e3
fa
f6
f0
cd
e2
0d
de
f8
ea
0e
0f
30
0f
05
01
f3
f5
ff
e1
f1
c2
c6
f5
e1
03
0e
18
eb
2a
d9
03
ff
f4
ce
1e
28
35
e7
df
06
fd
0c
f5
f1
02
08
06
0b
fd
01
da
a3
f5
c9
28
d3
fa
13
03
27
e3
f3
fd
36
06
f8
bc
f8
28
f2
2a
01
ed
e0
04
30
07
d3
f6
e3
fb
ff
13
ef
fc
0a
e1
d3
01
2e
ea
f5
ea
f9
ea
2a
f9
08
cb
f7
04
02
e6
e6
ff
f8
cc
f2
29
ed
03
12
ff
2e
09
dd
02
0b
0e
09
26
ef
0d
11
fa
fb
03
f4
ff
f1
fc
ec
ea
22
0e
f4
ad
2a
15
01
15
f0
fd
d9
f9
ee
fa
14
dd
eb
c5
2a
e4
f6
19
02
e3
de
f5
07
0e
19
dc
1a
df
12
ee
ed
f6
ea
31
ce
00
0a
e0
fa
0b
d1
06
0f
07
cd
fd
e5
3e
c6
08
f4
07
e8
f7
14
30
dd
ea
33
ea
0c
ff
df
ea
eb
06
c3
c8
ef
fd
06
20
ef
07
03
2e
40
05
fb
e9
05
0e
04
e9
06
05
fb
c6
ce
06
00
0c
ef
e6
d2
04
01
e3
ba
f2
01
1e
01
d3
e1
02
09
18
e1
0e
e3
f7
f2
be
08
19
03
f5
f2
fe
c6
ec
ec
ea
3b
0a
fa
eb
1b
f0
09
13
e6
d7
2d
11
e5
02
fb
03
0a
3b
1d
24
e4
00
17
f7
ea
d2
d7
f5
df
24
0c
ed
ca
e8
01
02
fc
12
d8
25
fe
05
27
13
05
ee
ee
c6
03
f4
ef
06
eb
07
fd
df
f2
f0
fe
e9
1f
f2
d4
25
cd
0f
df
05
e3
2e
e3
0e
d5
38
df
d3
ea
24
28
ee
c5
c8
23
1e
d9
ef
da
e2
19
e0
2b
c3
ed
04
0d
d4
fc
e8
ff
eb
ed
06
09
ec
1e
0a
06
de
f5
b2
37
17
f9
f2
e3
2e
17
ea
dc
e8
03
e3
09
fe
f0
ea
ef
44
f0
f6
2e
30
ef
df
fd
f2
02
ef
fd
ff
37
ff
fe
0a
d5
08
ea
29
d2
df
11
2b
0a
28
3a
26
c7
fb
f7
da
3b
e5
0a
e3
f2
e6
17
0b
00
e5
fd
d3
d9
2c
d1
ef
22
24
fe
c1
03
f8
11
3e
da
01
04
ef
d4
de
ea
00
0c
16
fe
2a
e2
c8
2f
ff
0d
fd
15
09
05
d9
f7
d9
00
e5
e9
f9
d2
f8
fc
ed
f2
49
04
26
ff
0d
08
0a
fd
1a
01
00
18
f5
fb
e1
0e
1b
00
e4
f5
12
fa
b3
1f
e0
fc
f6
f8
c6
eb
16
10
cf
ff
06
f5
d8
3d
f5
e1
14
e3
e7
d9
fa
06
0a
02
1e
06
fd
19
08
b1
12
17
f4
16
ef
10
ff
f8
42
1f
e9
3a
0a
17
f0
23
06
fc
0c
d7
0c
16
22
10
17
09
00
28
02
ef
0c
00
22
ee
f4
10
00
fa
de
f5
14
f0
dd
d2
20
fa
07
e9
ee
29
f8
13
ea
f2
e9
08
e8
0a
d1
00
fc
ef
d6
df
fc
00
00
00
00
00
00
00
00
00
00
00
00
00
00
00
00
00
00
00
00
00
00
00
00
00
00
00
00
00
00
00
00
00
00
00
00
00
00
00
00
00
00
00
00
00
00
00
00
00
00
00
00
00
00
00
00
00
00
00
00
00
00
00
00
00
00
00
00
00
00
00
00
00
00
00
00
00
00
00
00
00
00
00
00
00
00
00
00
00
00
00
00
00
00
00
00
00
00
00
00
00
00
00
00
00
00
00
00
00
00
00
00
00
00
00
00
00
00
00
00
00
00
00
00
00
00
00
00
00
00
00
00
00
00
00
00
00
00
00
00
00
00
00
00
00
00
00
00
00
00
00
00
00
00
00
00
00
00
00
00
00
00
00
00
00
00
00
00
00
00
00
00
00
00
00
00
00
00
00
00
00
00
00
00
00
00
00
00
00
00
00
00
00
00
00
00
00
00
00
00
00
00
00
00
00
00
00
00
00
00
00
00
00
00
00
00
00
00
00
00
00
00
00
00
00
00
00
00
00
00
00
00
00
00
00
00
00
00
00
00
