26
14
1b
f0
cc
f6
20
20
e6
aa
29
0f
cf
28
e6
26
24
2c
24
e2
09
32
14
21
0d
0a
d7
0b
f7
f4
11
e9
11
67
0b
13
ff
0a
1b
2d
e4
61
fd
d6
11
0d
16
f4
2b
2e
a7
d0
ed
0e
00
22
0f
0b
ea
e3
21
18
db
1d
33
56
11
e9
e3
f6
0e
d9
29
40
f6
0f
06
ea
0a
08
f5
f8
f1
20
2a
ec
5e
05
20
f5
0e
15
f9
ee
3e
40
06
10
30
fe
01
e6
f4
37
fd
c7
c7
f9
2f
01
21
e0
fe
f5
02
ec
0a
00
e5
e1
c6
06
d5
29
2b
ea
bb
f8
