01
3a
ce
34
fb
dd
20
f4
d1
0b
1e
08
d4
fa
46
fd
f2
19
e9
f0
ee
f0
27
e6
2d
f4
0d
ed
24
22
f9
11
d4
13
05
ea
29
f2
24
df
0a
f2
dd
fc
ed
05
e8
ec
f4
07
28
f6
13
f3
25
fc
fd
30
0e
e8
17
27
1e
1a
e6
e2
2d
0f
f1
fb
22
db
19
09
17
ed
12
e8
12
fa
01
11
3d
f3
0d
06
17
e3
12
03
30
e3
0d
ce
e4
38
ea
ff
e2
f4
29
01
c1
f5
11
02
e5
e5
cf
0e
38
f1
ec
ee
e6
da
0c
28
1a
35
1e
1a
2a
ae
ea
dd
03
df
d1
a4
04
03
d4
d9
01
02
18
00
dc
07
11
fa
0d
00
01
ab
0b
24
f3
e4
05
ff
e8
f5
d2
0d
ff
0c
10
f0
ec
0b
26
d4
da
fb
f4
26
ea
2b
0b
16
0d
f7
1e
01
e1
f2
09
fb
e4
f9
cc
00
df
e9
ee
d0
17
03
e7
27
38
0a
29
0d
f3
f5
f6
08
1e
c7
d4
10
ff
e8
21
0b
04
d7
f2
e5
e1
e1
e7
1b
fa
15
f9
eb
17
1a
f3
49
e3
03
01
ff
2a
e7
f3
d3
0c
21
ef
eb
f9
22
ed
db
27
e8
2f
f6
ea
e2
07
e3
dd
ec
09
f3
f9
00
05
09
02
f3
0e
a7
fe
d9
38
ce
e1
e7
d5
e6
e8
ff
e3
07
de
f0
f8
2d
dc
f9
ea
ef
ed
ec
ea
d5
f5
f8
14
08
e9
08
f8
ff
08
df
e2
03
c3
12
06
d6
f3
09
0d
3f
dd
f3
ea
3b
e4
f9
da
cd
14
f6
04
1c
17
e5
2b
fb
06
06
fb
0d
2d
f7
1a
23
2e
ce
cb
06
13
34
1a
16
3c
ea
f1
20
15
fa
37
fb
e9
0e
2f
20
f7
ca
e3
13
0f
d1
ff
09
fb
f9
0b
11
f5
1f
05
e6
0e
fc
0f
0c
1f
0b
d8
ff
02
12
fc
2d
0c
f2
10
ed
25
fc
19
2b
35
f7
08
ce
0c
03
ea
f0
2a
14
f7
07
1a
ea
0c
1d
0b
10
19
63
09
03
1b
30
2f
f9
31
e5
1b
0a
f4
be
e9
ed
fe
0d
f5
cc
07
2a
ee
e7
03
f2
1c
04
3a
fd
28
33
21
2a
26
18
32
1c
e8
f9
10
f2
48
0d
17
b6
2d
da
ec
da
f3
0d
fb
49
18
17
01
fa
09
d2
e7
0e
0c
0a
30
f1
0b
0c
e2
15
fa
16
bd
05
14
16
25
e8
28
07
23
ec
ca
23
1d
15
0e
2a
22
f4
0d
12
eb
cd
e4
d2
06
30
e0
cb
21
1a
16
06
ed
fd
ee
f4
0e
f8
01
d1
29
0e
fb
22
dc
4c
3d
1a
fb
27
f1
00
f2
05
00
e5
fc
e3
2f
0b
0c
00
db
e1
d9
e4
bd
bd
f4
0d
e0
18
27
ec
d4
0f
dd
06
05
00
08
0c
11
1e
f9
27
f6
1b
db
de
13
2b
09
02
d5
ed
e3
d6
05
08
f4
f0
1c
15
d9
e4
ff
e7
22
fc
2b
28
08
c8
18
de
0f
fa
10
df
e8
f1
e9
0b
24
14
cf
f9
ee
f7
0a
ee
20
10
34
e7
02
0a
1e
fe
1a
ea
15
e3
c5
34
06
f7
00
ad
1f
f6
c1
e9
f0
c9
09
19
f4
12
2b
ec
1b
be
35
0f
11
de
fb
29
31
1b
d6
0c
04
ef
02
f3
b9
eb
f4
e0
f8
16
dc
c8
f0
d9
d8
d2
e4
d7
ed
24
d6
d0
26
cc
c5
f4
1a
fa
de
0f
e9
f8
fb
e6
22
0d
05
d3
f0
cd
d0
03
2e
02
ff
e0
0b
09
1c
15
ea
f9
f2
0f
19
01
f3
03
dc
e9
0f
02
eb
18
de
f0
ed
df
e2
c3
04
f8
07
ee
fb
1e
06
0d
1f
f0
32
0f
0f
ff
16
d2
ee
02
30
03
08
f6
e3
f2
e7
df
e7
ce
f9
ee
d9
2b
0b
04
10
e9
f8
1e
1c
ec
1d
f4
dd
f7
ca
3e
d2
20
fc
0e
ec
1b
fa
eb
22
08
c3
11
16
cf
fb
35
c0
30
fd
2c
00
00
00
00
00
00
00
00
00
00
00
00
00
00
00
00
00
00
00
00
00
00
00
00
00
00
00
00
00
00
00
00
00
00
00
00
00
00
00
00
00
00
00
00
00
00
00
00
00
00
00
00
00
00
00
00
00
00
00
00
00
00
00
00
00
00
00
00
00
00
00
00
00
00
00
00
00
00
00
00
00
00
00
00
00
00
00
00
00
00
00
00
00
00
00
00
00
00
00
00
00
00
00
00
00
00
00
00
00
00
00
00
00
00
00
00
00
00
00
00
00
00
00
00
00
00
00
00
00
00
00
00
00
00
00
00
00
00
00
00
00
00
00
00
00
00
00
00
00
00
00
00
00
00
00
00
00
00
00
00
00
00
00
00
00
00
00
00
00
00
00
00
00
00
00
00
00
00
00
00
00
00
00
00
00
00
00
00
00
00
00
00
00
00
00
00
00
00
00
00
00
00
00
00
00
00
00
00
00
00
00
00
00
00
00
00
00
00
00
00
00
00
00
00
00
00
00
00
00
00
00
00
00
00
00
00
00
00
00
00
