d2
08
10
1b
00
33
f8
0d
08
eb
ee
30
08
1a
ee
db
12
34
f2
08
3b
0a
10
f9
b3
0e
ed
f4
d6
25
ed
f0
06
15
01
e7
f4
12
f4
e0
d0
d9
ff
f8
f9
0b
c6
1a
da
ff
0c
df
f3
14
e6
05
ff
2c
05
00
16
ea
fd
ca
2c
fd
04
04
02
e1
16
10
fa
d2
ad
e9
00
fa
27
00
eb
0c
c7
d1
fe
19
17
f7
e0
16
08
ed
f8
31
23
e0
04
b4
f5
f2
e0
f2
e1
e2
54
f9
27
ff
14
0d
2b
e9
ff
08
c6
01
14
f3
01
f6
0f
0f
15
d9
f8
cd
f0
1d
15
24
e4
bb
1c
fb
04
4e
21
0b
06
06
02
f1
f8
10
eb
ea
ef
0e
f8
b7
c9
f2
fd
0e
29
dd
51
25
41
24
1b
f7
fc
ce
20
d4
e9
d2
04
d2
00
e1
23
1e
e6
3c
c0
1f
ed
df
02
34
23
19
f3
01
e9
15
13
22
fe
06
22
98
cb
c3
12
01
d1
fa
18
db
17
31
e5
04
d1
f6
eb
0c
f0
1f
18
de
e1
b6
be
f5
1a
28
17
14
02
db
02
af
d8
02
23
1f
29
ed
0c
cf
d6
f4
23
d8
ff
f2
c4
19
16
f7
eb
de
e1
1a
d7
e6
ef
09
f2
eb
f2
11
30
f3
ee
01
ed
04
f6
f4
09
21
3f
29
e9
f0
03
f2
b5
d8
01
fa
ee
10
f1
2f
20
3f
07
25
f1
9e
2a
08
08
00
0a
dc
3b
c3
13
f6
f9
09
cf
fc
31
20
fc
f0
d6
3c
02
e3
f8
08
08
ec
e8
07
3a
02
f1
f2
d4
e3
19
17
f3
d9
29
e1
0a
ef
10
d6
34
04
da
ab
05
cf
18
14
e3
01
06
f6
ec
ee
17
03
2f
0e
09
28
5d
ef
f7
29
f1
fb
db
01
e8
08
fb
0f
dd
28
0f
09
1c
50
0b
29
17
03
e6
05
17
13
cc
ed
19
e8
ec
f1
fa
d7
3a
f8
29
14
0f
09
f5
29
e6
de
ec
0c
26
0f
1d
0c
1e
08
e9
d7
f3
1b
e2
12
13
e3
0b
f7
16
00
be
ce
45
fe
1d
2a
fa
23
fe
dc
32
da
1f
f8
0d
eb
02
34
e2
0d
fd
17
28
ff
2b
f0
31
0d
08
f0
09
06
09
f9
01
16
11
df
06
c4
e5
00
f7
fe
00
09
da
30
35
f0
f2
f7
e5
fd
05
e7
02
03
0a
f0
c5
f9
e0
ef
09
29
18
2d
d5
27
32
26
0d
e9
02
0c
20
19
ee
0c
0f
0e
da
cd
f5
fe
d0
22
fe
00
f8
21
1b
f7
04
fb
0b
fd
06
f6
f0
08
d6
0e
18
1b
ea
e2
fc
eb
f7
e8
e4
fb
ea
e6
2f
28
e2
07
ec
0c
11
2c
0a
d6
fc
f9
e6
02
e9
0a
f0
fc
1f
d9
fb
21
ef
21
e4
ff
e8
28
c6
db
1c
f4
dd
e3
0d
ed
fd
ee
bf
13
f2
de
c5
1b
0b
ed
1e
11
f6
08
c9
13
24
f9
e2
ce
f2
fd
1a
07
09
39
34
e9
18
24
fb
17
02
c8
11
19
f2
ba
14
39
28
02
fd
ff
0d
13
ef
d9
f6
ff
fc
e6
10
07
dc
22
cf
f9
0a
03
0d
00
11
07
ff
04
fd
1f
e6
d1
40
ea
14
07
e1
cb
13
31
17
ed
25
0a
04
d3
fa
22
f8
1d
1a
fd
21
37
e0
00
f8
d8
c9
c2
19
33
0d
f9
e6
ec
ed
da
f7
07
01
d6
12
d3
f4
05
e9
db
cf
f3
fa
de
e7
25
f7
f1
36
1a
f4
03
e1
07
11
ff
e6
19
d3
0a
d8
da
c4
07
34
fe
21
f3
f3
00
01
d5
da
e7
ed
e3
fd
00
fa
00
f5
12
e4
10
ff
0d
fe
22
f5
34
fa
ee
2b
f1
e7
c2
eb
fc
f1
23
33
fc
e5
f8
16
20
1b
0d
22
f7
cc
23
d4
21
1a
ce
1a
ff
23
05
dd
f2
03
df
b6
3b
e0
fa
f5
ea
1f
0e
f8
ef
e6
ca
e3
05
21
fb
f6
e3
00
00
00
00
00
00
00
00
00
00
00
00
00
00
00
00
00
00
00
00
00
00
00
00
00
00
00
00
00
00
00
00
00
00
00
00
00
00
00
00
00
00
00
00
00
00
00
00
00
00
00
00
00
00
00
00
00
00
00
00
00
00
00
00
00
00
00
00
00
00
00
00
00
00
00
00
00
00
00
00
00
00
00
00
00
00
00
00
00
00
00
00
00
00
00
00
00
00
00
00
00
00
00
00
00
00
00
00
00
00
00
00
00
00
00
00
00
00
00
00
00
00
00
00
00
00
00
00
00
00
00
00
00
00
00
00
00
00
00
00
00
00
00
00
00
00
00
00
00
00
00
00
00
00
00
00
00
00
00
00
00
00
00
00
00
00
00
00
00
00
00
00
00
00
00
00
00
00
00
00
00
00
00
00
00
00
00
00
00
00
00
00
00
00
00
00
00
00
00
00
00
00
00
00
00
00
00
00
00
00
00
00
00
00
00
00
00
00
00
00
00
00
00
00
00
00
00
00
00
00
00
00
00
00
00
00
00
00
00
00
