1a
f8
03
26
16
00
fe
1a
bb
ea
00
e4
0e
f3
f8
f3
15
34
09
fb
68
0b
11
ee
1b
e3
d2
09
03
d8
13
19
f5
f1
08
13
fe
f6
1a
0a
ec
cd
08
3b
43
13
09
05
f6
09
01
f4
f3
0e
05
4a
1a
1e
12
f5
d5
e4
06
26
ec
f8
07
3e
f7
ee
22
12
03
09
cd
eb
11
13
1a
fa
f4
ec
b2
06
f3
3d
ed
16
fe
19
14
11
00
cd
e4
ca
ea
0d
0d
fe
e2
e7
19
21
02
ff
0b
04
0c
fe
12
19
fb
0a
ed
34
08
f5
ff
de
ff
f2
12
08
21
09
f1
dc
df
0a
f2
16
16
2b
ce
31
f9
e8
ea
f4
11
fa
14
e4
fc
f2
0c
e4
04
0e
f9
fb
d3
2b
16
bb
1b
e1
1c
ef
fd
07
e3
19
31
08
f0
07
f2
02
d3
11
e6
ea
ed
ef
0e
fc
e5
1f
21
09
fb
d2
ff
f1
eb
f3
00
08
d2
fe
eb
17
16
26
ff
fd
07
1e
00
04
ff
db
09
ef
ff
02
1d
05
c7
16
df
f7
d2
04
1b
09
25
df
26
15
13
f4
06
11
e4
12
23
da
2f
1d
f3
fe
02
ec
db
cc
d0
e2
05
ed
f5
e1
e1
de
cf
f1
fd
e1
0b
ec
de
cf
2b
36
cc
ce
0e
d4
f0
02
db
fc
db
e8
d1
0c
eb
e9
ec
f0
ec
c9
ea
fd
1c
0f
b0
07
03
d5
e1
ec
06
0b
11
09
02
23
3a
1f
0b
f4
44
f8
17
da
b3
25
dc
ec
db
df
fa
07
e0
f7
11
cb
f0
e8
25
e5
2f
18
e0
e1
e9
21
fa
eb
a7
fe
36
e8
1d
5b
f6
dc
14
f9
e5
28
31
ec
0c
eb
fc
e9
f5
c8
38
33
eb
19
04
ef
fb
11
12
24
03
fb
2c
f3
00
23
14
11
ef
d7
2b
23
f8
0c
1b
0a
c3
e0
e6
49
26
fa
03
02
ef
ea
06
ec
f6
02
d7
fb
21
15
e0
55
e3
fe
3f
cc
ea
06
20
03
fa
f3
0a
fa
d6
30
0a
be
cf
07
16
f7
1d
13
14
00
e1
c4
2f
db
f1
e1
23
07
23
2a
29
31
ea
f3
d2
e7
fb
f5
ea
fb
e5
db
15
dd
fd
e7
0e
0b
00
23
ed
f6
23
12
fd
13
fa
dc
0e
00
1a
0d
00
09
f0
e1
42
f4
07
25
0f
fe
03
06
07
00
e1
1b
09
29
08
10
29
eb
05
05
1b
05
0a
23
f3
c9
02
0a
f9
13
06
fd
08
f6
00
e8
c0
e2
0a
ff
12
22
0c
01
09
dd
05
15
f2
0a
13
1a
ee
f7
d5
21
04
0f
0c
2f
1a
0f
0a
f3
f6
11
16
08
fd
f7
f8
06
07
fd
23
14
1e
e3
03
07
38
21
05
d9
08
1e
10
f3
f2
00
eb
13
de
fc
21
10
09
19
ee
06
1b
e1
18
20
16
16
28
f3
e4
19
02
fb
23
15
11
0c
49
03
39
0e
0f
00
db
fc
e4
32
f2
ea
f9
18
09
21
4a
ec
e9
16
1b
0e
fb
fa
e6
26
31
c2
dd
f4
1b
e0
f8
f9
25
d9
0b
15
dd
ea
23
1c
05
22
0f
e6
f0
11
e4
f7
bd
d4
fe
f6
0b
f8
19
0b
03
2a
1a
e5
53
ef
fd
0f
1f
01
d7
d9
fd
d3
0e
f9
f7
09
f4
c5
fa
1b
f5
fe
00
06
be
06
d4
1b
09
3c
ed
e1
09
fe
fb
05
f6
fb
f6
08
01
1b
fe
16
07
09
ec
07
e3
f9
ce
f2
c1
28
f7
ea
16
15
dc
0e
ee
ec
f8
0c
26
19
e1
25
ee
19
19
fb
f2
1e
ef
f6
d6
ee
03
09
1a
0d
ed
fd
eb
cf
f3
f8
25
c0
e2
08
14
29
3c
fe
0f
21
16
09
0d
e4
04
f8
e5
05
1e
29
e9
20
f3
08
09
0f
06
02
04
f1
fa
f4
eb
08
0c
03
f5
e6
1d
b5
f4
f5
26
10
f4
2a
2f
f5
cb
1a
02
18
f4
e6
08
04
1b
fb
ee
ed
e9
02
00
00
00
00
00
00
00
00
00
00
00
00
00
00
00
00
00
00
00
00
00
00
00
00
00
00
00
00
00
00
00
00
00
00
00
00
00
00
00
00
00
00
00
00
00
00
00
00
00
00
00
00
00
00
00
00
00
00
00
00
00
00
00
00
00
00
00
00
00
00
00
00
00
00
00
00
00
00
00
00
00
00
00
00
00
00
00
00
00
00
00
00
00
00
00
00
00
00
00
00
00
00
00
00
00
00
00
00
00
00
00
00
00
00
00
00
00
00
00
00
00
00
00
00
00
00
00
00
00
00
00
00
00
00
00
00
00
00
00
00
00
00
00
00
00
00
00
00
00
00
00
00
00
00
00
00
00
00
00
00
00
00
00
00
00
00
00
00
00
00
00
00
00
00
00
00
00
00
00
00
00
00
00
00
00
00
00
00
00
00
00
00
00
00
00
00
00
00
00
00
00
00
00
00
00
00
00
00
00
00
00
00
00
00
00
00
00
00
00
00
00
00
00
00
00
00
00
00
00
00
00
00
00
00
00
00
00
00
00
00
