05
36
d2
fb
0a
27
f9
fb
01
c8
01
27
f1
fb
0e
3e
12
03
1c
27
e8
10
f2
da
07
01
05
ff
1b
4c
e7
0c
f5
d6
0d
dc
c5
01
ec
ef
00
04
37
0d
c2
ff
f9
03
ea
11
f6
f7
eb
01
03
d7
f0
f8
f8
0a
d2
3f
01
fb
fb
01
ff
02
06
04
f2
ff
16
08
06
e3
ef
22
e3
15
ed
00
08
1a
30
ec
07
e4
e4
03
d8
03
0c
ff
e0
fb
ec
0e
cd
f4
0d
ec
fa
1b
c0
fd
f9
ce
2d
42
f3
fa
fd
18
05
19
09
19
2d
12
e9
14
25
11
09
fe
2f
05
28
f3
05
b7
28
db
f8
fd
15
f3
e2
e7
dd
da
ee
05
f0
01
25
32
dc
0e
e7
09
eb
0a
13
30
29
25
e7
fa
03
0a
04
26
11
d2
10
20
e3
12
30
fc
f5
2d
d4
0b
d6
2a
29
e0
f9
fb
e9
e3
0c
23
2b
16
05
cc
fe
26
10
13
2c
e9
c2
11
d4
46
ea
0f
e9
0c
e0
d2
20
e1
24
f1
d3
f4
0f
20
f7
18
f8
f1
22
c9
f4
d9
0e
36
e3
16
b2
dc
1b
e4
d7
2a
e5
cc
d8
23
dd
f5
0f
1e
cd
16
cf
0c
0f
13
34
e7
e1
fb
e0
f7
d6
02
f9
24
1a
f1
ed
d6
2d
fa
08
d7
00
07
b4
f9
ed
fd
e4
ea
e5
14
e8
e3
fd
2d
0e
fd
03
1b
fe
eb
ef
f9
ee
0b
ce
e4
ec
03
ce
06
f6
11
2c
27
05
de
12
ff
12
ef
1b
ff
00
e3
ff
04
fb
e5
fa
f8
0f
db
db
17
d2
f3
e7
20
19
15
10
fe
d1
e8
01
20
ef
10
0a
fb
0b
ed
39
27
ff
f2
30
0a
f5
fa
fd
0c
f9
03
f2
fc
1a
22
03
e1
e4
33
0c
29
46
df
f1
bc
10
09
f0
28
21
14
23
ec
e6
ea
02
20
13
da
09
00
2c
ed
f9
1a
dd
e2
ea
f1
e2
e9
f5
ee
d9
f9
f3
31
f0
e6
0d
ed
08
14
de
07
e5
da
0b
14
fe
26
f9
fe
0a
df
08
ef
fd
eb
38
0c
db
1d
ef
23
14
15
dd
08
1f
fa
e3
0a
19
c2
fe
0e
f9
d6
2b
dd
1d
01
2c
e7
2c
11
f4
07
be
d0
e4
ff
e1
a3
4d
f2
1d
eb
ea
bd
e4
fd
10
b8
09
d1
e1
d1
ff
f2
f0
07
f8
0c
21
c2
f9
0e
ff
04
15
35
e0
d7
db
24
dc
18
05
f1
df
fe
e4
0c
df
e8
fb
23
f1
fd
1f
06
f8
ec
01
0d
eb
bc
08
01
17
d7
15
ff
c2
f7
06
0d
f3
33
24
fd
17
27
0a
24
ee
f9
df
10
16
0d
0c
e2
fc
10
31
f3
24
3d
cf
ee
e8
22
e3
07
07
19
12
f2
42
1f
97
09
04
fb
33
0c
d5
37
0b
bf
db
f2
eb
ef
d3
e2
07
07
09
06
f6
1a
f0
f8
eb
07
df
10
4c
0d
f2
e5
b3
e0
ff
dc
44
25
d9
cc
f8
ef
11
0c
da
19
1f
03
e3
24
17
fe
22
d6
12
e9
18
04
21
da
e6
ec
fa
06
fe
14
04
29
19
ff
09
f0
06
ea
0e
f9
11
10
0f
f6
19
16
ee
1a
05
fb
f7
f7
01
ec
2d
24
0a
07
34
de
f3
e5
e8
f3
16
0c
ee
3d
05
36
dc
07
00
1d
1a
00
f8
02
f7
0f
1a
dc
fb
fd
ea
18
f6
fc
00
10
fa
cc
31
e7
f0
4c
e3
05
03
d2
00
db
21
eb
10
02
28
0f
d1
24
f6
ef
f8
f3
e7
38
12
e0
25
e5
08
07
e6
f5
f9
eb
01
24
fe
fd
01
10
fe
dd
d8
f9
df
05
01
2e
fa
00
09
f2
0b
0b
18
19
0b
eb
f9
35
10
fb
0e
f3
0c
0c
0d
f6
2e
ee
00
1c
f4
27
29
10
03
f4
fe
0c
fd
10
04
00
00
39
f6
e6
1a
fb
0e
0b
da
11
c4
e1
0e
fc
dd
16
03
ee
15
0a
ea
0b
00
00
00
00
00
00
00
00
00
00
00
00
00
00
00
00
00
00
00
00
00
00
00
00
00
00
00
00
00
00
00
00
00
00
00
00
00
00
00
00
00
00
00
00
00
00
00
00
00
00
00
00
00
00
00
00
00
00
00
00
00
00
00
00
00
00
00
00
00
00
00
00
00
00
00
00
00
00
00
00
00
00
00
00
00
00
00
00
00
00
00
00
00
00
00
00
00
00
00
00
00
00
00
00
00
00
00
00
00
00
00
00
00
00
00
00
00
00
00
00
00
00
00
00
00
00
00
00
00
00
00
00
00
00
00
00
00
00
00
00
00
00
00
00
00
00
00
00
00
00
00
00
00
00
00
00
00
00
00
00
00
00
00
00
00
00
00
00
00
00
00
00
00
00
00
00
00
00
00
00
00
00
00
00
00
00
00
00
00
00
00
00
00
00
00
00
00
00
00
00
00
00
00
00
00
00
00
00
00
00
00
00
00
00
00
00
00
00
00
00
00
00
00
00
00
00
00
00
00
00
00
00
00
00
00
00
00
00
00
00
