f6
0d
17
c4
08
f2
09
29
04
dd
37
e2
17
e2
e9
f8
e2
4a
e7
1b
23
17
de
1c
dc
01
1a
fc
cd
f1
d3
03
0a
fb
cd
f4
29
16
1b
39
22
53
eb
bf
ea
c7
d8
e7
ef
0c
fa
f6
f2
0b
e3
1a
dc
40
cd
fb
f6
f4
fd
f7
18
12
36
ff
16
30
13
de
0e
04
09
e8
54
25
39
02
d9
06
38
da
1f
f4
22
32
ef
03
12
05
fc
08
08
fc
e7
e4
f9
17
04
03
12
52
cb
f1
b0
02
d7
11
33
33
1d
2e
1d
e3
1b
1a
23
e4
2d
28
f7
2a
e7
db
ed
1a
