32
b5
e9
e8
05
2d
cf
db
18
da
51
11
1c
05
ef
11
dc
f5
b8
d2
1d
cd
f9
14
0a
6e
af
e9
23
19
1b
0a
e8
3e
04
1e
04
ff
e1
bd
fa
e6
1a
f5
51
17
ae
ff
1b
e8
f7
fd
0e
f0
d4
fe
e4
cf
f1
cf
9d
f2
e1
d8
fb
bf
d3
01
16
dc
e2
08
30
28
3e
15
f2
c0
f6
ff
14
fe
5b
14
cc
28
f2
f4
2d
00
2e
0e
25
ee
de
f8
01
d1
e2
09
ce
ff
34
28
1d
1b
0c
20
01
b1
f9
db
d1
2c
04
f8
21
0b
f6
fe
ed
d8
c0
df
f1
e2
21
0b
