c5
44
f2
ff
e9
ed
09
10
cc
22
2d
17
ed
1c
12
f1
42
fd
1a
2d
14
f0
0c
07
0d
0a
27
09
f0
f5
05
20
f5
17
fd
d6
23
e3
fe
ea
26
32
03
17
fc
c0
33
1d
ee
0d
06
e2
37
f4
09
07
ec
30
fb
d9
08
e4
d2
f7
1a
c8
12
0f
06
c3
1f
fe
d1
3f
f4
00
ff
e9
41
06
2c
e5
04
18
11
fa
11
ef
3a
f2
eb
f4
d5
fa
c2
db
fc
27
ef
07
1d
15
0e
39
eb
eb
13
25
0b
c7
13
dd
cd
09
15
ed
2e
ee
2a
fa
f8
e6
26
cb
1d
d7
18
12
e5
43
f6
07
2a
f1
f3
19
33
03
e7
2f
15
f6
ec
2b
ed
0c
de
e2
f9
ef
fe
fa
f0
f9
30
f5
16
df
23
01
06
04
d6
ef
0a
2b
f8
f8
0f
32
fe
51
e8
41
f6
17
e0
e2
2a
35
27
13
ee
dd
04
f5
d5
0e
f1
fe
cd
f9
f4
44
fd
fa
16
d0
00
18
ec
13
18
bc
13
1a
fd
00
f3
dc
12
1d
0c
fb
0a
f0
28
bb
1e
e3
14
f9
15
0c
57
1e
10
ea
e4
11
f1
e5
05
07
c8
ea
f6
d2
19
f1
e9
04
1e
e1
08
1f
04
fb
0a
f0
f9
00
e8
19
e2
ef
fa
ff
08
15
e5
03
09
24
15
11
03
e7
d0
13
e1
1c
d1
0a
09
22
01
fb
ed
0b
12
fc
f8
13
1b
01
c9
08
00
f8
de
d9
2e
e6
ed
c0
fd
f5
ce
df
eb
f4
f8
e8
e9
08
25
13
02
f7
23
14
13
0c
0c
e6
fa
f8
e4
24
ec
38
13
e7
ff
d2
19
13
d9
18
db
d5
f8
fb
22
46
07
e4
be
0a
e6
d6
e2
ef
f1
fe
dc
fc
00
ec
ff
eb
ca
0d
14
ff
12
14
fc
fd
09
fa
15
fb
54
0c
22
f0
e6
e0
f9
e9
f0
ed
3c
e2
e5
cb
20
11
d6
e8
fc
fd
15
1f
22
f3
f8
20
e0
e3
3e
de
fb
d2
3c
08
ee
0a
d4
f9
3a
fc
04
10
d1
3a
07
0c
f1
dd
00
02
f2
ca
ea
f8
f0
ed
17
43
e4
0b
0e
03
12
d3
dc
fa
f2
07
33
ec
fd
d1
e1
d8
fd
e7
35
22
01
fb
de
14
04
15
03
1d
08
0e
18
0b
05
2d
e9
2d
23
d2
ed
cb
68
11
ec
f6
ec
5d
13
d3
01
03
f7
16
f3
ea
ea
2b
d5
1a
f7
12
10
f5
10
fc
09
39
03
da
0b
f7
02
15
f8
1c
c8
1f
f2
11
05
cd
fc
10
fe
ef
df
0c
ca
f5
eb
0d
06
19
26
04
02
00
c8
f9
eb
44
26
13
f3
0e
0f
11
29
c2
ce
35
d4
31
f8
09
e8
e5
ff
cf
d7
ec
22
4d
1b
ea
f2
ec
cf
16
f9
eb
ff
1f
09
e3
d9
e5
fb
c3
e1
2c
00
0c
ee
d0
e1
f8
13
de
f5
28
0f
0a
3d
21
1e
0c
07
06
f9
e3
fd
06
2f
e7
ec
e1
2b
f5
30
e7
06
20
e1
c6
f4
07
e1
2b
06
11
19
d0
00
d9
f5
fb
05
18
00
ca
dd
0d
37
11
08
0b
f6
e9
26
10
ef
27
c9
21
f9
f5
42
0d
dd
1f
1f
01
12
34
f9
18
1d
00
0f
df
f9
28
0d
fd
f9
19
de
bf
01
1a
21
0c
47
e9
3c
d5
14
d2
d9
28
eb
0d
ef
11
d0
02
2d
e9
ca
1d
ef
ef
0c
ff
dc
fd
1a
10
0a
ff
e5
af
f1
07
e9
0c
0f
f7
2b
a4
f2
d9
12
02
f7
f0
cf
fe
ff
0d
cd
39
e6
2c
0e
f7
01
2f
09
bd
34
1d
e9
18
41
e1
f3
09
0b
c6
33
f8
20
0c
23
fe
ef
f9
11
e6
05
ee
e3
25
03
da
fd
db
ef
f7
d7
2b
ef
10
10
dd
f7
cd
0b
0c
23
f1
26
0a
28
ee
e0
07
26
e1
1c
03
f4
05
f4
1f
f8
0d
ee
e7
ef
e4
30
f9
3e
ec
f4
dd
fd
c3
2b
03
00
00
00
00
00
00
00
00
00
00
00
00
00
00
00
00
00
00
00
00
00
00
00
00
00
00
00
00
00
00
00
00
00
00
00
00
00
00
00
00
00
00
00
00
00
00
00
00
00
00
00
00
00
00
00
00
00
00
00
00
00
00
00
00
00
00
00
00
00
00
00
00
00
00
00
00
00
00
00
00
00
00
00
00
00
00
00
00
00
00
00
00
00
00
00
00
00
00
00
00
00
00
00
00
00
00
00
00
00
00
00
00
00
00
00
00
00
00
00
00
00
00
00
00
00
00
00
00
00
00
00
00
00
00
00
00
00
00
00
00
00
00
00
00
00
00
00
00
00
00
00
00
00
00
00
00
00
00
00
00
00
00
00
00
00
00
00
00
00
00
00
00
00
00
00
00
00
00
00
00
00
00
00
00
00
00
00
00
00
00
00
00
00
00
00
00
00
00
00
00
00
00
00
00
00
00
00
00
00
00
00
00
00
00
00
00
00
00
00
00
00
00
00
00
00
00
00
00
00
00
00
00
00
00
00
00
00
00
00
00
