21
f5
0a
27
af
16
16
ef
16
2c
f7
0b
cf
07
0f
2e
0c
f6
e0
e8
26
16
20
22
06
fd
eb
ee
fe
d0
c2
13
1a
27
15
e9
21
fc
01
15
15
e6
fb
15
02
03
0e
d8
f5
05
01
1e
0c
dc
c1
ef
f7
21
12
04
ee
cf
ed
fc
05
03
10
12
fa
0c
22
05
f5
10
e6
32
f8
f3
05
ea
1c
fb
44
f5
d1
c4
e9
fa
f1
eb
11
fb
01
03
23
01
01
2c
ea
ff
17
ff
c5
f8
09
ff
0a
e5
05
2c
16
1b
26
dc
25
17
3d
e3
f3
fa
ab
e4
fe
e8
01
e0
f9
04
f1
c1
f3
23
c5
da
07
09
da
20
1e
e0
f5
d7
2d
19
fa
f6
ff
d9
e3
16
f2
09
31
eb
1f
01
fb
0f
17
13
0b
0f
03
f1
03
0e
05
44
04
fe
d5
0b
21
0f
fe
20
1e
e4
34
09
ed
e0
d7
1b
15
19
2d
14
02
16
de
13
fe
05
19
05
fd
30
29
16
fc
01
00
eb
09
bf
39
0a
f5
20
1f
f3
01
15
28
fc
38
1f
f5
ec
fe
e2
c5
e4
f2
d6
0b
13
fc
0b
f5
f9
0e
10
12
f7
f8
f4
fe
eb
e5
ea
00
30
37
3a
e0
18
0e
03
df
0c
f4
05
1d
ff
09
cb
06
0e
f7
01
f3
d8
47
1e
1d
45
e4
11
e7
08
16
17
34
26
e7
16
e3
0a
0a
e9
53
22
e6
f8
1f
f6
11
df
13
0a
25
ee
14
ed
f2
e6
f0
fa
0c
dc
15
2d
14
3c
39
11
e6
fa
f8
05
ed
db
2e
31
0c
f1
0e
0c
01
2a
d6
e1
fa
11
fd
a2
e0
02
e2
01
de
19
e4
e6
24
23
15
21
d8
02
db
eb
50
fb
04
ef
02
f8
18
f1
f9
e5
ed
e9
1d
f6
fe
0f
16
10
25
c7
27
fc
e8
18
0b
f0
f8
01
de
25
ed
27
31
e8
e8
f9
f0
fb
f9
0b
df
03
20
fd
f3
fb
20
f2
26
e9
1e
06
31
f5
2a
05
18
c8
10
29
f8
f4
03
08
ee
03
dc
03
e8
02
f1
f4
01
d5
2f
0c
ec
de
d8
f9
dc
dc
11
fd
0c
e1
ce
f4
0e
e8
e8
d5
f9
f8
ff
00
04
fd
0c
f7
31
20
f9
20
1a
de
e3
33
e7
15
00
e1
10
e4
12
ec
ee
d3
db
c8
0c
fd
f2
26
e6
f5
16
fa
ef
fe
12
24
e5
08
02
01
eb
2f
06
f2
03
e7
ce
de
e4
f8
ec
ee
d1
19
de
39
c8
19
00
fc
fd
01
01
eb
13
13
1e
ff
de
1d
08
08
12
02
fc
0f
e6
df
e9
ed
d1
fc
f9
23
fa
28
e8
10
0d
30
e8
fc
2b
04
df
d5
22
0e
03
0d
6a
29
16
fc
f9
f6
f1
38
fc
fb
02
0e
fc
f2
18
06
cd
14
14
1e
14
0e
f6
2f
17
0c
20
f4
12
07
e3
37
e9
14
2c
f6
fd
e0
fb
fc
08
fb
0e
08
f8
0a
25
da
31
fd
0e
03
24
0e
48
22
18
22
29
1b
e7
16
f5
f7
13
da
10
e1
0d
26
fc
1a
18
ec
ba
e4
d2
e8
fd
f4
ff
09
03
f7
0a
d1
f2
f6
fa
1f
23
0e
e1
1c
ec
df
e3
15
22
1d
fa
f7
b8
ff
65
f2
e3
17
20
ce
05
07
08
06
19
01
28
02
ff
ff
f9
f0
0a
f2
12
f8
06
07
ed
10
fe
20
09
24
fa
fc
cb
1d
d6
07
05
f7
d2
26
16
f5
08
06
e4
f7
24
0e
1b
ef
1c
1c
05
f2
df
0c
fd
f1
fe
08
0d
e8
e6
09
fd
05
ed
1e
12
e7
01
01
f0
d4
1e
18
f1
d8
24
01
25
be
08
f6
12
00
0f
f2
e1
0b
06
db
fe
16
1b
f0
02
fd
2f
0f
01
e6
26
cd
ed
fc
f2
2a
32
f6
12
db
33
13
da
e0
f5
fd
10
ce
14
1f
26
e6
dc
f8
f0
fb
fd
f0
ed
01
1d
e9
0f
ff
de
23
c8
43
00
00
00
00
00
00
00
00
00
00
00
00
00
00
00
00
00
00
00
00
00
00
00
00
00
00
00
00
00
00
00
00
00
00
00
00
00
00
00
00
00
00
00
00
00
00
00
00
00
00
00
00
00
00
00
00
00
00
00
00
00
00
00
00
00
00
00
00
00
00
00
00
00
00
00
00
00
00
00
00
00
00
00
00
00
00
00
00
00
00
00
00
00
00
00
00
00
00
00
00
00
00
00
00
00
00
00
00
00
00
00
00
00
00
00
00
00
00
00
00
00
00
00
00
00
00
00
00
00
00
00
00
00
00
00
00
00
00
00
00
00
00
00
00
00
00
00
00
00
00
00
00
00
00
00
00
00
00
00
00
00
00
00
00
00
00
00
00
00
00
00
00
00
00
00
00
00
00
00
00
00
00
00
00
00
00
00
00
00
00
00
00
00
00
00
00
00
00
00
00
00
00
00
00
00
00
00
00
00
00
00
00
00
00
00
00
00
00
00
00
00
00
00
00
00
00
00
00
00
00
00
00
00
00
00
00
00
00
00
00
