10
ed
2a
e8
f4
db
f7
19
08
f0
07
f4
22
ea
e2
1f
d1
ee
08
d9
f2
ae
fb
2b
f6
1e
f3
d9
f7
f2
d4
0d
fb
16
c5
50
06
21
2d
fc
e3
12
e5
c1
fe
fb
29
37
ff
c9
f7
ec
e7
03
0e
04
e6
00
e8
01
14
fb
04
18
09
2a
15
dc
1f
f4
13
0d
fd
e5
29
3b
02
03
fc
00
02
cd
08
f7
d0
d6
1e
cb
f5
c3
f1
fa
24
e8
08
19
0d
02
fb
11
28
fa
a7
12
f0
e2
f3
e3
ee
14
12
f4
fe
f2
23
ee
1f
e6
fc
df
eb
1b
03
f4
15
ed
0b
29
e3
10
22
e2
fd
1d
18
12
f1
e4
eb
fd
c9
fc
c4
ee
66
1b
08
df
0e
0b
09
dc
cc
14
04
e3
d8
f6
f6
df
f6
e6
f3
08
eb
1e
0b
fc
d5
f7
f4
da
0c
0b
d7
dc
1d
fe
d3
f9
e9
10
f4
2d
00
e6
e8
0a
e1
e4
0a
0a
19
0d
1f
f5
2e
0a
fe
e6
e8
f3
e2
fe
1a
09
05
0e
e3
f1
03
3f
f7
19
e5
ce
ff
fa
ea
d4
11
f8
f3
f1
fc
18
14
f3
f9
11
ea
1c
de
f5
e2
2a
1d
d1
04
14
ff
02
d6
03
02
d7
02
df
f3
e0
03
db
26
e0
ed
e9
11
f3
d5
fe
e9
09
f4
09
fe
fe
21
18
fb
dc
da
08
fb
e4
18
f8
ea
15
1d
09
09
ef
ec
13
19
ca
ed
d7
f3
eb
45
df
f2
ae
04
12
e5
26
f3
ee
e2
14
ff
0e
fe
dc
30
fc
f0
d8
f2
dd
f2
cf
16
fc
0a
f6
04
e3
17
f3
f5
fd
02
c1
d2
cc
ff
d0
14
f3
1a
0a
01
e9
0c
0a
fc
26
3b
fb
c1
1e
1b
2b
f2
05
e2
d1
09
07
f3
d7
1b
cf
2d
f4
fc
ee
02
e6
36
fc
e9
17
bf
25
09
e9
d3
0b
26
2d
2c
fd
04
f3
fc
dd
13
f7
1f
00
f5
3b
0b
02
25
0c
d8
28
17
12
0b
15
13
34
2c
20
10
06
30
24
ee
fb
e4
04
f9
0d
2b
33
ef
25
f9
0b
05
2c
dd
2a
f4
c7
07
03
09
18
44
14
e0
f7
04
ed
f0
ff
02
fa
f4
15
f9
f0
f6
18
24
d4
fc
d4
26
e6
cf
ec
36
01
ec
ed
02
ef
11
c2
02
f2
1b
20
21
f3
cd
2e
b8
e4
d2
ec
bf
c3
0c
ef
14
ec
4b
df
1c
07
26
21
0a
09
ea
23
2c
f9
0e
fb
21
14
09
24
dd
f9
f0
e3
f7
e2
30
01
fc
fc
00
15
1b
30
f9
03
16
d9
14
e2
12
fb
e1
f7
37
ec
ff
01
20
d3
3e
07
0c
22
ef
f8
d3
2d
02
22
fe
c5
07
c4
14
1a
02
f5
e9
03
f8
f0
16
f3
ec
03
f2
ed
ff
c6
0f
03
ec
f1
0c
13
f0
02
26
27
f9
eb
e6
fe
30
06
f3
00
f6
f9
26
0d
27
3f
04
fe
f5
e0
f4
10
20
0b
e7
33
23
ea
0e
26
47
f8
e2
d9
fd
00
01
f2
f9
ff
16
09
10
0b
fa
f0
ed
ed
03
27
d8
ee
ea
28
18
02
05
17
15
10
fe
d6
ee
05
0c
f7
fb
01
07
0b
00
ed
ea
06
eb
ef
22
f8
10
f2
26
fe
3c
f4
d3
01
15
d6
f2
ec
f4
0f
f2
fe
f9
f8
0e
03
ef
0e
ef
d7
c6
21
0c
0f
0c
01
bb
04
ff
1d
f3
30
fa
1e
ef
0d
01
f5
e4
21
fe
13
db
d7
17
f5
1e
11
da
16
18
c6
14
ed
dd
0d
eb
02
19
eb
11
b7
dd
d8
03
02
13
e2
eb
f3
25
f6
fa
44
fb
e8
18
f5
eb
cf
db
f8
e2
0d
e5
26
28
14
01
1f
fd
f7
07
df
19
dd
e5
db
1c
10
d9
fe
da
1a
fb
1a
f3
17
10
f6
0d
e6
21
f8
32
20
f6
26
42
36
12
d3
fe
c4
2a
ef
3f
14
f6
1e
19
06
22
06
18
18
ee
c7
c2
32
00
00
00
00
00
00
00
00
00
00
00
00
00
00
00
00
00
00
00
00
00
00
00
00
00
00
00
00
00
00
00
00
00
00
00
00
00
00
00
00
00
00
00
00
00
00
00
00
00
00
00
00
00
00
00
00
00
00
00
00
00
00
00
00
00
00
00
00
00
00
00
00
00
00
00
00
00
00
00
00
00
00
00
00
00
00
00
00
00
00
00
00
00
00
00
00
00
00
00
00
00
00
00
00
00
00
00
00
00
00
00
00
00
00
00
00
00
00
00
00
00
00
00
00
00
00
00
00
00
00
00
00
00
00
00
00
00
00
00
00
00
00
00
00
00
00
00
00
00
00
00
00
00
00
00
00
00
00
00
00
00
00
00
00
00
00
00
00
00
00
00
00
00
00
00
00
00
00
00
00
00
00
00
00
00
00
00
00
00
00
00
00
00
00
00
00
00
00
00
00
00
00
00
00
00
00
00
00
00
00
00
00
00
00
00
00
00
00
00
00
00
00
00
00
00
00
00
00
00
00
00
00
00
00
00
00
00
00
00
00
