ee
cc
c0
20
fb
ec
09
d1
1a
22
e4
f7
d9
ed
3c
09
ec
07
04
e2
f9
3c
0b
f8
e5
cd
1b
12
23
f9
0f
fc
20
0a
ce
1d
ec
f0
c6
02
eb
df
04
10
e5
db
09
06
04
dd
ce
db
e9
ea
0f
f6
22
0e
21
04
1c
02
f1
f4
0b
fb
07
09
20
f7
de
2a
01
1e
f3
e8
e5
0c
f3
e9
f3
1a
eb
f9
e0
04
e7
f3
1a
18
eb
de
da
25
e4
ce
23
1d
f9
f8
e5
d5
01
c0
fe
1d
df
df
10
b8
f6
fe
e8
21
f0
2d
21
00
12
f9
20
07
3c
08
f2
fd
11
24
dd
f8
00
ec
05
0b
fb
d8
f6
18
0c
0a
f7
06
ed
d0
c5
2b
fc
2a
01
07
f4
f1
e6
1d
da
f0
2b
04
f1
2e
e8
0f
ff
ff
f1
ff
0d
13
41
05
04
ef
25
17
04
b9
04
ec
0e
c6
f7
ce
fc
e6
42
1f
08
f2
f8
3b
0a
0c
fa
d5
dd
e5
ed
d6
d4
cd
04
13
0a
e9
07
dc
06
10
eb
36
ea
f0
20
0f
25
0b
dc
0f
f8
f1
fa
f5
07
17
36
ea
e5
fb
17
eb
eb
d1
14
ee
1e
1a
f2
e7
c4
49
e9
c8
f6
0b
d5
ee
29
f5
d6
e6
fc
0c
16
f6
ea
1c
f1
25
11
e9
10
fd
f9
21
0b
13
eb
fc
09
45
fd
02
e1
16
07
f2
ec
f8
e4
2a
f8
01
db
14
16
db
1e
17
fb
00
1c
f4
f8
15
ee
c9
fe
0f
23
03
06
0a
e6
18
2f
cd
1a
d8
e6
16
eb
08
22
f2
f4
0f
e1
11
c5
14
06
e2
21
f4
22
1d
e8
f6
f0
df
e2
0f
03
13
e7
ca
e2
26
0d
07
f8
0e
e0
05
29
10
0c
16
f2
ed
f4
f5
07
fc
d3
20
e8
ed
08
f6
21
e6
34
30
22
fc
10
f7
df
1b
22
f3
10
fa
07
e7
00
f7
cd
e3
bf
fa
c8
d0
da
ed
37
09
f2
fb
1d
ff
1e
0d
12
1b
0d
1d
fb
ee
cc
f5
2e
0b
d0
07
cf
0e
f3
0b
f8
25
f7
e7
16
19
ea
fe
06
05
00
e8
f9
04
40
d9
ec
28
08
f4
f0
05
10
e6
1c
bd
21
f8
e7
0f
2d
2a
f3
0a
20
0d
e6
1d
f6
10
10
f0
c8
00
3a
fd
34
27
f8
eb
31
fd
18
da
f1
13
17
de
e4
d9
1e
28
fb
e7
24
0b
f2
e6
06
26
f7
30
00
09
e8
f4
f5
02
0b
0a
f1
f8
f5
09
1b
fe
02
ee
ee
ff
ca
fe
ec
f5
d2
fc
ec
2c
d6
13
1e
25
31
fb
ed
c4
d1
f3
1c
54
e6
d9
df
c9
3c
0b
e2
f5
16
00
0d
02
de
ff
f3
eb
0a
06
f9
c9
16
47
f6
15
e2
12
c2
23
06
11
09
e5
fb
05
1f
0d
fc
ec
2b
32
4a
e3
05
0b
3b
0d
d5
42
1e
d0
02
17
c7
27
18
ef
04
e7
d3
f5
fb
fd
10
fb
e6
e7
27
0e
fb
17
e8
35
0b
ea
f4
fd
e9
f7
2c
09
24
0a
df
eb
01
fa
0b
10
f8
f0
04
01
36
df
ed
fe
21
da
1b
06
0f
08
00
1f
08
32
f2
cd
1f
f1
23
fc
36
2a
ec
13
13
fb
f3
de
f3
02
00
21
07
06
19
f0
09
15
e7
30
f7
ea
e6
46
fb
2e
05
e6
ea
fd
f2
24
ae
d0
20
e7
32
b5
19
09
f7
24
b0
2e
e8
14
e8
16
f6
fc
0c
18
07
ec
f0
17
e5
f1
2f
f3
fd
08
ed
ce
f9
f4
f0
fb
06
eb
04
e5
ec
da
1f
f5
00
0a
0b
05
ff
fb
0f
e9
f6
f3
2e
1b
01
ec
f1
09
ec
0a
17
f4
12
0a
28
f5
f2
f9
cd
f1
19
15
06
29
01
e0
e7
c8
fb
eb
33
21
4e
f9
27
0b
13
fe
10
c6
f8
09
f8
03
1f
00
e3
00
06
e8
f3
20
04
03
f5
24
16
2b
f1
11
17
f4
0e
07
24
e1
eb
20
00
00
00
00
00
00
00
00
00
00
00
00
00
00
00
00
00
00
00
00
00
00
00
00
00
00
00
00
00
00
00
00
00
00
00
00
00
00
00
00
00
00
00
00
00
00
00
00
00
00
00
00
00
00
00
00
00
00
00
00
00
00
00
00
00
00
00
00
00
00
00
00
00
00
00
00
00
00
00
00
00
00
00
00
00
00
00
00
00
00
00
00
00
00
00
00
00
00
00
00
00
00
00
00
00
00
00
00
00
00
00
00
00
00
00
00
00
00
00
00
00
00
00
00
00
00
00
00
00
00
00
00
00
00
00
00
00
00
00
00
00
00
00
00
00
00
00
00
00
00
00
00
00
00
00
00
00
00
00
00
00
00
00
00
00
00
00
00
00
00
00
00
00
00
00
00
00
00
00
00
00
00
00
00
00
00
00
00
00
00
00
00
00
00
00
00
00
00
00
00
00
00
00
00
00
00
00
00
00
00
00
00
00
00
00
00
00
00
00
00
00
00
00
00
00
00
00
00
00
00
00
00
00
00
00
00
00
00
00
00
