ff
ff
19
0f
04
ff
1b
ea
05
48
10
01
eb
fe
ed
ec
21
00
df
f2
1d
f5
fa
18
f6
11
14
f9
25
bb
15
21
19
d9
04
21
08
da
d0
ed
ee
ff
2a
16
02
da
13
0d
10
1f
1a
e1
54
09
f0
4d
2f
11
07
e2
31
cf
f3
fb
44
fd
25
0b
f8
d7
f6
e4
da
2d
cf
fb
16
0c
f5
15
ed
2d
e1
05
1a
29
11
0d
c6
17
fe
07
db
0e
fc
e5
fb
11
1e
16
b9
e8
f7
37
0c
e3
fa
c0
1a
1c
04
e5
18
e0
0d
0c
04
cc
19
ea
01
2e
d7
10
fd
0f
e0
e9
0c
ef
dc
16
1d
08
e8
ee
06
ce
15
46
05
0d
fd
13
08
e8
29
cb
23
d2
1a
1e
fe
01
fb
cc
ed
ec
e4
26
ea
0a
05
e8
fd
ee
da
04
11
ff
e0
20
30
db
1e
44
05
1b
ff
d4
d2
d6
e2
d1
ed
09
16
f5
2f
19
1c
cb
f5
f5
2a
06
20
26
1e
ee
fb
fa
ee
0c
dc
e9
05
0d
2a
d4
d3
ed
00
05
09
16
fd
ef
bb
d4
35
29
d9
0f
14
d6
15
f6
ea
16
ec
0d
2b
dd
0d
f8
f2
f2
fb
c7
f4
ec
03
11
06
ef
da
2a
f9
12
22
d4
e0
f2
d1
41
1c
d3
ec
f7
f9
0c
1d
0e
f3
f3
06
b9
1f
11
34
e6
10
f9
08
fc
f8
f3
1a
0c
e0
f8
32
e9
ff
f5
0e
33
df
f7
cd
eb
e3
02
01
f4
ea
fe
12
e1
f6
12
fa
ef
fe
2e
f1
19
0b
11
ec
0e
f7
07
eb
e9
01
18
04
10
fa
09
dc
dc
02
00
07
f5
06
dc
f3
08
f0
fe
17
d4
c8
e8
07
f5
cc
34
27
e9
06
4f
c2
06
19
f8
00
da
24
1f
04
2d
0e
fe
19
cf
0f
07
1d
e6
e8
08
f0
03
2f
14
d4
ef
f9
fb
11
09
e2
ca
ef
19
0b
04
1f
cf
fb
f9
2c
16
1a
01
10
1e
09
24
e2
e1
07
2b
f2
13
05
1d
0a
33
da
05
12
da
fa
2b
08
1b
e6
f0
f3
ef
0f
fc
e5
f2
20
47
14
11
00
f8
e4
ea
20
17
1b
ed
f1
0e
fb
38
1e
f1
e1
ff
d1
1d
04
0f
f9
ea
d8
2c
f5
10
fa
1d
ec
ce
2e
f9
ed
0c
11
eb
14
0c
2d
ef
f1
2d
fc
12
fd
0b
f4
c9
fc
01
2e
2c
f6
0c
26
fa
2d
09
1e
f8
f9
05
24
e9
e0
72
10
fe
e2
f5
fb
00
02
11
c9
a9
1b
fd
ff
1a
f9
2b
1c
1e
ea
12
09
ed
ee
f5
25
f6
e6
d4
ed
f3
e8
de
30
14
f4
04
ec
3a
14
30
da
f3
e5
c9
ed
e0
31
e7
02
08
f6
e4
e2
1c
fe
0c
b6
28
10
ed
fe
f9
f1
0b
24
33
f2
f2
01
08
09
d7
26
e8
1a
db
eb
00
fd
19
f9
0e
e8
04
ea
f3
e9
de
0b
fc
11
e8
1a
e7
20
f3
f7
1d
07
e3
1c
da
1a
24
28
39
ef
15
b2
d9
1d
02
f2
e9
cf
e9
26
ed
fc
f2
f6
23
ed
e5
1b
1d
04
26
c2
d6
e7
ef
fe
18
e2
0c
12
fe
c9
50
14
f5
fc
e5
f5
e8
c8
11
10
15
43
0f
f7
27
da
fa
f0
e4
01
f0
34
d6
f4
5c
11
02
f4
02
26
eb
06
15
fd
1c
eb
15
b7
f9
00
28
26
18
09
33
09
26
d2
2a
f2
f2
f7
d4
0e
e7
cc
1f
ff
35
13
fb
f9
f3
fd
2d
21
20
ec
13
22
12
ce
fe
0c
06
ec
f0
fb
cf
29
b4
f2
e3
d3
ef
db
0c
ec
e0
06
04
f7
08
c4
01
16
2a
0c
01
0d
26
f7
fc
a7
07
38
0f
09
fe
18
f4
1b
c9
10
00
16
0c
f5
04
e2
12
26
d5
fc
ff
1c
20
3f
ec
32
07
0f
e7
f5
35
e7
fc
24
03
f7
e5
e1
14
f7
13
ee
25
d5
ec
f9
e2
1e
12
0b
17
00
00
00
00
00
00
00
00
00
00
00
00
00
00
00
00
00
00
00
00
00
00
00
00
00
00
00
00
00
00
00
00
00
00
00
00
00
00
00
00
00
00
00
00
00
00
00
00
00
00
00
00
00
00
00
00
00
00
00
00
00
00
00
00
00
00
00
00
00
00
00
00
00
00
00
00
00
00
00
00
00
00
00
00
00
00
00
00
00
00
00
00
00
00
00
00
00
00
00
00
00
00
00
00
00
00
00
00
00
00
00
00
00
00
00
00
00
00
00
00
00
00
00
00
00
00
00
00
00
00
00
00
00
00
00
00
00
00
00
00
00
00
00
00
00
00
00
00
00
00
00
00
00
00
00
00
00
00
00
00
00
00
00
00
00
00
00
00
00
00
00
00
00
00
00
00
00
00
00
00
00
00
00
00
00
00
00
00
00
00
00
00
00
00
00
00
00
00
00
00
00
00
00
00
00
00
00
00
00
00
00
00
00
00
00
00
00
00
00
00
00
00
00
00
00
00
00
00
00
00
00
00
00
00
00
00
00
00
00
00
