ec
ef
14
e8
be
bf
0b
18
22
04
15
b4
04
23
0e
de
e2
e5
05
19
01
f5
d5
fc
fc
09
c0
03
16
ff
0e
24
d9
d9
1a
1a
f2
21
1b
e1
21
3d
ef
08
f9
19
32
1c
af
10
e7
1e
26
e8
4c
12
ef
fa
0a
0c
03
ff
1a
03
e6
06
ca
ee
f6
0a
f7
1e
d9
0c
04
ff
ee
fb
c7
1e
b8
e8
f4
08
d3
15
1d
e6
ed
15
fc
ec
e3
ee
03
38
0a
0a
5b
0f
0b
15
e5
d8
f3
0b
1d
f8
28
dc
ec
22
19
fa
f9
fd
1a
28
03
10
1f
dd
ee
08
ef
fe
03
f6
07
04
fd
f6
ed
1f
1d
17
0c
28
09
f9
22
d2
07
f0
fe
ef
11
27
0d
06
f5
b6
eb
fb
27
fa
f6
ee
d7
18
00
11
ff
0f
21
fb
19
05
00
e8
e4
ee
d3
f1
1d
0c
19
e7
09
0c
10
08
07
fb
12
0d
37
e4
fb
be
d2
1b
fc
0c
24
d7
f8
0a
04
1c
d3
20
fa
11
05
fe
24
ce
f9
06
3c
1a
55
eb
ed
18
c6
16
eb
d4
fc
3f
32
f8
ec
02
e3
31
1a
1d
15
ee
05
11
0a
08
01
ed
eb
11
0e
ff
0d
f0
01
05
2f
d1
bd
1e
0f
1d
0a
fb
03
ea
18
d1
26
04
16
df
28
22
0d
f2
f3
31
e1
c4
00
05
1f
fa
e3
16
df
45
29
11
0a
14
20
4c
f8
09
e6
02
fc
e9
d8
f8
d5
18
e6
e7
b5
08
fa
0a
16
01
ee
f5
26
1b
ea
d8
dd
e6
03
d4
a8
f1
c8
f0
cf
cf
22
1d
da
ff
dd
f7
02
19
f3
f3
ed
f3
1a
17
f4
13
f5
ec
01
fc
09
15
0c
0f
d7
cb
fe
f5
d4
18
e8
f7
e1
04
4e
f3
14
20
0f
f3
0f
1f
d7
17
f3
45
ce
f4
18
31
f3
08
db
f7
23
e4
f9
dc
f1
f0
ed
29
fb
eb
f6
17
e4
0d
e9
0a
fd
0b
de
02
0e
16
e8
27
f8
16
ba
da
48
ee
eb
15
08
00
f0
04
12
fc
fd
14
dc
11
f4
f6
f8
f8
f5
0f
38
f4
f5
fc
fd
06
ef
ec
fa
ed
50
0d
30
0e
28
d9
f5
23
1d
39
1e
1b
0e
24
fe
0d
f0
0e
ee
15
02
d5
f0
c2
0a
27
ca
f3
09
fd
04
06
ec
d7
ed
f2
01
06
12
ed
04
06
f7
fc
ee
f9
29
03
eb
ba
f9
0e
ed
eb
1f
dd
ec
b4
17
e2
fa
c3
12
06
0a
25
fb
e0
01
f3
fb
f3
d1
15
29
ec
24
16
22
f7
1a
f7
37
ff
11
02
30
e1
12
f5
13
ef
07
11
02
21
12
de
02
1f
2f
32
14
0f
0d
f4
ff
14
0c
05
f1
0f
cd
09
10
f8
ef
fb
fc
0a
e8
eb
10
19
f0
d2
12
f0
b0
ee
fa
f6
e0
df
20
23
00
03
55
30
02
f0
eb
de
e9
fa
06
0c
ee
cc
f7
13
fa
ed
fb
16
e3
0e
18
1d
ea
01
1b
13
09
f5
05
da
16
17
0c
05
f4
ea
00
18
09
ee
42
05
cd
f7
0b
13
ec
c6
14
e7
0f
df
16
ec
11
1b
dd
07
d3
ea
cc
fc
12
18
e3
2d
35
04
1c
26
1a
03
00
1d
da
32
09
32
07
da
02
f6
f4
0b
2a
ee
f0
e9
10
0b
03
d9
fc
ed
e3
16
1f
0b
f9
15
12
22
d4
eb
0f
10
27
2e
f0
dc
fd
42
fe
01
e0
14
26
12
1f
f2
09
1f
0d
00
25
e8
11
b0
37
fd
10
eb
f9
03
0b
f6
32
e9
c8
10
f6
e9
1d
ea
11
c3
08
fd
f3
ec
26
21
05
08
04
19
e9
1d
f2
1f
f2
f7
d5
f8
1a
df
bd
24
0d
d0
20
02
04
0f
15
1f
fb
14
10
04
18
fa
03
f1
07
fc
ca
f4
f0
e4
16
f9
08
f8
fd
1e
11
ff
08
e4
2a
18
f3
1b
f5
e4
e8
e9
fc
36
0e
16
11
dd
e3
db
00
00
00
00
00
00
00
00
00
00
00
00
00
00
00
00
00
00
00
00
00
00
00
00
00
00
00
00
00
00
00
00
00
00
00
00
00
00
00
00
00
00
00
00
00
00
00
00
00
00
00
00
00
00
00
00
00
00
00
00
00
00
00
00
00
00
00
00
00
00
00
00
00
00
00
00
00
00
00
00
00
00
00
00
00
00
00
00
00
00
00
00
00
00
00
00
00
00
00
00
00
00
00
00
00
00
00
00
00
00
00
00
00
00
00
00
00
00
00
00
00
00
00
00
00
00
00
00
00
00
00
00
00
00
00
00
00
00
00
00
00
00
00
00
00
00
00
00
00
00
00
00
00
00
00
00
00
00
00
00
00
00
00
00
00
00
00
00
00
00
00
00
00
00
00
00
00
00
00
00
00
00
00
00
00
00
00
00
00
00
00
00
00
00
00
00
00
00
00
00
00
00
00
00
00
00
00
00
00
00
00
00
00
00
00
00
00
00
00
00
00
00
00
00
00
00
00
00
00
00
00
00
00
00
00
00
00
00
00
00
