fe
ed
f0
20
eb
0b
07
ea
11
fa
12
1d
2b
1b
0d
cc
e6
e4
f0
51
05
d6
e9
ef
0e
2d
11
e8
44
fa
ec
00
f0
02
06
1c
20
0c
fe
f9
eb
e9
f1
21
20
03
1a
ff
00
31
e4
e3
05
da
0a
27
03
06
ee
33
f9
0b
03
28
15
2d
05
0f
e4
12
f6
e2
04
19
e2
2a
1b
1e
ce
0d
14
df
ef
18
e2
43
ff
dc
f6
ee
0b
fb
ed
07
1f
ea
b9
f5
ff
d9
09
da
35
e3
02
e5
06
e6
0f
e8
1b
04
f8
dd
1e
2d
ad
f9
03
e5
f5
c6
df
f4
1f
15
00
24
29
0c
01
f6
d1
28
1a
da
c0
0c
0f
11
1b
41
dc
d3
f9
22
24
18
d7
27
dc
f3
01
e9
cb
db
e1
04
02
f9
eb
02
ec
0b
30
e0
f1
24
da
fa
13
c5
0e
1f
0b
eb
06
2b
18
16
cb
02
fb
fd
0d
26
15
d4
f1
e9
ff
24
fd
0a
fe
d4
06
17
18
fc
25
f2
01
06
2c
ea
ea
f9
d9
0b
0e
ea
d7
17
fe
fc
d0
f6
fa
d4
1c
0a
fa
1a
f5
22
e1
d9
f0
0c
fc
f0
f4
ec
ee
f0
f9
0d
f1
e7
01
c6
e8
0f
29
12
ff
24
fe
c8
f2
f6
05
21
04
e8
ca
f3
e0
f5
e0
26
f6
0c
ec
ed
f3
f9
f9
21
08
ea
54
67
1a
33
3a
05
12
eb
24
fb
db
12
f1
f6
0e
0b
2a
19
2f
20
1b
03
09
d8
f8
ee
06
3c
e4
14
14
fd
f3
02
ed
fa
fd
17
14
24
03
10
ff
e9
01
fe
dd
d0
08
2a
f3
33
e5
00
fb
19
0e
20
f3
e0
e1
f6
2f
08
ec
2e
1d
17
06
28
0a
f2
ec
e2
fc
4a
de
db
08
f3
09
ee
15
f4
18
e6
22
ce
f0
f0
fb
32
39
1a
1c
f7
fa
19
e9
27
38
db
fb
cb
15
fb
cf
32
e6
00
e7
17
f9
f3
11
02
13
05
0f
12
f4
3c
14
15
fd
17
1a
e6
17
2e
01
f3
da
eb
f4
ec
ed
e5
19
0f
02
b2
cb
d7
09
f3
20
13
d8
f5
03
fd
ca
1f
f5
de
fd
de
05
e9
10
09
f5
fb
12
26
06
04
ff
0e
f9
d6
21
1f
0b
d1
01
d8
1b
e0
16
27
fc
06
ea
e9
aa
07
e9
08
02
0a
26
f5
0c
fe
d9
03
2d
3d
00
d4
fe
ee
0a
e5
f2
f3
23
25
ed
34
d1
0f
ed
f8
15
22
2c
0d
01
36
e4
f9
1c
05
29
f1
f6
0a
18
0e
0c
fa
f9
07
36
f9
fc
e0
d6
fd
f6
d9
fd
d7
1c
d0
f4
12
1c
0c
ff
22
fa
0f
09
2a
05
07
fb
20
21
14
1d
e2
fe
06
08
2e
28
c4
ee
13
2f
06
14
d9
e6
fd
0e
e7
02
09
d5
09
2c
39
f0
07
f3
10
22
d4
15
4e
1b
19
26
0f
fc
1c
08
e3
f4
d5
e6
df
fc
f9
f9
11
fc
cb
07
d4
28
01
f3
ea
07
2a
0e
f0
2c
c1
06
1d
bd
fe
12
08
10
d3
1c
3d
f4
e1
d8
0b
fd
cf
4b
2a
fc
14
ea
fd
ea
e5
fb
11
11
e1
e9
0b
eb
2b
d7
2e
fa
e1
be
20
18
f4
fa
18
00
04
fe
fc
04
17
fa
e8
0a
f0
da
c6
f2
fc
e3
d7
ff
e1
19
f0
4a
f2
f2
da
d4
1b
21
da
fe
f8
0b
bf
06
02
fb
dd
24
21
16
04
2c
e7
12
00
14
e5
f3
18
04
1f
08
f6
13
0f
13
19
d7
ff
ef
f7
43
29
1a
39
d3
0c
05
2f
22
00
2a
eb
ea
1f
0b
e3
d7
fb
15
f5
e6
a7
e4
0e
01
32
1b
f6
fb
d5
06
d9
df
ff
0e
eb
cc
09
23
f7
f0
e4
f1
fe
f8
1f
f9
e8
f4
2f
c8
06
eb
2e
00
0e
1e
3f
0f
08
f7
f2
00
13
f0
f6
48
ef
f6
ed
c2
19
1f
0f
f1
f6
f9
04
e4
33
1e
10
20
29
00
00
00
00
00
00
00
00
00
00
00
00
00
00
00
00
00
00
00
00
00
00
00
00
00
00
00
00
00
00
00
00
00
00
00
00
00
00
00
00
00
00
00
00
00
00
00
00
00
00
00
00
00
00
00
00
00
00
00
00
00
00
00
00
00
00
00
00
00
00
00
00
00
00
00
00
00
00
00
00
00
00
00
00
00
00
00
00
00
00
00
00
00
00
00
00
00
00
00
00
00
00
00
00
00
00
00
00
00
00
00
00
00
00
00
00
00
00
00
00
00
00
00
00
00
00
00
00
00
00
00
00
00
00
00
00
00
00
00
00
00
00
00
00
00
00
00
00
00
00
00
00
00
00
00
00
00
00
00
00
00
00
00
00
00
00
00
00
00
00
00
00
00
00
00
00
00
00
00
00
00
00
00
00
00
00
00
00
00
00
00
00
00
00
00
00
00
00
00
00
00
00
00
00
00
00
00
00
00
00
00
00
00
00
00
00
00
00
00
00
00
00
00
00
00
00
00
00
00
00
00
00
00
00
00
00
00
00
00
00
