53
f5
0a
03
ee
19
e6
09
05
02
32
0f
cb
1a
fa
ff
17
01
f0
07
1b
f5
db
0a
f2
f6
eb
db
f9
e2
3a
d1
18
f9
11
00
fa
f8
f7
e3
16
d3
f5
05
c9
ef
fb
e3
fa
0c
25
1b
f2
16
3b
0d
01
f8
c6
a9
18
0c
f3
3f
1f
1f
fa
30
0c
09
09
25
ef
e5
22
f5
d9
f0
23
1b
23
34
d6
e4
dd
e1
25
23
03
ef
01
e5
dc
1e
dc
0c
0b
12
2a
dc
3b
f8
e5
14
07
2b
fe
e9
ef
2b
04
1d
13
18
0c
00
15
e5
2f
07
04
df
f7
dd
d9
0c
ff
1e
