00
f6
fd
c9
f5
1f
27
42
08
14
10
d7
f6
b8
f5
ed
35
22
d6
db
14
c0
ee
1d
27
05
e1
1c
16
00
2e
d6
d7
f8
a5
d2
f3
1e
09
35
fe
68
f3
ea
2b
ec
05
dd
f7
56
ef
05
fb
01
23
c8
0b
50
fb
29
cd
05
1c
fd
bc
d2
e9
14
f1
09
09
d1
f0
c6
09
c4
28
cb
d4
ef
0f
c4
d7
ef
ff
d9
f3
f8
e1
eb
25
ff
f6
06
25
c8
25
ec
15
fd
1b
11
f2
02
f0
ce
d4
10
1f
6a
04
99
e7
1a
c1
1f
0e
01
e2
09
0d
04
01
30
ea
f9
fb
e7
