da
03
e8
0c
21
20
36
fa
f6
02
ed
f8
e5
f6
fd
18
08
e6
e4
e5
f4
44
da
22
f8
f2
df
e3
3a
05
0b
0f
f6
e5
08
fa
06
08
f2
e2
01
f3
15
06
19
fc
18
ee
17
e8
2a
e7
ec
fa
e4
3b
ee
08
30
05
01
22
18
dc
ff
15
02
d6
01
22
08
fe
04
f4
0a
1c
ee
d0
0f
ea
ff
2f
09
1b
eb
df
dd
0f
15
26
04
16
d3
1f
0d
0c
0d
f1
f5
ef
ea
f3
fc
e3
ee
07
0c
02
02
c4
e1
3e
db
ec
07
1d
0c
e2
d5
10
f4
22
ca
fe
d6
e6
f4
01
04
26
d6
de
05
f8
fd
08
db
f9
03
07
28
f6
00
16
f9
15
ba
ef
0e
e0
09
fb
40
e4
d3
1a
d2
e6
20
24
f2
eb
ff
10
10
fc
ef
00
ee
2d
f9
19
03
dc
f5
d4
f6
fd
f7
d6
db
08
f7
1a
ca
24
17
0a
e4
f1
fc
1c
22
15
05
19
13
27
f3
fc
2e
dd
eb
e1
0d
f7
ca
03
c8
03
dd
14
e9
ea
02
f2
ce
e5
29
11
f4
01
f7
c3
17
ef
e9
cf
18
12
08
f7
f8
06
0c
10
c6
1a
f7
1d
eb
0d
da
03
27
02
e4
01
29
0b
02
ef
d0
e9
1f
0c
11
f9
d1
f0
e8
1a
d7
12
e0
04
25
02
19
f0
ee
21
c8
25
35
24
06
19
fa
ef
f4
fb
d1
10
ee
f3
13
f3
ef
fb
ca
f9
04
eb
32
0c
06
2f
ef
0a
10
e2
dd
f3
f2
24
0e
f3
2b
e3
03
e0
fe
e0
fa
f2
df
07
23
42
1b
ec
d7
e7
06
24
10
0f
15
e2
de
17
1e
fe
26
0e
1a
e3
02
03
b5
d3
00
f1
18
28
14
e8
df
07
d4
3f
e2
c6
dd
18
f8
18
f5
32
45
09
3a
10
ef
15
f0
48
0c
13
0e
e6
1b
e4
04
d7
db
0d
30
30
9f
ea
1d
f9
20
ea
cc
14
0d
f1
17
0b
f2
ec
1d
11
e9
3f
ea
07
e5
0c
0e
eb
4d
ee
f8
44
ee
f1
f7
14
da
fa
45
f8
e5
10
ea
09
31
f8
18
e2
22
f9
09
0c
ee
ef
01
49
13
d4
ff
cf
f6
08
03
04
f6
cf
ef
e1
10
f9
01
e4
13
f8
04
12
2d
f0
1e
06
e3
11
2a
e7
02
17
20
fc
f2
fe
1b
05
a8
39
fe
32
1b
f6
f0
ff
f8
fb
e7
f3
17
0f
f1
de
12
17
e6
12
fd
fa
fc
ff
f5
be
04
cb
c7
02
0b
de
e5
e3
bb
fe
f7
14
f9
f9
ee
e0
f9
e5
be
f9
fa
02
f6
18
f7
11
f3
f5
df
10
13
02
03
f0
d6
f2
06
06
14
fb
fa
05
1b
d5
10
ed
1b
e4
02
f9
e0
23
1e
ec
11
06
e4
ef
0f
1a
dc
fe
0a
17
3b
f8
fd
04
f6
0d
e0
22
e5
18
25
ea
06
07
e7
0e
ea
2e
fa
ff
05
16
ec
ff
16
de
21
cd
00
66
ed
f5
25
01
d3
21
0f
1b
e1
f3
e6
29
0f
10
1b
f2
3d
e7
fe
c6
16
0d
eb
00
05
05
10
10
cf
2f
37
17
fa
f7
14
13
f0
e6
ba
e3
b1
00
1d
e6
03
eb
19
0f
0f
ff
07
ea
d2
29
04
0d
05
09
d3
09
f6
d6
ed
da
c2
fd
04
ec
e3
09
05
2d
25
e8
e5
09
f4
d3
e6
ff
04
d0
d3
1a
1b
02
fa
fe
f9
28
fe
3d
0e
09
fa
1f
f1
24
19
09
e5
23
21
19
11
02
fb
0a
c6
04
2a
e5
dc
1e
13
dc
e8
23
4b
f3
d4
e3
f0
e6
1b
ec
0b
e4
ef
e1
04
df
f7
e5
15
c0
fc
10
fc
fe
fd
13
de
fe
07
12
10
e7
16
de
04
e1
06
20
13
fc
d6
0d
d8
d9
07
1d
19
0b
2f
22
10
09
ec
4a
00
32
e8
13
03
e9
f1
ea
ff
19
1c
09
10
14
1e
04
19
19
0a
ec
de
de
17
1c
f7
0d
00
00
00
00
00
00
00
00
00
00
00
00
00
00
00
00
00
00
00
00
00
00
00
00
00
00
00
00
00
00
00
00
00
00
00
00
00
00
00
00
00
00
00
00
00
00
00
00
00
00
00
00
00
00
00
00
00
00
00
00
00
00
00
00
00
00
00
00
00
00
00
00
00
00
00
00
00
00
00
00
00
00
00
00
00
00
00
00
00
00
00
00
00
00
00
00
00
00
00
00
00
00
00
00
00
00
00
00
00
00
00
00
00
00
00
00
00
00
00
00
00
00
00
00
00
00
00
00
00
00
00
00
00
00
00
00
00
00
00
00
00
00
00
00
00
00
00
00
00
00
00
00
00
00
00
00
00
00
00
00
00
00
00
00
00
00
00
00
00
00
00
00
00
00
00
00
00
00
00
00
00
00
00
00
00
00
00
00
00
00
00
00
00
00
00
00
00
00
00
00
00
00
00
00
00
00
00
00
00
00
00
00
00
00
00
00
00
00
00
00
00
00
00
00
00
00
00
00
00
00
00
00
00
00
00
00
00
00
00
00
