39
11
f5
38
fa
18
16
33
14
11
1c
d5
19
d3
c3
e7
06
2e
e7
da
24
f1
0b
01
ef
f5
e1
24
f2
f7
19
a4
1e
da
da
0c
f6
10
0d
22
fa
12
0e
ec
fc
ff
09
a5
36
fe
07
12
1a
09
41
b5
b8
20
ef
25
21
e0
1b
f6
d9
29
f6
fd
d6
eb
e9
29
27
f8
ef
fa
e3
d2
05
ed
e8
09
eb
38
fd
20
d8
fc
f3
f1
d1
ed
ee
04
d0
d8
c0
eb
bf
ee
1a
52
12
f5
c0
e2
ef
39
14
d1
28
fc
dc
12
1e
ce
e5
00
dd
01
f4
f4
e2
cd
fa
1e
e2
e0
