f8
dc
0b
0b
17
1f
15
19
fc
f4
00
fb
17
e9
ea
0a
fd
08
02
0d
d2
1b
d1
07
09
f6
c1
16
f8
f1
07
1c
f7
e6
18
12
19
f3
f7
04
e1
ed
f2
11
e3
0d
d2
13
d1
ce
0c
fe
09
03
14
e6
00
e5
02
3a
21
12
0d
0f
23
08
03
06
f2
1a
0e
fd
16
01
02
07
01
ec
18
dc
02
19
e5
0f
f6
e6
18
27
14
f9
08
0e
0b
f1
ec
1a
10
e5
05
01
e8
cd
04
04
09
fd
dc
fc
29
2c
f6
e9
df
f2
12
d7
0e
0b
f6
df
35
1d
d0
de
e8
0b
fa
20
f1
fb
21
f7
27
fc
1e
00
f3
f7
f3
1d
12
ae
f8
2b
13
d1
15
f1
35
0e
14
fd
05
fd
f8
e7
fb
df
dc
b2
f7
0c
e5
1d
f1
11
0d
15
1e
0c
ee
f2
1f
18
eb
30
f5
e8
03
0b
0a
22
fa
f7
09
f7
e2
ef
28
29
f8
2c
02
02
c1
da
dd
f0
05
de
0c
11
4b
1d
1a
00
d5
10
02
08
d2
d9
f6
ef
fc
09
fa
06
00
e6
09
1a
f5
ea
e1
ec
0f
fe
01
06
e6
fa
33
05
f9
f6
17
0a
fe
eb
0b
05
f4
0b
09
0c
09
1c
d6
dd
e7
d2
d1
15
e8
f7
fb
1c
03
11
f5
db
1a
38
0f
01
cd
06
1a
d3
02
ff
d2
f2
04
f1
15
06
f5
0c
fe
c7
32
2c
fb
e3
13
0f
f4
1a
3a
04
f9
0c
fe
04
d5
d5
17
fb
0e
f3
d1
ff
0a
ef
da
0f
0a
09
0c
38
1a
eb
21
f2
17
fd
2f
14
ee
0c
08
fb
d6
f8
e2
37
10
3f
d5
04
13
1a
07
0e
0a
03
c7
10
0f
e8
11
02
00
f9
0e
c9
fd
e0
28
f9
07
18
f9
00
d5
31
29
05
e6
0a
da
dd
fe
fa
ec
25
05
ce
f5
0f
14
0b
1f
d1
07
d0
09
ff
26
04
d6
ed
e3
f8
0e
1a
e1
d7
f9
fb
ed
d9
d4
db
10
fb
18
1a
d7
c1
ee
ee
22
fb
05
19
fd
f7
21
02
d2
f4
04
05
17
f6
10
0a
11
22
eb
d8
fb
ed
f5
c9
d9
1a
18
e5
d8
05
3b
35
26
22
07
24
e9
04
f1
e0
f9
01
c6
0b
f7
ed
f7
18
da
fd
0b
09
12
fe
05
f6
e6
e8
fe
0d
1a
11
08
ed
ce
0f
14
df
3b
e5
0b
04
e5
1c
d9
d8
0e
fa
0c
2e
ee
16
d5
e0
a5
33
2c
ea
06
20
e7
f6
01
f0
06
c1
28
e2
ea
e2
12
e7
da
f3
13
ed
fe
c6
06
26
26
0c
0f
ed
02
1e
eb
fd
1c
fc
22
f2
e5
fe
fc
0f
06
b6
f8
dc
f2
11
f1
31
fd
f5
eb
25
bb
f7
f6
1b
14
04
1d
19
f3
20
20
4b
15
e4
0c
2f
da
ca
04
e9
f4
08
fe
ff
f8
fd
21
02
df
ed
f4
ec
ee
d6
e9
18
f1
10
1c
ec
01
00
e7
19
f1
f6
3b
e9
32
02
f3
06
19
38
c6
1f
f1
07
fd
18
14
30
02
15
06
06
09
16
f0
07
fe
f6
cc
de
18
24
24
1a
17
4d
0d
f8
f2
06
12
02
1f
d4
e5
f9
13
39
e6
cc
fe
e8
0b
35
19
00
01
0a
1a
0f
1d
12
f6
21
1a
d8
e1
fe
bc
fe
0b
12
f8
f8
fb
1c
fe
f4
ea
f4
c6
d6
1f
f9
23
d8
fe
dd
d7
10
ec
f5
14
f6
09
f9
0f
37
ec
dd
35
e1
ed
1b
f5
f6
00
0c
eb
37
0d
e6
0f
0b
19
f1
d0
e3
1a
03
20
21
10
24
fb
05
ff
30
ec
b9
e0
ef
f5
07
06
2a
00
ef
17
39
12
fd
08
df
11
03
b3
26
ef
fa
f7
f6
cf
03
1b
d6
f7
1c
11
0f
08
f1
cf
e2
06
fa
e2
04
2b
fe
03
14
45
14
f3
20
34
f6
0f
e6
ef
e0
b1
0e
e0
d8
f4
24
0c
1a
31
2d
44
2b
00
24
2d
03
00
00
00
00
00
00
00
00
00
00
00
00
00
00
00
00
00
00
00
00
00
00
00
00
00
00
00
00
00
00
00
00
00
00
00
00
00
00
00
00
00
00
00
00
00
00
00
00
00
00
00
00
00
00
00
00
00
00
00
00
00
00
00
00
00
00
00
00
00
00
00
00
00
00
00
00
00
00
00
00
00
00
00
00
00
00
00
00
00
00
00
00
00
00
00
00
00
00
00
00
00
00
00
00
00
00
00
00
00
00
00
00
00
00
00
00
00
00
00
00
00
00
00
00
00
00
00
00
00
00
00
00
00
00
00
00
00
00
00
00
00
00
00
00
00
00
00
00
00
00
00
00
00
00
00
00
00
00
00
00
00
00
00
00
00
00
00
00
00
00
00
00
00
00
00
00
00
00
00
00
00
00
00
00
00
00
00
00
00
00
00
00
00
00
00
00
00
00
00
00
00
00
00
00
00
00
00
00
00
00
00
00
00
00
00
00
00
00
00
00
00
00
00
00
00
00
00
00
00
00
00
00
00
00
00
00
00
00
00
00
