f7
0d
e9
06
16
10
1d
f8
16
fe
f9
0a
fc
17
e6
0a
f1
1d
13
fa
f4
0d
e4
21
f1
fd
f7
21
ed
2e
18
e4
30
08
e5
07
f4
df
fb
f7
f2
ec
fa
2f
e8
db
cc
05
36
e8
f1
ad
10
da
0d
27
e1
f0
00
1c
c5
d2
c8
e3
03
e7
de
fb
0d
27
f0
22
30
f5
e6
10
06
2d
23
09
d3
19
fb
fc
18
d7
f0
28
0d
02
06
00
ec
ea
0e
18
d1
11
08
03
1f
de
07
2e
e6
eb
03
e0
11
be
db
24
e8
13
0f
d6
19
08
09
06
2d
23
eb
e8
e5
09
df
18
11
fc
d5
eb
26
0c
ff
2d
00
0c
f0
cb
45
1f
ee
d2
0f
de
00
08
02
ef
f3
ee
c7
ec
d2
eb
ea
e0
e4
de
f1
f8
1f
02
f9
fc
e9
38
29
fc
e6
f0
07
0b
e8
f5
1d
06
ed
29
fc
02
f1
30
bb
ea
27
02
05
fb
f5
f4
d8
e4
fb
07
12
f6
0d
e0
ef
f6
b9
f6
ec
12
da
35
06
0d
1b
2f
31
27
f1
33
c0
07
ec
e6
f9
05
0e
00
ec
16
04
03
f4
e7
0d
1f
29
03
ed
09
0b
f2
52
0d
18
02
32
c8
04
0c
ff
ef
1e
13
10
eb
0f
cc
18
03
ee
e3
f7
ed
cf
f1
04
09
03
fe
e7
d3
2c
0f
d8
01
f4
f2
dd
34
0b
10
04
f7
10
11
12
0a
0b
ea
3b
07
f6
04
fe
fd
f1
07
1b
17
ff
1b
f7
31
01
e4
0d
f6
f6
e9
e3
fd
e9
2d
f7
15
33
eb
fc
3c
11
f8
21
f9
ef
f7
00
e5
25
22
f3
fb
eb
ea
18
0e
10
05
19
ec
47
f9
02
14
f8
fb
f9
0d
01
e9
1c
ef
23
fa
02
22
1b
2e
23
1a
da
0d
01
e5
eb
38
01
24
36
ea
01
24
ff
0e
ed
34
0c
00
23
e2
f0
12
db
f0
19
ed
3d
ee
02
da
f0
f2
1a
f2
d9
02
ff
fb
e9
f9
e1
05
09
d2
ed
27
d5
09
e6
f1
17
c8
0e
0e
20
03
1e
14
f3
df
0d
ee
35
de
ea
08
f6
08
ee
da
15
1e
03
0e
1f
07
ef
ed
0c
2f
3d
15
ed
02
dd
f3
03
e0
31
d5
01
d0
e4
c9
f0
f4
1f
2f
08
0d
fe
02
2f
f6
07
f6
c0
04
15
e5
d3
f5
02
cf
e7
00
04
0f
03
d3
03
f0
f7
f9
1c
21
eb
00
01
11
03
07
e4
ff
29
f1
35
f7
0a
20
07
e1
da
1c
da
1e
d7
0a
ed
2b
ee
ec
e7
10
f8
05
f6
0e
04
e2
0f
13
02
0e
ee
fb
e1
ca
ef
12
ee
ff
c9
f1
fa
fd
e1
22
d6
02
1d
f2
b3
cf
d2
d8
c6
ec
09
f8
35
f8
fe
11
f7
d9
c6
fe
df
13
0d
16
d7
1c
28
03
fc
fc
ff
dd
e0
13
d7
d9
bd
e9
04
f6
d6
e8
e5
eb
f8
eb
15
0f
9d
f2
06
0e
02
f3
18
05
c0
f1
d8
e6
00
42
f8
33
12
f1
ea
bc
f8
fe
f3
c4
00
0b
09
41
ff
ee
e8
ce
1d
01
28
07
bf
e8
0c
3b
04
e0
d5
f5
0d
ee
d9
fe
ff
ed
ee
ff
cc
16
c9
f2
06
24
f9
04
eb
06
e6
18
f6
13
d4
ea
ec
16
f2
f2
0c
05
f2
e9
24
14
f7
22
07
05
0a
ff
23
dc
1f
00
f9
e7
db
f3
41
dc
d2
e1
e5
1d
f4
23
04
ff
fe
de
e4
0f
01
2d
d6
f8
01
03
ef
19
20
ff
25
18
f6
fc
ff
c1
33
15
e8
29
1a
0e
f8
27
0e
06
eb
ff
11
f4
07
26
e3
12
eb
0a
08
e2
1e
0a
16
f3
b2
1f
00
f1
1f
22
3d
ec
ee
0d
15
08
16
1b
38
12
10
27
e5
f0
3b
fd
ac
08
09
03
03
31
fa
01
da
25
0d
26
d8
03
f7
ea
1f
08
d1
fc
0a
f5
16
f9
15
09
f5
f4
ff
15
13
f9
00
00
00
00
00
00
00
00
00
00
00
00
00
00
00
00
00
00
00
00
00
00
00
00
00
00
00
00
00
00
00
00
00
00
00
00
00
00
00
00
00
00
00
00
00
00
00
00
00
00
00
00
00
00
00
00
00
00
00
00
00
00
00
00
00
00
00
00
00
00
00
00
00
00
00
00
00
00
00
00
00
00
00
00
00
00
00
00
00
00
00
00
00
00
00
00
00
00
00
00
00
00
00
00
00
00
00
00
00
00
00
00
00
00
00
00
00
00
00
00
00
00
00
00
00
00
00
00
00
00
00
00
00
00
00
00
00
00
00
00
00
00
00
00
00
00
00
00
00
00
00
00
00
00
00
00
00
00
00
00
00
00
00
00
00
00
00
00
00
00
00
00
00
00
00
00
00
00
00
00
00
00
00
00
00
00
00
00
00
00
00
00
00
00
00
00
00
00
00
00
00
00
00
00
00
00
00
00
00
00
00
00
00
00
00
00
00
00
00
00
00
00
00
00
00
00
00
00
00
00
00
00
00
00
00
00
00
00
00
00
