fe
16
13
04
1a
1f
09
f1
fb
02
1f
eb
f4
ea
e9
da
3c
3c
f2
b9
0f
c8
28
0a
da
04
d1
1d
01
fe
f7
e5
eb
ee
1c
e2
fd
f6
22
c9
0f
00
d2
f7
0c
0a
f5
0b
eb
fe
c5
15
e0
e9
d2
d8
19
1a
f8
2a
11
18
f4
d5
c5
07
fa
bc
d8
ef
ee
fe
03
db
d5
14
c8
e0
f2
ee
0a
d9
fb
f5
de
0f
e4
ec
e8
df
17
f0
0a
02
e7
e2
b7
21
fa
ce
08
04
0e
2a
07
fc
cc
0d
0c
e2
b3
29
e1
1a
b2
13
00
19
2f
41
f6
03
fe
f5
f1
0d
e5
02
18
fb
d8
13
03
36
16
ec
de
0d
0f
e6
14
1d
17
e6
1b
20
00
ee
04
b9
d7
da
f7
fe
09
0c
38
1d
e0
01
ed
05
03
d1
f6
15
fa
dc
1e
fd
1a
d8
09
12
e3
e1
37
0f
d1
f1
e7
ec
fe
fb
06
00
19
fb
f7
03
e0
e2
29
ee
27
f8
df
1a
12
5c
25
ff
d7
19
0c
d6
18
de
03
1b
e5
19
ff
1a
f4
dd
df
1a
0a
15
07
d6
e9
f5
f1
fc
0e
ea
0a
f7
ef
03
cc
b5
fc
c8
33
1d
fa
12
08
0e
fe
d3
da
0c
dc
08
21
35
0a
de
e1
d8
e1
f8
23
06
16
f8
f6
36
1e
2a
13
03
fb
ec
1d
2f
0b
e3
dc
29
ee
1d
da
f9
f8
0c
18
11
15
09
18
e3
f8
dd
22
e7
e5
1e
ec
0b
49
0d
0d
e8
1f
0c
ea
3f
e5
ef
c8
00
dd
07
f6
0a
06
f9
ff
18
e8
10
06
fe
25
03
31
e1
eb
09
fa
f0
db
c7
b8
d5
f7
cf
c7
16
28
40
06
99
f7
e7
0d
c8
fa
28
21
ee
1d
14
08
0f
da
e9
ff
04
29
05
2c
19
ec
1b
f0
00
09
f6
ff
1e
41
0b
f8
ea
f8
b6
09
ec
e6
0d
1e
05
ef
ee
f6
f5
f8
fa
19
16
f6
c7
c1
e4
f8
11
c3
ef
0d
24
08
29
05
0b
f3
3a
37
22
ec
0b
35
03
fb
01
45
f8
ed
f9
07
0b
3e
d4
d7
bc
21
1b
d7
ef
f5
04
ff
ed
f5
09
f0
23
fb
08
fe
ef
0a
19
f3
da
dd
02
24
fc
fb
ed
04
0a
f6
f2
ef
fc
14
08
ba
1f
f3
f9
f9
0f
d7
06
e5
01
01
40
11
e9
f5
f5
09
f7
db
fc
16
4e
fd
35
fd
06
0f
df
1e
ee
0a
4f
14
0b
e9
0f
e2
ef
24
10
f1
da
e2
e1
d5
1c
e4
50
28
29
d0
e8
ed
df
26
f8
f1
24
e9
20
15
dc
10
d9
e7
1d
fb
0f
25
f6
f8
da
0f
09
21
30
0d
e2
f1
fc
d5
17
08
25
f6
dc
fc
e4
02
07
1a
b5
00
dc
f7
19
f1
18
dc
1c
1d
1e
02
0a
20
f0
e0
de
55
d7
df
e9
f3
f0
00
f7
e2
11
43
fe
2d
26
06
cd
f8
e7
c0
f4
cf
d0
12
15
0c
25
e4
da
03
f8
ee
f2
b7
43
d6
20
cb
22
d0
14
d1
25
27
f1
19
e8
c9
ed
01
1c
d9
bb
fa
ca
ed
c8
0d
fd
18
02
e1
03
18
00
c7
07
13
3d
05
1c
db
17
de
d0
db
df
20
e8
e8
ed
d6
20
e9
cc
2c
cf
d9
09
13
eb
f8
e0
e6
18
e1
0d
ff
23
fb
2b
ef
0d
0e
f5
e5
ed
fd
1e
0f
ed
02
d1
df
f6
c8
10
e1
cb
11
ff
d9
d2
f3
f8
11
23
25
de
23
db
0b
16
e8
e9
36
2d
d8
0d
e2
f5
06
f4
ff
02
06
22
ef
41
f8
06
ee
fe
00
31
f9
06
ef
e2
fd
11
0a
ff
d3
f9
ed
1f
0e
38
29
09
e2
33
f4
0a
00
e0
f2
01
1f
e3
c9
32
e8
15
25
ea
f3
c5
f7
2c
24
e6
15
10
02
f9
ff
e8
14
1d
f0
2f
02
28
0a
f0
f0
3b
d6
06
16
0f
06
e1
f7
e7
28
fb
ec
f2
33
f6
00
00
00
00
00
00
00
00
00
00
00
00
00
00
00
00
00
00
00
00
00
00
00
00
00
00
00
00
00
00
00
00
00
00
00
00
00
00
00
00
00
00
00
00
00
00
00
00
00
00
00
00
00
00
00
00
00
00
00
00
00
00
00
00
00
00
00
00
00
00
00
00
00
00
00
00
00
00
00
00
00
00
00
00
00
00
00
00
00
00
00
00
00
00
00
00
00
00
00
00
00
00
00
00
00
00
00
00
00
00
00
00
00
00
00
00
00
00
00
00
00
00
00
00
00
00
00
00
00
00
00
00
00
00
00
00
00
00
00
00
00
00
00
00
00
00
00
00
00
00
00
00
00
00
00
00
00
00
00
00
00
00
00
00
00
00
00
00
00
00
00
00
00
00
00
00
00
00
00
00
00
00
00
00
00
00
00
00
00
00
00
00
00
00
00
00
00
00
00
00
00
00
00
00
00
00
00
00
00
00
00
00
00
00
00
00
00
00
00
00
00
00
00
00
00
00
00
00
00
00
00
00
00
00
00
00
00
00
00
00
