04
fd
c2
f0
5c
0a
e2
09
ef
26
32
2d
d5
35
d3
e4
2f
e7
d5
cf
3f
01
df
c9
0f
e1
f3
1b
0d
09
da
f5
f4
11
dc
e8
ea
c6
e4
f2
1e
08
e0
14
0d
e9
22
e5
03
f8
f1
e6
de
0d
48
25
f9
e1
e8
f9
25
f6
29
03
08
04
1e
05
e9
33
07
fe
03
08
29
e5
cc
00
ca
13
ef
02
f9
09
f1
ee
02
11
1e
23
e4
15
cc
f1
1f
fa
08
1a
13
16
39
02
1a
29
35
06
ec
19
fe
02
ff
da
31
f1
d5
d6
f9
07
f3
1c
0b
22
23
3a
f8
0d
0a
24
f9
2e
ea
f5
f3
18
ee
f8
db
14
ee
fe
33
ee
2d
fe
11
20
f9
05
1f
0e
09
01
18
28
10
35
0b
04
26
0a
ea
ed
0c
0a
ec
18
06
ee
f9
e1
18
01
c7
d5
ec
ff
1a
10
e5
19
ff
dd
11
00
10
36
19
ed
f3
15
21
df
f4
f4
0e
2a
df
ed
13
3a
ef
32
eb
fe
39
11
00
e8
03
fc
25
fc
20
36
07
13
d7
09
f9
fc
11
06
2c
20
fa
0a
0d
f6
c7
ce
e0
c3
e1
d5
e5
25
f4
11
f4
1d
da
f1
ff
36
f8
0b
f1
0e
10
26
f1
d9
f2
e2
03
2c
1f
ee
d7
2f
ec
01
d6
e6
07
1b
05
f0
26
d7
e5
2b
0c
ef
fb
1e
46
0b
de
d3
04
07
f4
ed
ff
f2
07
fe
39
e4
27
1f
ec
fd
ed
c6
07
fc
13
0e
ff
d9
f5
e9
eb
f1
06
07
eb
e4
0e
11
0c
17
f6
13
05
ed
11
09
ed
f9
ef
10
cd
00
e7
17
dc
fe
f8
2c
f9
db
34
03
dd
c1
1b
f7
cb
f6
06
ea
fe
0a
2a
11
f4
cd
13
f6
d8
02
df
ff
f2
03
f9
0e
d6
04
04
e4
05
0a
1c
fb
2c
f0
f3
24
0d
f0
01
0d
17
2b
d4
ff
00
df
0f
fd
30
2c
07
08
f8
e2
3a
0a
48
06
0b
1c
1b
5f
e6
ed
f6
2d
04
1f
f2
01
19
fb
fd
1c
1c
0d
c8
f5
00
de
f3
0e
f7
16
ea
36
fc
ef
d5
dc
e4
e0
dd
fb
14
f2
03
03
03
e4
d5
07
be
0b
d7
ea
12
02
f0
f5
f9
02
0b
dc
ce
32
ef
1f
ef
de
df
fe
18
02
0e
e5
28
09
0e
3a
eb
19
eb
d0
f0
0c
ec
fd
fd
05
cc
0a
f3
0e
ea
25
e0
1e
f7
10
f6
02
fe
f3
09
f7
0c
c1
1b
e9
2b
0f
ea
d1
33
15
e6
14
f6
03
eb
0d
ec
14
05
e8
ff
03
17
05
fe
0f
f7
16
fd
dd
05
ca
07
07
1a
01
47
09
ee
f4
ff
fc
12
f1
ee
d8
0e
16
18
fc
2f
f4
ef
fa
ec
f6
d6
04
01
29
fe
f0
09
f4
0c
f6
e5
18
ce
da
00
f2
28
f7
e1
f6
10
fc
11
e4
18
ba
15
ea
13
08
16
e6
00
ec
33
10
ed
cf
f2
f2
ff
33
0e
c7
12
14
11
f3
17
4f
05
dc
0b
07
14
00
e2
d0
08
fe
15
ca
22
3d
03
25
00
19
11
ef
08
ea
f6
fa
f6
f1
df
ed
f1
e9
00
38
11
f0
de
25
fa
00
23
27
19
08
fb
1d
b1
d9
0b
f4
cd
d3
e3
de
ec
f7
18
41
0a
f3
01
07
07
06
39
ec
cc
2f
d4
f7
cf
01
e7
04
0b
0c
0d
cd
1b
12
fc
e9
f1
2b
ef
fa
f5
fe
24
d5
17
fd
01
17
09
08
1d
ea
dd
ec
1d
32
14
10
df
cb
f1
ce
29
da
dd
ff
18
ea
0a
1b
0f
e9
f3
f3
fb
2c
18
fe
15
16
08
f2
f1
f1
0d
02
36
24
f4
d7
eb
e4
00
05
f8
25
18
ee
fa
e9
f6
f4
14
01
d0
1e
27
ed
22
fe
d4
05
c7
21
c3
19
12
f1
f5
e9
d5
18
18
e2
d5
1a
da
1c
0f
fc
16
1a
29
1a
e0
02
d8
e7
1e
13
d8
de
00
00
00
00
00
00
00
00
00
00
00
00
00
00
00
00
00
00
00
00
00
00
00
00
00
00
00
00
00
00
00
00
00
00
00
00
00
00
00
00
00
00
00
00
00
00
00
00
00
00
00
00
00
00
00
00
00
00
00
00
00
00
00
00
00
00
00
00
00
00
00
00
00
00
00
00
00
00
00
00
00
00
00
00
00
00
00
00
00
00
00
00
00
00
00
00
00
00
00
00
00
00
00
00
00
00
00
00
00
00
00
00
00
00
00
00
00
00
00
00
00
00
00
00
00
00
00
00
00
00
00
00
00
00
00
00
00
00
00
00
00
00
00
00
00
00
00
00
00
00
00
00
00
00
00
00
00
00
00
00
00
00
00
00
00
00
00
00
00
00
00
00
00
00
00
00
00
00
00
00
00
00
00
00
00
00
00
00
00
00
00
00
00
00
00
00
00
00
00
00
00
00
00
00
00
00
00
00
00
00
00
00
00
00
00
00
00
00
00
00
00
00
00
00
00
00
00
00
00
00
00
00
00
00
00
00
00
00
00
00
