ab
0d
17
06
06
03
19
db
05
ee
08
07
29
26
e3
1f
17
fd
ea
03
1c
f4
1b
06
06
f5
20
ea
fe
f9
08
2f
13
17
e3
03
15
34
fd
eb
1a
1a
23
11
02
e8
53
0f
f7
0b
1f
16
0f
d9
ff
e3
12
1c
03
e8
ce
03
f4
0a
28
fe
f8
f6
e6
f5
15
fa
0e
ad
e4
f8
fd
f8
f4
ff
04
11
11
08
20
f4
e2
12
da
bd
ee
e2
ff
1b
13
e8
02
01
08
f5
f4
d2
25
e7
f1
33
e4
00
f5
fd
02
e8
d4
f8
ee
07
23
cb
fa
fd
2d
e9
c9
35
25
f9
03
4b
06
2f
d2
e5
d7
18
05
0e
10
11
e1
f4
3b
ca
f8
ec
17
0f
d9
1a
0b
bd
c2
01
28
f1
f3
bb
de
37
e4
1b
1e
03
06
f5
fc
13
ee
22
b5
fd
28
03
eb
2e
ef
01
ea
fb
14
06
30
fc
1b
fc
f4
fd
ee
d9
e4
3e
09
c8
d6
fa
1f
10
e5
0b
1b
0a
f3
06
00
da
22
e2
0b
19
d6
2c
ee
14
dd
b6
d1
22
cc
eb
fe
13
ea
0a
e3
17
09
f3
03
0d
df
f7
ee
b2
11
e9
f6
d9
ba
07
f5
02
ee
c8
e8
21
1c
00
14
d2
34
f4
f9
f8
21
ff
fc
06
f5
ff
00
22
22
ec
00
2b
03
0a
11
ec
02
11
c8
f5
0f
18
02
d4
fe
29
f4
f6
0d
d9
f1
f7
fb
0b
db
23
fe
fc
2e
20
ce
fd
0e
fe
09
23
ee
bd
d3
2a
fa
d8
e6
dc
d7
fe
fd
03
27
cf
f3
10
ef
f6
d3
1d
e5
dc
f5
cc
d0
1c
cf
08
c1
2f
0e
f6
e8
03
16
1f
32
02
41
2a
0c
02
47
0b
17
26
ea
e7
d7
e8
dd
06
d1
09
18
e8
c5
00
e0
2c
0f
27
13
0e
f5
2a
e6
0c
02
f1
d7
21
2f
f1
09
e7
4b
0e
16
01
39
02
f1
f6
35
f7
ba
e0
da
d9
df
e3
f9
0d
1a
16
1a
f6
d4
f9
d9
25
d0
f4
08
1b
dd
f0
eb
e4
0b
f4
f2
06
f7
ea
22
e7
d2
ea
25
c2
08
ee
e1
0d
34
1b
f4
f0
d6
f8
06
28
15
02
f7
31
d4
e1
14
14
be
dc
2c
df
fc
05
29
db
2e
fa
23
22
15
fd
21
08
f7
1f
d4
04
d5
ef
1e
f6
1f
e0
f6
0c
e1
ea
e4
d8
f2
e9
d9
08
bc
de
08
d6
21
ce
e2
fd
da
e6
25
07
fb
00
03
f8
e8
f9
ea
d4
eb
10
f6
ef
e5
f7
3a
fd
f8
e4
f5
26
fe
05
2f
e5
11
f9
3f
04
e6
2c
eb
eb
05
00
11
06
0a
32
2a
08
0a
02
bf
f5
0a
0b
09
16
09
fe
04
16
eb
e9
e9
de
27
08
02
e6
df
ed
fd
37
0a
e9
f1
1d
df
ef
e9
fe
f2
01
f4
f2
df
dc
38
03
03
fd
15
09
0b
05
d5
d5
15
18
02
f1
fa
01
00
03
21
f0
12
14
fd
01
62
1a
26
e2
25
fd
0d
06
d9
17
c2
f1
fa
18
16
d1
cb
f3
ed
01
eb
ff
d7
00
00
f8
06
17
06
05
04
e9
e9
ed
dd
eb
fc
19
04
01
1a
1d
c6
03
20
f1
e9
00
0b
f7
e3
d8
ec
0a
dd
1a
04
10
2a
2d
ef
05
0b
20
db
ff
06
01
0c
df
19
12
0b
c3
11
d9
dd
02
f2
05
30
be
0c
e8
13
11
df
f0
1a
f2
3b
da
13
1f
ef
25
08
f7
0e
2b
08
c8
30
16
05
08
0f
06
ec
38
13
1b
00
bb
fa
09
03
d3
2a
12
42
d0
17
08
37
17
ee
ea
f7
e6
fd
b5
b8
c8
02
04
e1
ff
da
fb
fc
0d
25
e8
2e
07
2e
fc
10
d1
c7
3a
18
df
ed
ea
c0
03
dd
22
fe
0b
11
17
1c
e6
f4
10
e9
06
e4
ea
08
e5
4e
13
11
df
2d
07
2f
25
0f
fc
da
2c
f1
ef
e4
d0
d3
37
de
f6
00
00
00
00
00
00
00
00
00
00
00
00
00
00
00
00
00
00
00
00
00
00
00
00
00
00
00
00
00
00
00
00
00
00
00
00
00
00
00
00
00
00
00
00
00
00
00
00
00
00
00
00
00
00
00
00
00
00
00
00
00
00
00
00
00
00
00
00
00
00
00
00
00
00
00
00
00
00
00
00
00
00
00
00
00
00
00
00
00
00
00
00
00
00
00
00
00
00
00
00
00
00
00
00
00
00
00
00
00
00
00
00
00
00
00
00
00
00
00
00
00
00
00
00
00
00
00
00
00
00
00
00
00
00
00
00
00
00
00
00
00
00
00
00
00
00
00
00
00
00
00
00
00
00
00
00
00
00
00
00
00
00
00
00
00
00
00
00
00
00
00
00
00
00
00
00
00
00
00
00
00
00
00
00
00
00
00
00
00
00
00
00
00
00
00
00
00
00
00
00
00
00
00
00
00
00
00
00
00
00
00
00
00
00
00
00
00
00
00
00
00
00
00
00
00
00
00
00
00
00
00
00
00
00
00
00
00
00
00
00
