d9
f7
f6
c9
dd
18
29
10
13
23
e6
eb
01
0c
0c
e7
0e
ff
f6
12
f9
dc
3e
01
23
0a
16
3b
eb
dc
f1
f3
0f
ef
e7
de
06
10
28
f6
16
21
d8
18
25
1c
01
02
fb
4c
fa
28
ed
e9
ef
cb
c0
17
fa
fb
ed
e3
f9
02
e1
f9
12
0d
ee
3e
fd
f0
01
13
f1
17
cd
e7
2c
d7
12
19
ee
0b
9f
e7
07
d8
2f
2c
c8
4f
0b
e0
2c
d3
f6
2c
19
21
34
ea
06
e6
32
fa
f8
26
19
0c
0f
e2
25
0e
f4
21
f0
06
11
ee
24
e8
06
09
fd
f9
3d
0f
e5
e0
db
0f
ee
e5
e6
28
13
fe
4b
19
dd
e4
f7
0d
fa
e5
f5
22
0c
04
03
f4
ff
e6
fe
0b
3a
d9
d0
16
d9
f9
00
e4
0f
20
e7
16
ee
08
01
e5
12
32
0c
ea
f0
2f
27
ff
da
05
1c
f6
1b
09
ec
e4
21
0a
01
e3
0b
ff
11
ff
e5
17
0b
0a
13
b7
13
02
ec
09
af
1f
fe
0c
fa
12
06
f6
f3
00
00
ee
0c
40
f5
16
ff
fe
d9
04
fe
fe
04
35
12
e3
05
0d
0c
05
b7
00
d7
ea
c5
df
f0
de
07
f7
0d
f4
ec
02
0c
30
2e
f2
df
31
0c
22
3e
0e
12
11
eb
0e
3e
27
ff
e4
f2
08
d0
07
bd
0c
c6
f1
14
eb
44
e3
e6
01
29
49
f5
de
08
d2
ee
1a
fe
1f
dd
f6
e6
1d
fb
ed
e4
09
f6
fa
f0
03
1a
38
28
f4
23
c3
41
44
c2
11
f1
21
22
e9
dd
fa
d0
01
21
e6
fa
2c
ee
e2
05
20
05
f0
fb
24
06
07
0a
07
22
21
ed
ed
0d
f6
03
06
59
de
0e
dc
21
e8
f5
c6
d2
fa
31
ec
ee
c0
10
14
f3
05
f3
0e
05
00
fd
02
f6
01
f0
05
da
bb
f9
dc
e7
01
fa
16
eb
02
12
2e
dd
c3
f2
12
1a
fb
07
32
16
43
10
fc
fc
d4
d5
d2
06
f6
02
03
20
05
00
00
fd
00
29
19
c4
c8
df
ed
fe
09
f2
0a
df
26
e9
e5
11
fe
04
f8
fd
15
c8
18
0a
df
e9
30
22
fc
02
3c
01
f4
eb
e8
d0
e5
0f
e6
05
3e
bf
2d
14
fc
ea
0f
f5
fb
ee
d5
f1
fa
06
05
0e
f8
d5
21
0b
14
1b
fb
0d
ea
fb
fb
1f
da
c1
12
16
ee
b8
40
ec
f7
fc
1a
21
0b
31
d5
f9
08
15
0b
02
03
ef
0c
2f
09
15
de
15
f1
e7
1f
d3
0f
de
f4
00
19
10
12
fd
d0
fd
04
38
ea
03
c5
fd
05
ea
d3
e4
f3
1e
12
08
d8
f0
f3
cb
e8
0b
f2
ff
0a
0a
1e
17
0b
35
22
e5
dd
0a
09
f0
05
07
f7
01
0a
11
19
de
1c
03
23
fe
07
fe
f0
f6
00
cc
e7
fa
d2
f4
00
d3
ae
04
c8
f5
1f
d2
de
03
02
06
36
04
26
ea
05
d7
1f
f9
0a
21
ed
be
c0
17
dc
f4
12
fa
d4
ea
11
c8
0a
13
f3
09
fe
d3
08
d6
e3
37
35
0c
1f
bf
fd
04
f8
08
13
e6
0b
2a
14
26
14
0a
db
0b
f1
0b
fa
df
de
f3
0b
23
dc
d8
17
01
e1
0e
25
d8
0c
f8
07
03
1c
2d
0a
1c
fc
0f
ea
fc
e2
f4
1b
e4
f8
f8
d7
0d
23
22
dc
dd
0a
10
a7
fb
f6
0f
ec
1a
da
0f
2e
04
1c
2d
fd
16
0b
f5
09
05
f6
de
09
12
07
df
cb
20
0c
17
de
d5
05
1e
d0
f2
f6
2c
15
f1
0f
f0
09
01
d0
d6
00
ff
12
f4
ea
c2
df
11
e0
f7
e9
ed
22
f5
fd
ed
eb
17
d6
20
25
13
0b
23
d8
2a
f0
07
0d
0e
fc
1f
38
14
ea
05
d0
15
b1
19
e5
3b
32
f0
d1
22
2c
12
f9
2a
f8
e5
e4
eb
f1
e8
17
33
24
00
00
00
00
00
00
00
00
00
00
00
00
00
00
00
00
00
00
00
00
00
00
00
00
00
00
00
00
00
00
00
00
00
00
00
00
00
00
00
00
00
00
00
00
00
00
00
00
00
00
00
00
00
00
00
00
00
00
00
00
00
00
00
00
00
00
00
00
00
00
00
00
00
00
00
00
00
00
00
00
00
00
00
00
00
00
00
00
00
00
00
00
00
00
00
00
00
00
00
00
00
00
00
00
00
00
00
00
00
00
00
00
00
00
00
00
00
00
00
00
00
00
00
00
00
00
00
00
00
00
00
00
00
00
00
00
00
00
00
00
00
00
00
00
00
00
00
00
00
00
00
00
00
00
00
00
00
00
00
00
00
00
00
00
00
00
00
00
00
00
00
00
00
00
00
00
00
00
00
00
00
00
00
00
00
00
00
00
00
00
00
00
00
00
00
00
00
00
00
00
00
00
00
00
00
00
00
00
00
00
00
00
00
00
00
00
00
00
00
00
00
00
00
00
00
00
00
00
00
00
00
00
00
00
00
00
00
00
00
00
