15
06
11
2a
09
e8
0a
df
f9
fc
ca
e8
08
d5
05
f7
fa
f9
db
2f
3a
1f
f4
08
e3
d3
37
fa
ad
ff
29
fe
bb
e3
e0
e2
39
c4
c7
db
ec
1b
09
28
e3
b1
f2
a9
b2
dd
d3
20
1c
5e
36
e3
1e
ed
18
0a
06
21
fc
0c
1a
20
08
f5
f0
e5
ed
32
f4
30
37
01
ea
26
05
10
ed
fc
fe
ef
d0
d2
44
2d
19
08
0b
07
c5
f4
f1
e2
0d
d5
00
e3
f5
f8
3b
ee
ee
d6
d4
c8
2e
0f
00
33
f2
25
1b
e6
ec
0f
22
f2
42
16
1c
46
ec
14
f7
c7
