15
c3
dc
00
e5
d8
f8
cd
e0
24
e0
f5
33
de
19
e2
f9
02
1d
ed
e6
f3
11
31
11
f2
4a
29
ef
13
dc
2f
26
11
f5
e7
0c
f8
e3
e5
ca
c6
04
e3
1e
f6
34
ea
d8
03
c9
61
15
f2
d9
dc
21
ff
ef
10
d0
08
f9
e0
1f
27
c7
e3
f4
ae
f0
1b
f7
16
2e
d7
ec
02
fe
1a
e9
0a
90
0f
ff
16
1d
f3
0d
12
05
e4
03
15
b5
df
02
d9
d0
1b
e4
e3
3b
ff
2a
0e
0b
29
fb
fa
d1
0b
07
f5
0f
11
12
c7
28
e5
e7
40
e1
13
35
dc
00
03
