c0
e0
12
f3
32
e6
f9
29
b4
0b
e7
22
15
f8
14
02
fb
1f
d2
10
ee
cb
22
09
27
c9
f7
ef
16
ee
13
eb
f8
d6
36
06
e9
16
20
27
d9
d5
0c
1a
c5
fb
03
e8
f0
0b
f7
2e
00
13
bd
f1
2e
0e
0a
e2
0e
e1
df
27
f1
f2
48
1b
02
f8
27
1b
37
02
fa
e7
0a
0d
f8
e7
03
16
02
0e
eb
10
fb
f0
0c
1f
2d
3b
f7
20
fb
e7
51
13
15
1c
f8
12
09
dd
db
f9
b3
c5
e5
fe
de
da
e6
0a
f8
00
ed
00
0e
ff
1a
d7
0c
f6
1e
1e
2c
01
d6
de
07
e9
ce
f8
ee
2c
e4
ea
00
e7
e1
e3
00
e3
1b
25
0c
27
fc
19
d0
28
ff
09
f2
f9
38
e5
f4
f8
2d
09
f3
f9
e2
3e
ee
e9
14
db
e0
00
04
f8
ea
18
08
1e
1c
e2
2d
39
0a
dc
f7
04
25
08
2d
0a
fc
24
fd
e2
06
b6
ec
ef
c8
ec
10
25
13
f7
0c
fb
fe
e2
fe
13
28
1b
1c
0d
14
e4
0c
ee
10
17
10
fb
09
f0
e2
d9
f9
e6
01
28
e3
f9
c3
0c
e1
23
ca
f8
00
36
d5
ef
1b
16
14
ea
de
09
e6
05
0b
f8
19
eb
ea
0a
0c
33
1c
11
1e
23
0c
ff
33
1f
12
4e
da
e1
0c
10
d5
0b
09
f5
08
2d
ee
d2
14
12
f3
1e
2c
f3
f5
2e
12
e3
fd
0c
02
0e
e8
ee
f0
f0
ee
e7
1f
24
fc
0f
0d
e6
28
0d
03
11
11
15
23
ed
15
e3
01
06
e0
19
df
c2
fe
14
f0
f8
d2
1b
ef
1a
f4
d8
e7
e4
e2
e9
fc
dc
00
f1
0a
1b
e5
0c
b2
02
06
00
ee
cd
f6
01
07
f4
e4
0e
10
02
0c
e3
00
fc
02
07
3e
28
1c
eb
0b
e0
c4
fb
13
ea
d3
fe
e9
24
ed
e3
d6
21
d9
f4
ea
e0
eb
ec
fc
0f
1d
14
0f
13
18
0d
e5
ea
da
09
ee
f6
01
e7
f1
f6
fb
e6
f4
c5
fa
f2
f9
d9
fb
e4
15
1a
eb
e0
08
ee
05
e2
12
ed
30
2e
24
fd
14
41
04
29
ec
0e
12
c1
df
c9
e3
f0
0e
e4
0c
29
2c
c9
0b
16
00
09
01
fd
fe
00
55
16
f4
1f
29
09
00
d9
37
eb
fe
d3
05
08
c5
12
ea
fc
ed
3b
fd
c8
e2
a6
03
cf
10
04
00
fb
21
07
00
04
d5
05
0d
d8
18
12
f6
0f
fd
e3
ec
11
e5
04
f0
29
35
07
0e
15
17
d6
f5
46
11
f2
00
d5
ef
fa
ec
fe
ef
07
18
07
f7
f6
2d
13
c9
bd
13
0b
fc
f6
19
c8
de
de
04
0e
11
f3
f6
09
2e
e5
0f
fb
07
14
db
c6
c4
12
02
28
29
17
ee
d9
02
08
d8
f8
ec
0a
f0
01
26
e9
2b
f4
04
0d
19
09
f2
f4
0a
00
10
fd
e6
00
f7
22
16
f2
ed
e4
0a
e7
2b
e2
fa
25
2d
1d
f3
e9
f1
21
25
0d
35
dd
df
1d
0a
1e
e1
23
eb
02
ee
f8
00
36
e9
09
fa
e9
b9
0d
1c
fe
e5
27
d4
f5
0b
00
f0
31
1b
fe
23
dc
d8
22
17
f3
18
db
f4
0d
ff
fa
00
f7
f5
1c
fa
c7
19
27
16
fe
cf
e8
fd
23
00
e7
f2
e9
25
e3
35
f6
05
18
30
27
fb
03
f9
f4
00
01
19
17
de
25
23
d7
20
f4
ed
0f
da
1f
f8
e8
e4
b7
e5
0d
15
d0
01
08
ce
f7
52
d5
e9
04
25
15
19
05
3d
13
e0
17
13
1d
09
f7
fa
1e
e9
11
19
e0
35
c8
18
e5
dc
3a
e4
39
e5
2d
15
11
03
31
e0
df
fd
ff
2c
35
e9
f4
ed
13
2d
fd
29
fd
02
17
e1
07
ed
db
09
ec
e9
2c
18
d5
f7
d9
05
e5
d1
07
1d
ce
08
03
e1
e2
ed
f8
e0
07
00
00
00
00
00
00
00
00
00
00
00
00
00
00
00
00
00
00
00
00
00
00
00
00
00
00
00
00
00
00
00
00
00
00
00
00
00
00
00
00
00
00
00
00
00
00
00
00
00
00
00
00
00
00
00
00
00
00
00
00
00
00
00
00
00
00
00
00
00
00
00
00
00
00
00
00
00
00
00
00
00
00
00
00
00
00
00
00
00
00
00
00
00
00
00
00
00
00
00
00
00
00
00
00
00
00
00
00
00
00
00
00
00
00
00
00
00
00
00
00
00
00
00
00
00
00
00
00
00
00
00
00
00
00
00
00
00
00
00
00
00
00
00
00
00
00
00
00
00
00
00
00
00
00
00
00
00
00
00
00
00
00
00
00
00
00
00
00
00
00
00
00
00
00
00
00
00
00
00
00
00
00
00
00
00
00
00
00
00
00
00
00
00
00
00
00
00
00
00
00
00
00
00
00
00
00
00
00
00
00
00
00
00
00
00
00
00
00
00
00
00
00
00
00
00
00
00
00
00
00
00
00
00
00
00
00
00
00
00
00
