29
3a
04
f5
2c
c9
08
a5
dd
17
e7
d4
0e
ef
34
0d
da
e2
f8
8e
12
fe
09
32
f5
01
3a
eb
fd
fe
0b
f4
d9
05
d7
f7
f9
ff
ca
ed
07
37
23
29
13
ed
d5
44
11
23
3b
e5
c7
d1
e5
14
ec
18
1f
d4
19
0b
c3
b9
ba
e4
14
fc
f5
03
09
d2
fb
cc
f7
e4
13
9e
ff
08
df
17
12
f5
18
06
ee
da
da
33
ed
1c
13
da
da
d5
04
0f
07
10
ec
fd
27
be
ee
1d
cf
05
e2
37
21
c7
15
f9
b7
f6
df
10
df
f7
03
e0
f7
01
f6
e4
d0
d8
