00
e3
fc
e5
f4
0d
e8
f6
15
12
c2
b6
06
f6
0f
d6
07
24
44
23
22
f7
d8
e4
23
dd
27
30
dd
d5
02
06
e7
0f
f3
02
27
f2
19
d8
16
f2
18
e6
db
11
fc
f2
21
43
c9
f5
02
19
00
0a
e7
13
c8
36
53
f9
00
fa
e2
c5
41
0b
12
31
2d
eb
a0
b5
fc
f2
27
1e
bd
24
fa
2c
1d
ca
16
06
1d
f4
f9
1d
d0
dd
1f
cb
eb
25
08
fe
d4
35
d3
0e
1e
16
44
0b
09
3d
fd
dd
23
1a
b8
07
eb
f2
fb
f1
08
ee
0b
f4
e8
e1
f7
fe
fe
ce
