fc
1d
fa
05
ed
13
19
d5
08
e1
3f
11
e5
05
09
03
0a
0c
12
06
f9
13
26
ea
f7
09
22
02
e2
01
02
f9
4c
02
28
05
f5
cd
e4
16
c6
01
f3
1f
f0
08
f9
1e
fb
ee
e2
07
f2
f4
ee
2b
03
06
ef
ff
10
e6
19
09
ee
17
e0
0b
0b
f4
f5
e7
0f
13
09
27
dc
e2
fa
08
32
fc
d8
22
f7
d8
2e
fa
13
a0
ff
00
25
05
fd
21
2c
e1
2a
fe
ee
fb
e9
16
05
e5
28
fb
e7
e5
f7
ef
fc
c5
ed
ff
f7
0d
f3
0b
e4
21
ef
e4
24
f7
e4
f0
e6
e4
ee
fe
1f
e8
30
0a
e9
1f
f2
c9
16
23
01
17
58
07
fc
28
13
05
27
c9
00
e6
f2
0d
ee
e6
1e
f6
e7
1f
16
ed
23
11
0f
f3
23
f6
04
fb
ce
29
13
21
f6
0c
fa
ea
00
22
08
e3
3c
00
0d
f2
13
cc
1e
db
f4
ff
ed
03
f3
02
c2
2d
2e
d3
d7
0c
01
21
e5
38
09
ec
49
26
05
ee
11
23
0a
01
15
fc
a3
d0
f9
f2
29
ff
fe
f2
b8
2a
07
ee
13
f5
db
17
b8
ca
12
21
fa
0e
e9
d2
12
ca
0c
f8
d2
05
1e
e8
06
f7
08
15
00
0e
f3
fe
11
12
07
0e
2c
02
f0
eb
fd
e3
00
2f
fb
21
e8
fd
03
f3
30
27
07
0b
2d
ff
e8
da
de
d5
12
31
c8
f1
17
e9
f0
1e
e0
08
df
f2
e9
0a
fa
26
ba
02
fd
d7
ff
08
06
f1
d8
f0
d3
0f
32
d1
ed
e6
16
fb
db
d4
fb
f6
e2
f2
0c
1d
d1
2c
fc
fb
04
0e
08
10
dc
28
09
d5
f8
dd
ec
05
fa
27
c9
f0
1e
e6
0d
ef
0e
e1
08
02
2e
25
03
e4
e1
2b
21
07
10
06
ee
00
12
cd
1a
ef
cd
00
21
0d
f0
02
0b
e8
eb
f7
29
0f
db
e2
f7
e8
cc
12
17
14
2e
17
d9
28
ff
fd
01
fa
f0
d4
55
0d
14
07
08
22
c9
dc
06
14
03
ef
2a
1e
0a
ed
22
de
33
e0
dd
0c
f7
f6
dd
13
d6
e7
04
e5
19
03
e8
0c
03
fd
ef
f4
f7
c8
39
11
04
40
3f
01
dd
51
0b
f6
03
e7
ce
1b
f8
d7
f8
04
0e
2a
30
a2
1e
a4
f6
01
f5
0d
de
ed
4e
cb
f0
c0
f4
f3
cd
ea
11
25
2b
ff
f3
d6
e4
e4
b2
ea
0e
0f
2e
d0
ee
3f
ec
e3
02
da
fb
20
ef
e6
ec
ff
c9
13
f6
06
05
dd
e5
09
ed
ea
0a
08
22
0e
14
f5
be
f8
fb
f3
25
d7
f1
3d
f8
1a
05
cd
1c
0b
ef
bf
e2
d3
f9
2b
fd
f1
e9
0f
de
29
ff
ff
e1
e6
2e
00
fc
f1
1a
fc
00
ee
23
28
fb
f4
05
ef
f4
fd
d6
e8
f3
05
17
3a
ef
30
01
ef
d5
ef
0f
1c
e3
e3
e3
15
0f
e6
ce
0b
2d
fc
fd
22
19
ee
09
fe
ee
1a
e0
e1
f3
e7
fe
16
f2
12
ea
ff
d2
0d
10
2b
08
ef
03
31
2b
f5
15
d8
ea
0e
3f
f7
fe
21
f4
ef
eb
da
1c
fc
1f
13
d3
05
12
25
09
25
25
ff
f5
dc
e5
2c
46
1d
02
f8
1b
17
e6
4f
ef
31
d9
2a
df
e2
04
f1
e5
f3
c9
1e
1e
c6
42
03
f2
00
dc
f7
0f
0d
12
0a
fc
5a
f4
d8
e1
02
f6
09
dd
06
47
0c
f0
3a
f8
03
14
be
e3
3a
12
c9
24
c6
df
f6
e9
f8
ce
f6
e2
f7
f4
df
ea
1a
23
e4
1b
24
12
10
2e
1f
2d
2b
01
ca
1e
1c
e6
09
2d
f7
09
f1
d3
09
25
fb
4c
21
f3
0a
f2
12
e6
1c
fd
f3
01
44
00
38
e7
f5
f3
ff
e3
00
44
f9
e6
f9
df
08
f9
26
23
0b
16
fd
04
ec
d5
01
26
db
d8
0a
54
22
00
00
00
00
00
00
00
00
00
00
00
00
00
00
00
00
00
00
00
00
00
00
00
00
00
00
00
00
00
00
00
00
00
00
00
00
00
00
00
00
00
00
00
00
00
00
00
00
00
00
00
00
00
00
00
00
00
00
00
00
00
00
00
00
00
00
00
00
00
00
00
00
00
00
00
00
00
00
00
00
00
00
00
00
00
00
00
00
00
00
00
00
00
00
00
00
00
00
00
00
00
00
00
00
00
00
00
00
00
00
00
00
00
00
00
00
00
00
00
00
00
00
00
00
00
00
00
00
00
00
00
00
00
00
00
00
00
00
00
00
00
00
00
00
00
00
00
00
00
00
00
00
00
00
00
00
00
00
00
00
00
00
00
00
00
00
00
00
00
00
00
00
00
00
00
00
00
00
00
00
00
00
00
00
00
00
00
00
00
00
00
00
00
00
00
00
00
00
00
00
00
00
00
00
00
00
00
00
00
00
00
00
00
00
00
00
00
00
00
00
00
00
00
00
00
00
00
00
00
00
00
00
00
00
00
00
00
00
00
00
