ed
fb
0e
48
15
f2
ff
03
e7
b6
0c
3c
0b
10
f4
ee
23
c9
cc
ec
f2
5e
11
87
e6
cd
f3
df
08
0e
24
e6
cc
d4
1d
f7
18
e8
08
0b
bc
09
da
00
bc
eb
f1
15
fc
c8
a9
30
fa
c3
1d
2c
c2
f1
f8
07
f0
dd
16
d8
15
0e
4c
c2
09
ad
1a
1c
e5
bd
04
ef
f2
f0
bb
a2
da
12
50
f4
d5
e6
f4
13
bf
4d
c8
f6
bb
f8
f6
0a
ae
0d
34
df
17
f9
11
ed
1e
25
1e
3e
11
f4
4c
08
d6
40
df
22
04
ed
f7
be
04
cc
0d
f3
00
ee
2b
ed
