f5
3a
e5
4e
f4
f9
37
fc
f3
f2
d5
d3
0c
fd
df
32
10
04
f5
e8
ed
28
0e
31
c0
fb
fd
01
2f
2b
c9
39
f7
02
0e
1a
b8
cd
b4
f5
ff
37
0c
05
18
11
3d
0b
ea
e7
1a
09
2f
10
08
ce
23
eb
13
11
1b
ea
d1
2f
09
28
18
de
dc
1c
14
44
0f
e9
fc
04
1c
fc
eb
08
36
dc
19
f3
eb
da
fb
15
ed
12
02
13
0d
fd
13
b5
0f
22
fe
3a
18
d7
06
e0
07
cf
d2
2f
01
ef
23
ee
e5
e2
ea
25
d7
ca
1a
2a
fa
17
4e
e1
fc
2b
c0
f9
