d5
df
f4
08
f8
f3
fa
f8
29
d5
35
f4
17
16
1d
f6
ea
06
ff
e5
f8
fa
f6
f4
19
23
02
26
ef
20
02
18
10
fa
f6
08
04
0f
1b
26
03
f3
e1
e0
db
e9
01
df
db
f5
14
f9
13
12
e2
f5
f3
25
d9
11
db
e8
16
13
29
40
f0
e7
42
0a
28
1b
c8
18
07
fd
ee
f3
06
02
e5
f6
19
32
04
f6
0c
1f
36
0a
1b
ee
ee
d9
12
0b
07
06
04
e7
1e
ed
fe
31
c2
1e
c3
f9
fe
f9
11
cb
fa
df
2b
3d
f9
fb
f4
07
0a
48
0e
46
e8
0a
db
1d
fb
0b
fa
f8
30
14
f7
14
34
04
f8
db
f3
2c
1d
fd
17
d6
24
02
04
e1
32
fa
4f
28
09
04
fe
51
de
0b
08
cb
d9
1d
eb
e1
04
12
13
fc
10
af
fe
03
41
e5
ed
02
04
20
e1
d7
ca
f9
1c
02
d7
9f
12
3f
0c
da
cf
16
ed
10
dc
ff
db
09
f4
0e
05
ce
d1
df
0f
27
28
ef
e6
c5
0e
f6
fe
de
15
0b
f9
c7
f5
f3
eb
1a
0c
ff
fd
fd
d9
12
c8
e4
2c
f4
d0
10
fb
22
f1
e9
e5
3a
0d
0c
bd
e2
17
d8
f8
06
ab
e9
f5
1a
e3
c5
3b
ee
06
f7
04
fe
e7
1b
11
f3
21
0f
de
ee
1c
07
01
34
d6
f9
ff
15
f1
32
f5
e5
05
22
d9
de
31
24
f0
df
f9
2c
fc
ff
06
ef
00
f4
e1
0c
ee
e2
ee
03
d2
07
f5
06
14
00
ea
1e
01
05
d4
30
e6
f2
0b
f0
0c
27
f1
23
d0
f6
00
03
2f
0c
d4
1d
fa
dc
2b
f1
20
19
ea
12
07
ff
06
f7
04
fe
f6
ec
01
22
30
e4
11
05
e5
f4
23
d2
2c
cc
00
fc
0a
16
45
ea
28
c5
ff
dc
fe
22
2c
15
c7
17
f6
f7
e3
cd
fd
fb
31
f3
fd
d4
b0
f5
16
02
d5
ef
fa
f1
2e
39
f4
1b
1a
fe
04
01
28
f1
24
3b
e3
24
0f
b1
ec
f6
df
fb
41
0a
14
fb
10
14
20
1f
d8
f7
3e
2f
d8
e9
fb
22
24
d4
08
06
db
f2
12
f8
0d
f9
19
fb
2e
06
26
f0
f1
1d
e9
d6
cc
e4
23
30
ed
4e
c9
ee
07
1f
2c
0d
da
36
16
06
f6
00
0d
0d
dc
22
c4
1d
c9
d7
19
59
11
14
d3
20
eb
e4
17
d2
ff
b9
3d
33
02
f1
ce
07
ef
0a
e6
31
ff
0c
dd
17
2a
ed
1d
03
08
24
06
f3
c5
f0
17
21
07
17
06
f3
de
f1
f0
10
ff
16
f5
ee
15
f2
2a
f8
14
f0
17
23
2f
06
d7
2e
04
29
43
fd
13
dc
e1
38
01
48
f6
0d
ed
b8
f1
b4
4d
e2
1d
fc
2d
36
f9
e5
f4
08
fa
13
05
f2
01
15
07
d6
f3
ea
e3
f4
1b
e6
f7
db
eb
1c
31
05
f8
ca
1b
ce
e3
01
07
e1
c9
f3
0e
46
fb
17
f2
d6
e0
fb
24
f3
ed
1a
da
db
f7
2f
35
eb
df
1c
fc
ed
fd
ff
f4
11
22
0c
0c
fe
9e
de
dc
ff
1c
0c
cb
f9
fe
1f
e9
2d
ee
09
d8
1a
f2
15
de
1f
e3
c7
ef
15
2d
29
e7
19
f0
19
1b
01
1e
e8
c8
e4
36
e4
e4
05
12
e3
2f
25
0d
ee
a5
f8
b3
26
03
0e
07
11
e6
55
17
db
02
d2
0c
30
d5
e3
2a
e3
0f
f7
ea
fc
e4
ff
17
e8
18
29
31
00
dd
13
05
f9
15
11
1b
07
f0
e1
1c
e1
21
15
fc
2a
e2
0f
12
15
e8
f3
f6
25
1d
cd
11
21
f9
13
16
bc
1f
04
dd
e8
14
e8
ee
f5
be
0c
30
06
d0
1d
0d
04
09
14
e5
1b
18
f4
23
e5
15
e0
fb
e2
1b
d6
f3
2f
08
19
10
01
0c
fa
0d
cc
e7
f2
e8
e6
14
1b
17
0c
1b
f2
00
00
00
00
00
00
00
00
00
00
00
00
00
00
00
00
00
00
00
00
00
00
00
00
00
00
00
00
00
00
00
00
00
00
00
00
00
00
00
00
00
00
00
00
00
00
00
00
00
00
00
00
00
00
00
00
00
00
00
00
00
00
00
00
00
00
00
00
00
00
00
00
00
00
00
00
00
00
00
00
00
00
00
00
00
00
00
00
00
00
00
00
00
00
00
00
00
00
00
00
00
00
00
00
00
00
00
00
00
00
00
00
00
00
00
00
00
00
00
00
00
00
00
00
00
00
00
00
00
00
00
00
00
00
00
00
00
00
00
00
00
00
00
00
00
00
00
00
00
00
00
00
00
00
00
00
00
00
00
00
00
00
00
00
00
00
00
00
00
00
00
00
00
00
00
00
00
00
00
00
00
00
00
00
00
00
00
00
00
00
00
00
00
00
00
00
00
00
00
00
00
00
00
00
00
00
00
00
00
00
00
00
00
00
00
00
00
00
00
00
00
00
00
00
00
00
00
00
00
00
00
00
00
00
00
00
00
00
00
00
