e7
fc
13
25
c4
f6
0b
30
d1
0e
0e
fb
05
fb
23
f8
08
14
f8
d8
2d
0a
02
04
fb
0a
2d
0c
05
e2
1b
2b
f6
ff
e4
12
10
1b
db
f2
02
00
1e
0c
0a
f0
e3
e4
d0
fd
f1
0d
0d
ea
1c
1a
e8
2e
34
16
b9
ff
0d
11
f3
02
06
c5
c4
f2
e6
06
46
35
f2
14
f1
22
fc
1d
d8
ea
ef
ef
e6
12
17
00
eb
18
0b
17
0b
e9
30
f0
07
20
f2
ff
d6
ed
3a
05
02
00
e7
d7
02
27
e1
2f
0f
ec
b3
0b
07
25
02
f9
e2
2a
f3
d5
0f
c2
ea
0e
da
18
f9
eb
df
32
d1
51
b4
e3
e8
27
06
06
20
ef
07
02
2e
fb
0f
11
00
f8
f2
c9
09
28
d2
ff
08
dc
05
09
08
10
cd
13
bd
14
14
06
3b
14
1c
ef
ff
05
ff
01
fd
fc
f1
19
1c
ea
0b
26
18
f8
15
04
f0
05
04
1c
00
fd
e2
fa
05
15
e2
d6
42
f7
14
06
e1
fa
21
1f
e1
0c
e2
ee
37
d0
eb
e7
3b
0c
ed
0c
09
fb
2c
e8
fe
09
eb
06
f7
43
0f
02
12
0a
1b
0d
e0
e5
07
f8
15
17
33
f3
e9
1b
04
d1
0c
14
03
0d
ee
0f
04
18
af
06
2f
2b
f7
24
c0
24
f7
33
09
0d
fd
28
2a
23
11
f0
24
2f
f0
0f
ed
d7
23
08
0d
39
00
06
10
42
f2
00
10
2c
f8
de
ff
f7
f2
1c
c2
eb
d3
fe
fc
05
4b
f4
fb
0f
02
ec
0a
0f
f2
df
14
38
24
d7
09
1b
ba
f2
12
f9
e1
c6
17
3b
17
11
f6
df
fb
ef
e5
ff
22
01
29
0b
08
27
f1
1b
3a
d0
1f
25
19
fd
e4
21
d1
19
f5
ff
fd
21
f2
06
03
1f
fa
f1
01
c3
f6
f8
11
07
0e
4f
1e
14
1e
13
ba
cb
fa
19
10
ec
18
3b
08
e3
df
1a
ef
05
db
0b
2e
30
d9
04
00
f4
ca
13
25
1d
e3
31
d9
13
f8
10
1c
e4
e8
fa
e4
e6
df
0a
f8
15
f0
2b
f4
12
11
f3
02
0f
3b
f4
3d
1f
f9
24
ee
16
e5
13
e8
0e
c6
ed
3c
e9
13
17
07
23
03
2c
01
e1
f1
2c
e8
f8
fb
1e
18
1a
f8
2e
07
40
13
19
fa
0b
07
2b
05
1a
e9
f5
e8
f6
f7
e0
df
f2
0e
e3
e1
f8
e2
f3
2c
1b
f9
1d
d4
23
d7
0a
db
0b
1b
05
22
fd
1b
03
f7
20
d2
0f
ed
d2
17
cf
ee
14
46
52
ee
ea
29
23
5d
07
1f
35
d7
2a
e8
0e
fa
c9
13
15
fc
38
1a
f9
18
e9
de
ed
f6
ff
09
f4
f7
ed
16
03
0e
c7
05
11
f4
e6
39
26
f7
ec
e6
ff
fc
ce
26
c4
fd
0a
1e
ee
1a
ec
e3
24
f3
05
01
f1
29
e3
0a
f5
07
e9
be
07
2c
0a
e9
e7
05
06
03
06
2d
cf
f3
fe
ea
31
19
1c
ed
06
e4
0f
ea
0d
12
f9
06
f9
fb
2b
ef
d3
51
33
e9
36
02
30
06
0d
26
da
14
00
f1
dc
0f
11
fb
09
19
ec
f0
21
ef
1b
27
fe
f2
f9
fc
ec
fc
13
f6
03
28
df
de
db
1d
f3
b9
f7
f1
fa
ea
24
09
f8
21
16
00
f3
1b
e5
0c
0b
fc
0a
39
fb
04
14
05
dc
f8
fe
1d
0f
ed
25
fd
11
d5
e3
16
f8
f3
dd
f8
06
02
fc
3e
25
24
11
19
13
1a
d2
fd
14
12
13
09
16
e8
ee
02
00
32
f4
e8
08
ec
09
e1
c3
0c
0c
f9
18
11
d8
28
c8
16
fe
10
09
f4
f4
3d
1a
17
fc
eb
bf
23
0d
16
08
ec
13
ea
2b
17
5e
0a
fd
f7
05
e8
39
1c
04
19
fc
c2
24
06
f5
0e
08
1d
f8
f2
df
e1
f5
3f
4d
02
ed
26
fe
23
1d
02
02
0d
02
00
00
00
00
00
00
00
00
00
00
00
00
00
00
00
00
00
00
00
00
00
00
00
00
00
00
00
00
00
00
00
00
00
00
00
00
00
00
00
00
00
00
00
00
00
00
00
00
00
00
00
00
00
00
00
00
00
00
00
00
00
00
00
00
00
00
00
00
00
00
00
00
00
00
00
00
00
00
00
00
00
00
00
00
00
00
00
00
00
00
00
00
00
00
00
00
00
00
00
00
00
00
00
00
00
00
00
00
00
00
00
00
00
00
00
00
00
00
00
00
00
00
00
00
00
00
00
00
00
00
00
00
00
00
00
00
00
00
00
00
00
00
00
00
00
00
00
00
00
00
00
00
00
00
00
00
00
00
00
00
00
00
00
00
00
00
00
00
00
00
00
00
00
00
00
00
00
00
00
00
00
00
00
00
00
00
00
00
00
00
00
00
00
00
00
00
00
00
00
00
00
00
00
00
00
00
00
00
00
00
00
00
00
00
00
00
00
00
00
00
00
00
00
00
00
00
00
00
00
00
00
00
00
00
00
00
00
00
00
00
