e3
12
ec
08
0d
09
1a
19
fd
03
18
f9
0c
ba
d7
de
e4
03
f6
13
ce
0d
d6
03
10
0c
d9
f3
37
f0
fd
10
e2
fa
e5
02
f8
06
15
18
0b
05
10
2a
09
0e
16
e5
fc
24
e3
24
2f
0d
df
28
ac
ed
11
ea
1a
3e
00
eb
00
21
34
38
d0
08
ed
21
2c
fb
cd
f1
19
f0
ce
e6
23
e0
e5
f8
30
04
f2
c9
01
eb
0f
ed
ff
06
0b
1e
0d
dd
10
ff
e9
04
2e
1c
3d
3c
eb
f0
25
06
e9
e3
1b
08
06
20
04
f5
0a
14
17
0d
07
0b
16
0d
1e
11
f3
0a
47
2a
d4
cf
18
c8
d9
ea
02
cc
08
05
16
20
07
1f
ff
0c
1d
1f
0f
1d
ee
fd
da
20
dc
02
2b
e2
01
f3
d9
1f
de
c2
08
17
e2
d1
ea
13
1a
1a
2b
e3
d2
cd
13
0b
fe
31
01
d6
e4
03
ef
0d
d0
e2
e9
f5
12
1c
ed
e9
23
11
43
de
f4
08
0f
db
08
fb
08
d9
05
cf
dc
51
11
dd
01
f6
17
27
e9
fe
44
07
f3
e9
1d
f9
1a
15
fe
f8
e2
3e
19
56
18
ce
00
f5
f6
04
d8
1c
1d
14
0a
e3
e0
0f
f3
af
ef
1b
0f
00
26
0f
ed
da
cb
04
0a
17
1b
2d
25
0d
2a
35
0a
13
1a
24
1b
da
23
fc
f0
ef
e8
f2
01
ee
3d
0d
e1
f5
f9
ea
b5
2e
ee
de
fa
05
fb
09
d3
2e
1f
f8
0e
1e
e0
0d
0e
bd
e2
24
09
11
19
f8
dc
e0
02
27
10
05
f3
f8
9f
ee
0d
17
eb
05
07
2a
1e
f8
d9
e1
0e
2f
ec
0d
18
15
e4
df
c6
e7
db
07
32
f1
e4
ed
ef
e7
00
b4
ea
0a
01
e3
0b
06
2f
fe
e9
f1
1a
16
24
f6
e6
17
1a
db
fb
28
fe
d5
df
3c
00
00
d5
02
f9
f9
f4
06
fb
db
f4
10
e9
03
ee
1a
ef
37
39
e9
0b
0a
ea
00
eb
fa
ed
fb
d7
11
d2
0b
00
eb
f3
21
ff
f3
0d
e2
1c
ef
16
13
01
ea
0b
18
2a
ea
f7
fb
ef
05
f9
16
14
f2
b1
fc
1f
26
d9
1a
13
fd
dd
f1
da
19
08
0e
03
1b
3f
01
fa
17
ec
fa
15
fa
f2
1e
ed
08
08
f2
ea
ea
f2
0c
ed
ee
e7
0c
1f
09
18
0a
e2
23
df
25
ec
f8
17
fb
03
f2
01
09
20
f4
ea
03
f3
12
b0
e7
1d
f1
0c
e5
05
0b
f4
e5
c0
fe
0a
09
e6
00
f9
0a
14
11
e2
2c
0b
e0
fc
03
0c
fe
dd
fa
db
e9
1c
0c
ef
ee
02
01
0a
3e
fd
cb
f2
c8
f3
f9
eb
01
f1
0a
00
34
14
24
e2
05
0f
eb
fa
db
e5
e3
03
e0
23
11
e4
fc
28
e7
11
03
ed
f8
07
fa
21
ed
05
04
1a
f7
c6
df
15
25
39
f9
05
17
fc
f7
d8
0b
12
ef
03
0e
05
fc
04
02
03
de
f0
f5
0c
20
f6
21
0f
fa
e6
1b
21
fa
f4
02
e7
d7
17
ff
f6
f2
e1
de
db
e8
f3
1e
e9
27
2d
e6
fc
f5
fb
d5
0c
eb
fc
0f
11
d8
1c
fc
e9
f7
dd
04
fb
20
fb
e9
01
08
e4
1d
20
cb
ed
e9
bb
e6
dd
c7
de
13
b0
12
e6
0c
e9
2d
e8
f0
29
08
e1
1f
21
10
00
e7
0a
d7
0c
f1
0a
0e
08
e8
05
ef
24
df
1d
de
fc
0d
41
d7
f7
fc
01
ea
e5
fc
ea
04
f6
13
fe
08
13
11
e8
e2
ec
0a
fb
fd
35
e5
02
ed
20
0b
fa
9f
15
cd
dc
16
14
cf
f9
fe
15
e8
15
1f
00
27
f6
e8
01
00
e5
ef
ff
11
fd
fe
de
39
20
01
10
18
0b
f5
09
04
e9
f1
44
f4
fd
d9
04
13
f9
03
00
24
0d
e1
2f
1d
1b
3c
e6
e7
e5
04
13
e9
ff
2d
00
00
00
00
00
00
00
00
00
00
00
00
00
00
00
00
00
00
00
00
00
00
00
00
00
00
00
00
00
00
00
00
00
00
00
00
00
00
00
00
00
00
00
00
00
00
00
00
00
00
00
00
00
00
00
00
00
00
00
00
00
00
00
00
00
00
00
00
00
00
00
00
00
00
00
00
00
00
00
00
00
00
00
00
00
00
00
00
00
00
00
00
00
00
00
00
00
00
00
00
00
00
00
00
00
00
00
00
00
00
00
00
00
00
00
00
00
00
00
00
00
00
00
00
00
00
00
00
00
00
00
00
00
00
00
00
00
00
00
00
00
00
00
00
00
00
00
00
00
00
00
00
00
00
00
00
00
00
00
00
00
00
00
00
00
00
00
00
00
00
00
00
00
00
00
00
00
00
00
00
00
00
00
00
00
00
00
00
00
00
00
00
00
00
00
00
00
00
00
00
00
00
00
00
00
00
00
00
00
00
00
00
00
00
00
00
00
00
00
00
00
00
00
00
00
00
00
00
00
00
00
00
00
00
00
00
00
00
00
00
