f1
29
ef
f6
e1
04
ee
da
ff
00
e5
1d
00
28
06
54
4d
d3
28
1a
de
2a
06
c6
00
ba
13
0c
0d
14
25
1d
e5
df
1e
14
dd
48
20
e0
ca
03
f3
df
e5
10
d1
15
f8
03
0b
09
18
29
fc
eb
f3
2a
e8
f2
15
11
14
16
ed
f0
06
f7
39
1e
19
ec
14
22
ba
01
08
21
eb
07
26
f2
04
00
f3
00
f6
cf
13
f0
04
08
21
01
e2
eb
56
1a
15
f5
00
e9
f6
f4
f3
f5
12
c3
fc
15
cb
40
f5
0c
ed
f4
0c
00
1f
e2
0a
e1
19
44
21
f0
eb
fd
16
cf
ec
ea
30
f7
fc
41
be
d4
12
37
04
26
11
08
1a
e2
16
0c
fb
ff
cb
13
d6
05
de
f5
ee
d2
17
eb
16
e2
f5
13
0d
e3
06
12
0d
03
fb
e6
d4
11
0b
c3
e8
18
f9
31
e6
ce
1b
20
e6
15
08
34
b0
f9
02
f2
0a
f2
e5
f3
17
c0
de
e4
09
2d
dd
28
f2
21
35
e2
e2
f3
e4
fb
ed
16
fd
db
de
24
17
f2
10
e8
f9
3c
fa
04
2e
d4
e8
12
0a
dd
ef
27
33
fa
0a
20
19
1f
ea
02
f7
1d
f3
06
0b
fc
04
b3
39
fd
f6
08
2e
35
26
1a
e7
2e
16
df
e0
15
06
f1
27
26
ed
e3
f0
03
29
0f
c3
29
15
17
dc
ea
f7
f4
eb
ee
f3
d7
fa
f6
eb
1c
1b
d0
e5
32
01
23
29
2c
ef
09
ec
f0
1c
ef
41
e1
d0
23
00
33
f4
e6
14
f5
e8
24
db
2d
04
39
f8
36
ee
0d
19
0e
cb
e2
10
08
02
df
01
ea
31
fd
0c
f2
e7
33
02
e9
05
de
fe
25
f9
ff
43
f9
da
04
0b
30
d7
00
f4
06
2a
da
f6
f0
27
48
08
ed
ff
f0
07
f6
2c
1d
f1
f0
e2
1b
f7
d0
d4
e9
09
28
f7
fc
17
d5
fe
e3
f5
fb
2a
07
c3
fd
04
24
e5
e7
0e
04
09
35
27
df
f8
00
ef
27
05
dc
22
1a
21
f0
fe
f6
d7
ea
1c
d6
fb
0c
ed
47
f5
e4
ea
dc
df
0b
e9
1e
ec
f0
cf
fe
18
1a
08
f0
11
0b
22
f0
17
c9
e2
d8
01
e4
31
d9
d4
bf
ed
1a
2a
fa
e4
b3
d3
06
20
0c
ef
f1
0c
16
15
d0
fb
2d
04
fc
0d
37
0e
ef
18
fb
f4
1b
01
1a
fa
c6
e7
ff
0d
19
e0
18
f1
23
f7
14
11
14
f3
10
20
0d
09
f3
1a
16
16
10
ef
fd
0e
f3
07
bc
18
13
f0
ff
31
f9
e7
fe
f9
26
ef
f7
fc
0b
d5
0c
f4
10
fe
15
12
ea
ff
e3
f2
e8
df
ef
08
f8
f8
d8
fb
ce
e6
f3
0c
ef
1b
f4
ec
f1
30
07
fc
fb
23
01
f9
f0
0a
de
18
c8
e4
17
d4
f2
f0
06
cd
ec
0a
e9
df
15
b5
1b
32
d3
d4
cb
09
1f
f4
19
21
e3
f2
fa
ff
0d
0a
da
23
14
3d
d9
e7
10
02
04
33
01
e8
1e
ff
cd
1c
1a
2a
02
1d
ec
26
d5
dd
1b
f3
fd
e2
e7
0b
f2
dc
15
28
e5
0b
ea
ef
02
ed
2a
e9
fb
f5
ec
2c
fb
00
53
ff
1f
f4
13
e8
fe
32
ea
00
0e
01
dd
f6
2d
e3
17
e3
e4
f4
fa
28
15
0e
df
13
25
08
1a
f2
ff
f0
ec
f7
25
07
fa
e5
21
1f
ff
06
0c
da
23
f9
07
00
fb
25
0b
e0
f4
3e
0d
eb
0b
04
c6
e5
0a
e9
eb
2d
04
f2
ea
15
26
e7
03
45
e0
2e
33
04
ba
ee
e7
ff
fd
12
20
ef
e4
4d
1a
14
fc
0d
ee
f5
f8
27
12
d1
04
11
19
f5
f6
17
cd
e2
06
16
d5
e7
f7
1d
22
ff
09
0d
30
03
db
e4
05
f7
f1
d3
1b
f6
e8
f1
13
16
ea
00
fb
1d
d5
fd
21
fa
0b
12
12
00
00
00
00
00
00
00
00
00
00
00
00
00
00
00
00
00
00
00
00
00
00
00
00
00
00
00
00
00
00
00
00
00
00
00
00
00
00
00
00
00
00
00
00
00
00
00
00
00
00
00
00
00
00
00
00
00
00
00
00
00
00
00
00
00
00
00
00
00
00
00
00
00
00
00
00
00
00
00
00
00
00
00
00
00
00
00
00
00
00
00
00
00
00
00
00
00
00
00
00
00
00
00
00
00
00
00
00
00
00
00
00
00
00
00
00
00
00
00
00
00
00
00
00
00
00
00
00
00
00
00
00
00
00
00
00
00
00
00
00
00
00
00
00
00
00
00
00
00
00
00
00
00
00
00
00
00
00
00
00
00
00
00
00
00
00
00
00
00
00
00
00
00
00
00
00
00
00
00
00
00
00
00
00
00
00
00
00
00
00
00
00
00
00
00
00
00
00
00
00
00
00
00
00
00
00
00
00
00
00
00
00
00
00
00
00
00
00
00
00
00
00
00
00
00
00
00
00
00
00
00
00
00
00
00
00
00
00
00
00
