e4
23
e8
f9
e9
0b
1a
f8
fa
f9
c6
e5
db
01
09
13
04
f2
1b
04
06
f0
0c
f7
fe
1d
cd
20
0b
3e
ee
f0
cb
23
1d
18
f0
22
ff
11
16
15
19
f8
f4
1e
01
e3
26
fe
f7
e5
18
14
12
b9
e6
38
d1
0d
04
f0
0e
02
01
02
fe
02
23
e8
28
16
1b
f6
1d
05
de
11
e7
ed
18
f3
be
1a
2d
de
f7
1f
2b
23
27
18
ee
f6
de
f3
f4
12
1a
1d
2a
e3
e3
40
03
08
f2
eb
a6
01
ea
ee
15
4a
fc
11
d6
e8
c4
04
f7
e6
0c
df
17
03
1d
eb
25
f5
22
26
fe
1d
0b
5d
20
0c
f8
12
e8
d0
f2
d3
f0
1c
26
de
02
f2
da
f5
21
ff
22
43
f4
ff
04
10
17
f3
11
28
13
f6
d9
31
18
e2
f3
cd
0a
f7
26
10
16
d1
0b
0a
f1
f7
2c
f8
08
fb
ed
f4
f5
ef
fa
e4
f3
1c
14
12
ee
1c
e2
ea
1d
07
ef
c2
29
f5
08
ef
0d
f9
02
dc
fa
e6
07
11
ee
0f
27
f2
fb
f0
fe
b8
dd
1b
0e
0c
e5
2f
eb
12
2c
eb
14
f4
0d
15
03
dd
07
b8
30
be
09
cc
f4
eb
21
13
0d
eb
12
cc
f1
e5
d6
ff
bb
20
2d
f8
f4
f1
10
f2
ed
f9
29
09
d1
db
bc
fa
f9
f8
5f
36
e8
ef
18
17
2d
0b
fe
f3
41
14
dc
c2
e4
ea
d1
0f
43
0d
fc
dc
da
cf
08
ed
09
33
0d
1e
06
f2
d9
ec
33
31
3e
f5
f5
e1
0d
fa
08
07
20
3d
01
1f
0c
e7
28
0b
0a
f1
f9
f9
19
19
ec
05
ee
fd
fe
05
3c
c2
e4
25
ea
0a
0e
31
2e
27
10
f4
cf
f8
07
15
dd
02
e6
e6
22
03
f3
fc
e3
c9
11
ec
0e
f5
e3
4c
ff
fd
f5
f3
0a
de
2e
0b
f8
05
da
00
1d
22
03
15
07
28
0e
18
0d
01
06
06
e7
14
da
0e
f7
f4
f0
e8
19
df
2c
3f
f7
cf
10
38
0c
de
fd
f4
d5
06
14
e3
09
26
0a
d0
0d
e8
e4
09
fe
eb
0d
0e
f3
e3
e0
0a
ff
c5
f0
f0
e1
ec
39
e0
0a
16
fe
f5
14
dd
0b
fa
fa
2c
f9
06
d5
df
f3
cc
2a
dc
14
14
f3
eb
23
fd
05
01
f8
1e
e1
e5
bc
c1
f1
fa
13
d9
0b
00
da
d8
1f
0c
18
ea
c8
e5
14
0f
f4
ed
fd
48
e6
29
f2
18
19
07
fa
48
fc
32
02
0b
08
f2
0a
04
22
ec
d1
e6
ed
d5
09
20
d3
cc
f4
1d
0e
f0
1d
eb
2a
e9
18
f3
12
f9
10
0e
02
ed
ec
11
0e
14
df
fe
3d
fd
2e
f0
e7
f9
d9
ce
08
08
f7
06
16
07
23
d3
fa
07
14
f5
09
14
ff
fc
e3
e2
d5
ed
e6
12
dd
fd
f3
15
38
0d
bb
09
02
11
ef
0c
03
e8
00
1e
e7
f7
13
f4
fe
f0
0d
e3
db
f4
04
07
ed
0f
10
14
01
0b
04
c8
d4
fa
cf
11
0c
f4
f9
12
cf
fa
02
dd
05
05
29
cf
04
e2
f1
f8
f9
2c
01
24
14
fe
21
f1
f1
20
fd
24
f7
ea
00
cb
16
d8
e8
e6
fe
16
22
e5
15
e0
11
04
ff
08
fe
4c
1e
34
f4
c0
f2
18
ef
12
1e
cf
df
ef
e4
fe
04
fe
e8
f0
07
f0
3c
15
cb
dc
df
fd
27
f3
1e
dc
f8
01
e8
e6
f9
02
ef
22
09
f9
17
0c
f6
08
0c
f6
1b
01
08
02
db
34
0a
da
23
e5
1c
e1
0e
28
0b
e5
04
ee
19
fe
18
d1
00
3d
ac
15
07
e5
0c
e7
f7
05
01
f3
fd
0c
fb
02
f5
d8
e7
e8
ea
17
ea
10
d9
f1
ff
fa
e7
03
f1
11
0b
1b
25
0c
01
17
e2
0c
ff
16
0b
0e
de
fc
38
fd
ff
cc
fe
22
e5
00
00
00
00
00
00
00
00
00
00
00
00
00
00
00
00
00
00
00
00
00
00
00
00
00
00
00
00
00
00
00
00
00
00
00
00
00
00
00
00
00
00
00
00
00
00
00
00
00
00
00
00
00
00
00
00
00
00
00
00
00
00
00
00
00
00
00
00
00
00
00
00
00
00
00
00
00
00
00
00
00
00
00
00
00
00
00
00
00
00
00
00
00
00
00
00
00
00
00
00
00
00
00
00
00
00
00
00
00
00
00
00
00
00
00
00
00
00
00
00
00
00
00
00
00
00
00
00
00
00
00
00
00
00
00
00
00
00
00
00
00
00
00
00
00
00
00
00
00
00
00
00
00
00
00
00
00
00
00
00
00
00
00
00
00
00
00
00
00
00
00
00
00
00
00
00
00
00
00
00
00
00
00
00
00
00
00
00
00
00
00
00
00
00
00
00
00
00
00
00
00
00
00
00
00
00
00
00
00
00
00
00
00
00
00
00
00
00
00
00
00
00
00
00
00
00
00
00
00
00
00
00
00
00
00
00
00
00
00
00
00
