f7
4e
a1
04
da
21
31
40
0c
11
ea
e6
01
43
d3
17
12
f0
0f
fa
e8
fd
1d
d1
10
06
2a
51
e4
0f
ef
ec
30
1e
0e
ee
f8
03
22
b1
07
15
cd
fc
cc
ec
e8
10
06
e0
f8
36
2b
c1
12
0e
19
19
e1
26
09
0b
0d
0d
13
12
48
1c
ef
03
07
04
c0
11
16
fa
f1
ed
17
17
dc
17
f3
25
4a
40
1a
19
f4
dd
41
e7
df
e5
06
c7
e3
f9
26
0b
d4
e1
ff
de
c9
05
ed
04
f5
f5
f9
08
23
f4
22
f9
de
f9
1f
fb
26
f0
06
fa
e9
13
ea
e4
15
0e
04
f9
00
fe
ff
43
ec
3c
0a
27
11
41
22
0a
fc
ec
e8
eb
00
fb
30
01
f4
df
da
16
ec
ee
f2
d9
ec
de
f4
e3
2b
e7
eb
ce
0e
20
05
eb
f1
12
f1
c6
fe
0a
f5
ed
e4
fa
23
1d
f0
ee
21
ec
25
ec
bf
2e
24
10
06
d5
0e
33
39
08
f3
04
e9
18
04
f9
f7
3b
e0
f5
ee
23
00
ed
25
09
f2
e6
cc
e9
f3
0b
04
d5
2f
f4
ea
be
04
eb
30
ef
e8
0f
03
01
1b
1a
fb
26
f2
1b
fc
ef
e9
c5
04
c0
d4
e0
f1
f3
fd
e9
18
db
de
04
fe
02
21
10
13
33
1c
28
f3
01
2e
12
fd
ed
2b
f2
1b
21
f1
15
19
31
ed
f9
1f
2c
f1
09
01
0f
f7
0b
0e
1b
2e
fd
d6
f4
28
fd
10
0d
f6
19
ff
d9
f7
f9
ef
e6
ec
28
09
16
1d
1b
1b
0a
13
d4
36
17
d8
28
11
de
23
1a
47
13
1f
1e
f3
20
cf
e0
0d
e7
f7
0b
26
13
0f
db
25
f2
0f
d9
dc
db
10
1a
d6
30
eb
1c
ef
32
19
f0
c8
02
e9
ec
26
dd
f9
35
c5
ea
0c
36
f9
1b
fc
05
06
e4
c7
e5
12
e5
58
f4
4a
22
0e
ef
46
0b
ef
0f
0b
d5
f4
07
f2
23
ea
45
fa
e2
cd
fb
06
f9
ce
e3
1e
d9
0f
0d
1b
f6
ee
e2
f8
2a
ea
34
ea
e5
1b
f7
07
f0
f0
23
dd
2b
ff
14
1b
08
1c
0e
0f
00
30
12
08
ef
0f
1c
e8
13
ce
10
1c
2a
11
d8
02
e0
da
00
05
f1
11
f0
12
f8
d9
0a
0e
1a
fe
13
06
19
08
f3
ef
f3
d4
1b
1b
03
25
26
17
f4
dc
07
09
0d
c7
2c
0a
ed
27
05
fd
17
1d
00
ec
c6
ed
fc
e4
0d
cc
1d
fc
ed
0b
16
e8
14
09
e2
d9
07
0b
2c
e6
0b
f6
13
fa
03
02
ef
fc
03
d0
e8
e5
c8
02
fb
02
e3
fd
29
34
d6
06
e0
fb
ed
f1
0b
db
eb
fc
fb
ef
19
ca
e0
00
fc
f6
fb
00
ef
11
fa
03
f2
1d
d4
19
00
1b
3e
ec
f4
bd
f8
e8
ef
05
28
0d
ce
f4
22
ff
e3
fb
f4
16
f8
fd
30
f1
fc
e7
1a
e1
d4
d1
0f
03
de
49
f7
18
ef
ce
19
f9
e6
f7
f6
07
de
e3
01
fc
05
da
44
fd
e4
fe
26
ea
f2
ea
ff
ef
e8
f2
05
f0
cb
04
18
db
fd
04
fb
34
ff
16
17
08
e3
04
08
ec
ec
fb
19
f6
cb
04
f3
e4
03
00
0a
01
b4
df
ec
f1
ec
ea
f1
c8
d4
09
0b
fc
17
0d
2f
f4
1e
0f
eb
f3
d9
dc
ff
02
e4
17
fd
12
f8
e2
04
22
0a
08
13
0c
f2
02
05
06
e6
da
ed
0b
36
1e
ec
f4
1c
3b
0e
08
e2
ed
39
df
09
34
0d
f3
e3
2e
f8
27
de
f2
0a
c6
d8
cf
0f
e7
e4
fa
ce
08
17
e9
06
34
f8
1f
f8
46
12
cb
e3
07
e2
00
2b
fc
e7
fa
28
0a
0d
cb
fb
1f
de
df
db
1a
f1
13
d8
f8
db
eb
05
e5
20
27
05
29
12
24
f0
ec
25
f3
30
f9
e2
e6
d1
0c
bf
00
00
00
00
00
00
00
00
00
00
00
00
00
00
00
00
00
00
00
00
00
00
00
00
00
00
00
00
00
00
00
00
00
00
00
00
00
00
00
00
00
00
00
00
00
00
00
00
00
00
00
00
00
00
00
00
00
00
00
00
00
00
00
00
00
00
00
00
00
00
00
00
00
00
00
00
00
00
00
00
00
00
00
00
00
00
00
00
00
00
00
00
00
00
00
00
00
00
00
00
00
00
00
00
00
00
00
00
00
00
00
00
00
00
00
00
00
00
00
00
00
00
00
00
00
00
00
00
00
00
00
00
00
00
00
00
00
00
00
00
00
00
00
00
00
00
00
00
00
00
00
00
00
00
00
00
00
00
00
00
00
00
00
00
00
00
00
00
00
00
00
00
00
00
00
00
00
00
00
00
00
00
00
00
00
00
00
00
00
00
00
00
00
00
00
00
00
00
00
00
00
00
00
00
00
00
00
00
00
00
00
00
00
00
00
00
00
00
00
00
00
00
00
00
00
00
00
00
00
00
00
00
00
00
00
00
00
00
00
00
