2a
10
f5
f3
ed
ee
02
bb
e6
0c
d0
17
e4
05
2f
1c
de
02
2c
41
1e
0a
f2
08
da
f1
e5
2c
0e
13
0e
dd
03
23
f6
07
d2
fb
db
08
be
14
ee
12
f7
1e
e2
e6
f4
f3
19
f2
0e
f2
22
24
2c
ef
17
27
06
14
f3
17
10
e4
11
cd
f9
b9
fc
05
db
21
1f
fd
26
26
dd
f9
df
18
e1
19
e1
03
07
0b
24
05
c3
fb
26
08
17
ec
da
2f
12
c8
fe
03
36
6e
0b
16
01
1c
d6
23
c7
fc
f3
fb
03
d6
01
ee
ec
d0
f9
30
f6
0e
31
1c
02
c8
