1b
0a
16
f7
22
f6
27
27
3d
dd
19
da
fa
d7
f8
03
03
10
f0
28
13
e4
e9
e1
eb
f9
30
18
16
27
3e
32
fa
f4
dd
01
e9
e5
f2
c9
2b
ef
fd
15
1a
01
16
08
de
33
fa
36
e5
00
db
dd
14
1b
fa
fa
14
fd
41
d1
04
1a
08
25
f3
e8
1a
00
17
e6
13
e9
cd
0e
15
c9
03
19
0d
f1
de
25
f9
f4
d3
ec
fd
16
f4
ff
ff
ef
19
c2
11
01
f3
f2
03
13
24
0e
fb
06
e8
f2
ef
19
3b
f8
0c
f7
ce
09
f1
bc
2d
29
0e
23
e9
21
0e
f7
05
0c
21
24
1d
07
f0
ff
28
f4
fd
0c
1e
f3
b3
2a
26
07
e4
fd
cf
02
22
0f
f7
17
ee
10
fa
e4
2f
ee
da
ea
f1
09
f4
cb
d6
e4
00
08
14
19
f6
22
18
f6
c2
dd
1d
ea
21
fa
e7
44
ee
17
17
11
21
f2
ce
f4
c4
0c
e6
f5
e7
db
08
e6
f8
e6
1f
ee
ec
0d
0e
21
10
ff
c3
14
1f
04
01
e8
14
d8
0b
2d
f9
f7
ee
f0
df
1a
d7
f7
06
14
1e
de
ee
e0
e9
fc
fb
0f
e9
d4
00
ef
21
e3
0e
01
27
d6
e1
d9
ee
f2
e3
f5
0b
f0
34
14
e3
05
05
e5
13
1a
e6
0c
20
1f
c4
13
ca
fb
2a
e0
17
02
f2
01
ff
e5
c4
03
f4
11
ee
fc
ea
27
0c
07
e7
f3
03
34
18
0f
d6
33
08
20
fe
02
14
fd
e3
2c
fe
f8
ff
09
db
f9
ea
f6
32
0c
e1
12
0e
0e
fd
e8
08
df
db
cf
d9
14
0d
c4
0a
1f
02
03
1c
22
e7
ec
f8
f7
db
fe
cd
0d
f1
20
16
ff
ea
0e
dd
de
fa
d2
df
20
f3
39
f1
31
eb
e0
05
fb
d8
fa
f5
c1
f0
0f
20
23
1f
e2
ea
0a
00
ee
be
f6
f4
eb
d4
ec
15
2f
1b
f5
23
0d
17
09
f2
03
48
d8
c9
09
24
ef
10
08
f8
e2
07
02
f5
fc
f6
c8
b6
f6
f4
02
19
27
f9
1c
05
09
24
13
df
dc
00
e9
e4
13
fe
09
3a
bc
16
de
22
05
cd
f5
0e
f0
1f
0b
16
3e
fd
18
03
eb
1f
22
f6
e5
0b
2a
01
1a
12
07
1b
08
da
06
d8
1d
e6
0e
d8
03
fa
52
12
2e
14
be
cc
19
eb
dc
28
e1
14
f6
11
de
2f
04
27
ed
cd
f0
1b
d4
eb
01
1a
fd
e4
e0
eb
19
e9
db
d7
0e
f5
04
16
e1
1d
fe
1b
fd
f5
16
34
f1
22
18
df
e2
f0
39
06
0a
01
1b
1e
0b
17
21
e9
15
0f
07
e0
cd
e4
20
fa
2b
ef
3b
25
f0
04
05
21
f2
05
1d
02
1b
f3
cd
f2
e7
fb
e8
20
39
ed
07
34
22
fb
f1
15
30
25
34
12
09
1f
08
f1
f4
fc
e8
06
1a
17
f3
03
fa
db
d7
05
01
32
f2
f5
ea
0f
14
e4
39
21
f2
2f
ea
19
02
1d
0c
e5
05
d1
d0
48
f6
11
f3
1c
55
f3
0f
10
fe
0b
07
e1
27
fd
f5
d7
10
15
dd
f9
17
d9
fe
dc
1d
d5
00
f9
ef
01
27
06
00
17
04
f2
e7
dc
c4
ed
00
f8
fa
e9
19
0f
f4
08
20
12
fc
05
16
19
13
13
eb
f1
02
12
ec
db
fb
16
1a
e1
e4
ca
0d
de
0d
e4
37
28
e3
f5
22
0d
02
45
1f
09
ea
28
e1
1b
0e
f6
19
1c
e9
e9
fc
f5
19
03
10
0a
f4
d3
37
09
bc
0f
1d
17
fe
d2
db
dc
2d
15
c2
2b
09
f2
28
00
ee
f9
16
06
27
3e
b3
dd
f5
fc
11
03
fa
e4
1a
fd
f0
ec
0a
fa
08
df
19
e1
13
0e
0d
00
cc
fe
19
0a
25
f5
13
f4
bd
0b
f4
3f
d8
25
13
dd
40
17
f9
0f
f2
fd
c5
03
ff
bd
2f
26
06
00
00
00
00
00
00
00
00
00
00
00
00
00
00
00
00
00
00
00
00
00
00
00
00
00
00
00
00
00
00
00
00
00
00
00
00
00
00
00
00
00
00
00
00
00
00
00
00
00
00
00
00
00
00
00
00
00
00
00
00
00
00
00
00
00
00
00
00
00
00
00
00
00
00
00
00
00
00
00
00
00
00
00
00
00
00
00
00
00
00
00
00
00
00
00
00
00
00
00
00
00
00
00
00
00
00
00
00
00
00
00
00
00
00
00
00
00
00
00
00
00
00
00
00
00
00
00
00
00
00
00
00
00
00
00
00
00
00
00
00
00
00
00
00
00
00
00
00
00
00
00
00
00
00
00
00
00
00
00
00
00
00
00
00
00
00
00
00
00
00
00
00
00
00
00
00
00
00
00
00
00
00
00
00
00
00
00
00
00
00
00
00
00
00
00
00
00
00
00
00
00
00
00
00
00
00
00
00
00
00
00
00
00
00
00
00
00
00
00
00
00
00
00
00
00
00
00
00
00
00
00
00
00
00
00
00
00
00
00
00
