0f
f7
fc
da
2e
27
27
de
2f
fd
02
41
e0
1f
0e
e3
0d
fa
e8
10
de
33
e9
05
e3
fd
e8
c9
0e
c2
c8
e3
0d
fe
f9
d0
e4
f8
df
1f
e9
21
ee
fd
2d
17
fc
1b
f5
f3
f4
09
0c
d5
ef
1b
f4
2e
fd
0c
10
10
00
22
21
0f
17
05
ff
ef
f0
f9
39
f4
dc
16
17
f5
e9
dc
ea
f5
22
09
f2
26
f2
fb
fa
f0
06
ef
14
f3
f7
0a
2e
da
25
18
38
fd
32
13
5e
d4
c2
fc
29
0e
30
ea
2f
ad
0a
08
1f
34
1d
d1
fd
36
03
e2
0a
31
d3
34
da
03
e7
0b
e5
1e
e9
f7
0c
f4
f7
18
29
1e
f3
fb
e8
be
00
0b
09
ec
1f
f5
1c
08
1a
f1
f1
f6
e8
1b
11
26
06
0d
11
ee
f0
1d
e7
c8
0e
29
25
02
1d
00
fa
1d
ff
d4
fb
0c
f7
f3
04
20
f6
e9
e0
f1
d2
e3
13
d7
06
05
fc
fe
e2
19
00
f6
06
ec
e3
14
09
f1
e6
15
12
d7
f4
27
03
f2
be
fe
10
ee
c9
f4
09
4c
c8
b4
d7
06
20
d1
d9
0a
10
00
c0
ca
d0
02
06
1b
ec
e1
2c
09
ec
dc
f2
f3
0a
f3
fd
f2
d6
ef
e7
f1
fe
fe
f3
f8
07
0b
14
e7
14
f5
eb
e2
db
f2
e4
00
18
fb
25
fd
ec
df
1f
02
db
ee
c3
d8
eb
17
f3
12
c5
26
fd
11
06
e6
f6
2c
e3
d9
08
fd
18
ad
08
f8
e8
53
0e
f5
06
1c
f6
fc
29
1b
f5
09
fa
e5
c2
06
ec
21
37
15
02
2a
f3
08
22
25
dd
37
09
37
24
f5
05
f0
0d
ea
18
22
ea
0f
e6
e7
f8
09
26
fb
39
d9
05
fb
0f
28
0e
0a
3b
e3
dc
09
05
13
f9
cf
fd
e3
3c
10
de
f8
02
1b
17
f1
ee
0c
1c
ec
05
14
0e
00
f3
0a
0a
13
26
f8
1e
04
f3
e6
28
ee
04
ed
fe
f4
2a
fc
10
ec
ee
06
02
19
f3
d2
fc
f9
0b
03
e1
ee
e5
18
e0
1f
06
11
02
db
ef
d9
de
02
f0
f7
08
f3
0e
3b
1b
e3
11
e4
09
fc
fe
37
26
03
cf
27
d2
2b
f1
2f
f0
ee
00
23
de
23
13
f4
38
e9
0b
da
f6
b7
e5
17
e0
22
df
b4
28
1e
19
29
54
0b
e9
f6
ee
e8
02
25
de
d7
13
22
07
0e
ef
f2
1f
12
01
02
e4
f2
13
f5
06
ed
f7
11
fc
e8
27
0c
0e
09
ef
36
09
f3
ec
30
10
07
08
ed
e5
e5
e6
e8
28
fb
f3
03
ee
1c
f1
09
fa
2c
32
03
f3
11
f2
cd
f4
17
dc
fe
2d
1b
38
07
11
0d
17
04
f9
cd
18
ef
03
ea
2e
df
cc
0f
00
0d
25
e7
f6
e6
00
f8
19
23
fb
32
d3
18
dd
20
3b
12
36
fe
b8
f2
1b
fc
f3
14
df
43
fa
0e
0c
2c
f0
cd
e1
f1
3b
fc
3e
09
da
3b
f1
23
0e
fe
26
22
f1
19
42
e5
fb
10
0d
d9
fb
35
ee
18
29
f2
0c
17
a8
29
1c
0a
c0
23
05
3e
df
fb
ca
11
f2
02
e7
0b
bc
0b
08
bc
fc
30
21
f8
ee
f0
ec
06
e8
cc
f8
01
da
e0
ee
17
0f
ed
34
f7
f2
f8
ff
ec
c7
ec
14
0a
f0
0e
e0
fa
1e
e4
db
ef
15
fc
d4
f5
c0
cf
bc
d1
00
ef
f0
48
06
0b
e9
06
f9
fd
fe
fa
2f
1f
fe
ef
0c
db
e1
01
03
eb
0a
f2
13
ed
1a
36
02
1d
1d
0b
12
e4
f6
17
de
0c
c3
ff
20
f0
24
01
05
26
22
00
19
e4
2c
02
1a
11
dc
f4
0f
21
04
de
11
23
2f
33
ed
10
33
f3
11
1e
e8
06
e3
04
f9
eb
d3
e4
fd
f6
08
04
ed
15
09
12
ef
f6
f7
c7
18
f2
3e
f8
17
17
00
00
00
00
00
00
00
00
00
00
00
00
00
00
00
00
00
00
00
00
00
00
00
00
00
00
00
00
00
00
00
00
00
00
00
00
00
00
00
00
00
00
00
00
00
00
00
00
00
00
00
00
00
00
00
00
00
00
00
00
00
00
00
00
00
00
00
00
00
00
00
00
00
00
00
00
00
00
00
00
00
00
00
00
00
00
00
00
00
00
00
00
00
00
00
00
00
00
00
00
00
00
00
00
00
00
00
00
00
00
00
00
00
00
00
00
00
00
00
00
00
00
00
00
00
00
00
00
00
00
00
00
00
00
00
00
00
00
00
00
00
00
00
00
00
00
00
00
00
00
00
00
00
00
00
00
00
00
00
00
00
00
00
00
00
00
00
00
00
00
00
00
00
00
00
00
00
00
00
00
00
00
00
00
00
00
00
00
00
00
00
00
00
00
00
00
00
00
00
00
00
00
00
00
00
00
00
00
00
00
00
00
00
00
00
00
00
00
00
00
00
00
00
00
00
00
00
00
00
00
00
00
00
00
00
00
00
00
00
00
