d7
02
e2
fc
fc
36
df
fc
26
fd
e1
d9
2a
ea
23
2c
e5
f7
e8
13
21
da
e8
f3
f1
d8
eb
fb
d3
11
17
44
c5
0a
c8
15
1c
f3
12
e3
c9
2f
e9
d0
f1
de
f8
05
11
0d
12
ff
9a
d5
fd
ea
11
19
da
16
21
fb
11
d7
10
2c
dc
21
d9
16
9f
0e
4b
1f
f0
26
c7
e5
1c
e9
15
0c
13
f0
f9
fc
d7
41
36
48
07
45
b6
03
ed
0d
df
03
1b
14
d6
13
ed
f2
e6
05
f3
e3
0b
1d
d6
f3
07
24
fc
0b
02
e7
e7
11
3f
c8
d6
1d
30
10
cd
05
