06
f1
29
f9
fe
f6
f8
25
d4
14
f7
04
13
ea
3e
29
ef
d7
09
0b
40
e5
e6
f5
d3
1c
d7
00
0e
f6
13
eb
ee
09
12
e2
11
21
f1
09
0e
1a
e1
22
21
f8
0f
0e
d7
f6
1e
12
02
f1
18
fe
13
0f
02
fa
1b
37
09
d8
0d
d8
00
02
f3
bc
fe
f5
f7
38
51
19
fa
14
fd
37
00
04
dd
da
09
05
29
fc
f5
0b
22
22
12
e1
07
ee
eb
36
fd
17
f8
f1
e7
0e
0a
1d
e6
fa
e6
05
ec
ff
02
04
11
fa
f7
e0
d8
0b
08
fe
bd
06
0a
43
02
fe
15
e4
f0
f9
e5
06
d8
f5
04
05
19
01
16
19
32
d0
21
cf
e5
ee
f9
e4
02
13
ec
03
fa
e8
14
21
ec
2a
f6
08
1c
ef
1e
e2
5d
f1
10
e4
f2
da
6a
09
1a
fb
ff
0f
0f
ed
f3
0e
30
e5
2b
bc
ee
47
01
db
ed
02
0a
05
f5
fa
ef
fd
13
f9
e7
de
d2
19
17
ef
14
d7
00
12
f9
36
0a
06
f7
2c
f3
0a
fb
ed
03
08
1e
12
ea
f0
f8
02
e9
f0
2b
18
15
f6
18
2c
24
09
eb
0e
f9
2f
0c
be
0e
39
f1
05
d6
cb
05
d0
25
fa
13
43
05
dc
08
f9
ee
eb
ec
fb
0b
e9
e1
0f
d3
0d
ca
f4
d8
d5
cd
df
0e
03
ed
fc
0f
f2
fe
e6
e6
e6
14
1f
f1
fb
f8
07
13
d5
03
cd
e1
11
d1
d9
f5
13
fa
03
25
0a
06
0c
00
ef
f4
df
3a
1c
19
18
e5
f6
05
1b
0f
15
16
d9
ec
fb
01
e3
fc
ea
fb
fa
f8
f6
25
20
c7
fc
2e
cd
15
c9
2c
f8
23
f8
09
e3
e8
fc
07
1d
0e
fd
12
0c
2f
fe
1b
02
d1
ea
19
21
f5
fa
f0
0c
d4
ed
ea
00
0f
ed
1c
08
f4
1f
06
1a
2e
fd
1a
16
28
00
20
1d
36
20
05
f9
f6
0b
14
1a
db
47
0c
0a
19
be
0b
01
21
18
22
03
f9
15
15
f3
ce
d7
01
28
d8
cf
ee
e8
f0
e7
db
0c
e7
e9
19
0d
24
08
f6
08
f3
14
2d
3b
07
30
ef
ee
03
c5
06
f8
2f
1c
e0
ff
f3
f8
f4
db
00
ff
d5
36
03
ec
23
40
28
2e
d8
f7
15
e4
03
fc
04
08
d1
04
be
e6
1c
fe
00
03
36
19
06
03
11
09
28
05
33
0f
31
26
07
e6
13
21
01
0f
1c
ce
e9
1a
15
06
20
bc
f5
04
f6
11
ce
ec
1d
07
ed
d1
33
21
47
0c
04
18
c0
e0
10
05
04
f0
01
f7
f6
f6
3c
dd
26
fe
df
d1
f1
0e
08
c5
4a
fc
00
15
20
2e
01
12
06
2f
f3
fa
fa
42
e5
28
23
e2
fd
01
c5
02
f4
ec
0a
e5
06
1a
00
0f
0b
01
1e
1a
0d
1d
0b
ed
f4
11
1f
dd
e9
2c
d8
0f
19
0e
1e
0e
ed
16
15
02
0c
09
f6
f2
2a
15
1c
0b
10
33
e6
05
f6
23
04
00
0d
17
39
d9
ed
42
18
f2
08
f1
dc
19
26
d9
19
f5
1f
e8
10
06
e7
ff
27
09
fe
e8
fc
1c
1b
0a
39
cf
e2
15
f0
de
ec
09
0f
2e
b9
13
df
13
06
f3
f3
26
f8
01
e2
e5
f6
f9
f9
08
07
e3
00
eb
13
13
12
03
1c
19
03
fc
1e
e3
e1
1b
09
f3
f5
eb
fa
df
44
eb
14
fa
11
f2
48
fb
ff
0d
e0
0a
2f
ed
ea
c2
12
27
0c
e7
19
08
10
f4
e1
03
2a
fd
f1
f7
2c
fa
0d
e8
04
02
dd
11
d7
05
1a
21
2e
ee
ea
19
1f
f8
f7
ed
03
fc
0d
05
da
9e
17
02
0c
ee
f4
fc
26
03
1b
12
fb
02
f6
00
f0
e2
c5
29
e8
e1
e6
0b
db
05
fe
f9
2c
0a
ed
e8
f8
11
0c
ec
c2
1b
f7
06
0e
26
00
00
00
00
00
00
00
00
00
00
00
00
00
00
00
00
00
00
00
00
00
00
00
00
00
00
00
00
00
00
00
00
00
00
00
00
00
00
00
00
00
00
00
00
00
00
00
00
00
00
00
00
00
00
00
00
00
00
00
00
00
00
00
00
00
00
00
00
00
00
00
00
00
00
00
00
00
00
00
00
00
00
00
00
00
00
00
00
00
00
00
00
00
00
00
00
00
00
00
00
00
00
00
00
00
00
00
00
00
00
00
00
00
00
00
00
00
00
00
00
00
00
00
00
00
00
00
00
00
00
00
00
00
00
00
00
00
00
00
00
00
00
00
00
00
00
00
00
00
00
00
00
00
00
00
00
00
00
00
00
00
00
00
00
00
00
00
00
00
00
00
00
00
00
00
00
00
00
00
00
00
00
00
00
00
00
00
00
00
00
00
00
00
00
00
00
00
00
00
00
00
00
00
00
00
00
00
00
00
00
00
00
00
00
00
00
00
00
00
00
00
00
00
00
00
00
00
00
00
00
00
00
00
00
00
00
00
00
00
00
