d8
b8
04
2a
0c
f9
f4
e7
13
1f
fb
f0
f4
1c
d5
ff
de
02
07
f6
01
11
f5
f1
f3
f4
f7
f6
12
f8
f8
f0
ee
34
ff
14
2d
28
c8
04
07
f6
e7
fa
fe
05
f8
1d
f3
ed
f4
11
fa
32
19
ff
0b
f9
13
d5
dd
fa
04
34
0d
f5
f2
ea
10
df
ba
0b
1c
07
12
db
02
dc
2c
0d
0b
24
db
ee
31
f7
f8
eb
e2
f0
32
0b
0d
01
e9
23
16
03
09
19
0f
de
12
19
2a
17
18
cb
33
1e
1f
f2
26
00
f5
eb
f4
d9
34
00
fc
3a
3d
14
f1
ff
a5
f3
ee
ec
11
0d
10
ec
0e
1a
09
f2
20
01
e7
23
25
e6
fd
18
12
20
d2
e3
ec
fc
0e
0a
14
f7
16
24
30
e8
fb
13
f6
3f
04
0c
f7
0d
23
ef
21
21
17
14
f6
f3
de
d7
3d
df
10
1e
2a
e4
04
dc
00
13
18
14
cf
4a
16
0c
12
16
fb
e7
08
f0
f8
d6
05
fb
20
16
13
29
0c
d1
e4
ed
fb
05
fd
1e
2a
d7
c6
dd
14
e0
20
e2
21
0e
ca
2e
23
f7
fd
f3
27
08
11
2b
ee
0b
f2
ec
c6
ec
37
e1
0c
e0
43
09
08
0f
ca
07
e1
dc
d8
ec
f2
f1
14
da
f7
f7
26
51
d1
d3
02
e3
04
ef
d8
18
01
dd
fd
1b
f1
ed
e5
e6
e7
ff
22
07
eb
f0
0f
06
d7
15
07
c9
f4
f1
20
1d
ea
de
e3
d2
ff
58
e4
fb
19
f1
0c
32
fc
24
0c
e1
45
28
c3
35
24
43
32
fc
f7
09
23
fb
d2
fe
ef
ff
df
da
d5
0b
22
dd
fb
f2
da
a5
ef
13
00
fb
16
0f
21
01
20
23
ec
1c
0e
11
f7
07
17
ec
12
08
fd
f2
15
1c
f0
10
fb
0e
dc
f5
0f
de
f2
e9
fd
0c
49
e6
06
cd
fb
f9
f0
fc
01
19
03
f1
ff
c5
ff
f4
09
31
28
c0
f4
f1
f6
fb
ff
16
fc
1b
ff
04
13
ce
09
f6
0b
c1
25
30
fb
42
fa
08
e6
25
06
02
18
d3
0c
14
27
d7
e5
df
e4
f3
0b
08
e4
ff
fe
de
00
e0
fa
f2
1c
1b
15
0e
39
2b
04
1b
d8
0a
fc
29
0d
0a
ff
c4
ea
fa
e8
e9
19
1e
c9
d5
d9
e8
14
f2
f7
fa
c3
0a
06
0b
f9
23
12
f3
f9
20
2c
e5
17
ec
00
fa
dd
01
e5
e2
0d
0d
f9
dc
d3
18
07
17
ec
00
d0
e5
43
fe
06
eb
03
0f
14
1d
01
fa
ed
fe
d9
0b
2b
23
3c
e2
e0
1c
00
e2
e5
f0
e5
fe
f7
16
a8
fa
05
d4
04
f0
11
f2
b2
23
c5
fa
f5
15
ff
f6
de
de
e4
05
ea
e9
18
ec
01
f7
d6
2b
e0
06
1b
c6
fa
13
26
ed
14
f7
fa
e7
f6
1d
d0
06
33
f2
b8
30
c9
22
0e
1c
16
f7
d0
fc
16
d9
34
05
e4
fa
00
22
19
ed
09
fb
1c
1c
12
e0
e8
fd
e8
e2
f0
15
08
1b
f4
bd
fa
dd
08
20
f0
ff
0f
12
e7
f8
f7
09
0c
0e
15
e3
0c
ee
0e
02
dd
10
41
bc
07
f9
d3
00
20
08
ca
dd
ed
e5
e6
fa
01
32
d2
c4
ff
ee
c9
0f
2a
09
1a
12
0d
fb
fe
f0
f7
00
0a
ee
11
04
00
ed
ee
13
2f
0b
e4
16
f0
3e
cf
ea
1a
f9
20
ff
d8
12
1e
0e
ea
e1
0f
f4
af
12
e1
e8
d2
03
d1
00
0f
f7
17
ed
26
14
03
32
14
f5
06
4d
d0
04
45
e0
24
c0
20
07
30
fc
0c
36
00
fc
08
f4
da
1d
0c
f9
fa
de
f0
de
d4
fb
f9
04
f1
ff
11
22
16
c9
24
00
e7
f7
ff
1d
3b
1c
fa
15
fa
4f
11
2b
28
05
08
11
f5
ee
0e
f6
d1
00
f8
ef
0f
fb
ed
01
f0
09
b7
fd
e3
1b
00
00
00
00
00
00
00
00
00
00
00
00
00
00
00
00
00
00
00
00
00
00
00
00
00
00
00
00
00
00
00
00
00
00
00
00
00
00
00
00
00
00
00
00
00
00
00
00
00
00
00
00
00
00
00
00
00
00
00
00
00
00
00
00
00
00
00
00
00
00
00
00
00
00
00
00
00
00
00
00
00
00
00
00
00
00
00
00
00
00
00
00
00
00
00
00
00
00
00
00
00
00
00
00
00
00
00
00
00
00
00
00
00
00
00
00
00
00
00
00
00
00
00
00
00
00
00
00
00
00
00
00
00
00
00
00
00
00
00
00
00
00
00
00
00
00
00
00
00
00
00
00
00
00
00
00
00
00
00
00
00
00
00
00
00
00
00
00
00
00
00
00
00
00
00
00
00
00
00
00
00
00
00
00
00
00
00
00
00
00
00
00
00
00
00
00
00
00
00
00
00
00
00
00
00
00
00
00
00
00
00
00
00
00
00
00
00
00
00
00
00
00
00
00
00
00
00
00
00
00
00
00
00
00
00
00
00
00
00
00
