02
fe
14
43
2f
ee
e6
0d
26
0a
eb
fc
be
1b
1c
0a
2b
16
fa
d7
0d
18
0d
1d
1a
cf
f6
e7
f2
2c
04
3b
d3
c5
e4
0c
21
0b
1c
2c
32
fc
d3
16
28
1b
e1
f0
1d
f7
db
d8
3e
15
17
fb
ec
f0
29
09
f2
65
22
dc
20
fc
ff
32
0b
eb
24
f4
ef
e3
0d
ee
11
0b
dc
dd
ee
fb
eb
11
07
db
c9
f4
03
2b
1e
e2
15
15
07
ef
10
db
0a
ff
d4
f6
f3
d5
fd
18
44
df
26
00
32
fd
f1
d4
06
0d
21
e1
1c
ee
e3
1d
f5
0f
13
31
e0
08
e2
24
0b
ea
d2
d2
3b
31
f3
07
fe
00
29
32
ed
0c
1d
ef
29
05
33
16
f5
02
40
33
14
f0
e9
04
d8
05
0c
1c
c3
32
0e
f1
ec
13
ff
ec
f5
e2
10
1d
e0
ff
e5
0e
01
e8
e0
41
03
0e
27
da
00
cc
ec
17
ed
d4
15
29
b8
eb
e6
0f
e3
14
0d
1b
f2
26
13
e5
05
2c
fd
0b
1a
3a
f6
ff
2a
0a
01
0a
0d
f6
f5
f2
03
e0
de
f8
11
0e
0e
05
0a
fd
f3
0e
f7
24
fe
2b
0a
24
03
22
dc
e2
e6
b5
eb
e1
e1
f4
f9
0b
0a
10
0f
d3
1b
08
e8
b1
15
23
e7
29
f5
ef
12
1d
d7
2b
c0
df
13
e6
eb
df
00
19
e3
e6
16
f6
04
f2
3c
37
12
f9
10
f4
05
d9
f0
ed
fb
16
06
eb
1a
f7
10
e2
d4
33
e6
f5
3c
15
f0
24
f0
13
c0
14
e5
0e
2c
0d
09
35
00
f4
12
dc
f8
ff
2a
53
04
f5
00
19
1c
f3
eb
1f
0a
f9
28
46
09
ff
eb
24
f5
2e
f4
f9
20
e8
1f
4a
12
f4
21
da
3f
01
f4
1a
fc
fa
0d
09
f9
fc
00
fa
05
f0
32
e3
10
f7
ef
ed
ff
f6
18
d1
12
fc
d7
09
08
08
fd
02
f0
fe
e7
e9
fc
0a
c4
f4
0b
fb
1e
23
f9
d6
e3
ec
ef
01
e2
22
06
e1
24
26
19
ff
03
cb
0e
13
10
0a
0c
1d
e3
04
12
28
ca
06
ea
45
04
09
f4
0a
dc
18
f6
dc
e7
16
03
00
0c
de
06
0d
c4
0f
ee
02
e6
24
e2
2d
32
13
41
06
ee
25
18
d2
08
1c
08
0b
f7
d7
e4
c9
01
07
ec
0a
06
dc
e7
37
15
07
ed
f0
ef
fc
fc
ec
16
fb
10
d4
ef
ff
df
11
dd
ed
e1
0a
03
12
dd
e4
09
03
d0
fa
23
03
f0
26
fd
1f
eb
22
ee
eb
04
d2
06
01
fc
dd
1e
e9
06
ee
02
1a
fc
bf
d3
03
f5
0b
fe
0f
20
11
f0
f6
21
f6
23
fa
dd
e5
ee
ef
d6
f0
c4
e8
1b
e9
d3
e7
ee
2a
ec
20
e2
2e
01
2e
e5
d0
27
35
00
e5
18
e0
12
08
f8
fb
06
e5
e6
f7
fd
e4
19
f7
f1
2f
02
46
22
d9
25
02
03
e5
f5
e9
c7
e4
0e
e3
fd
06
c0
ff
10
09
32
09
f6
05
12
21
e5
f9
05
f8
06
d5
34
20
1a
e5
dd
09
fb
18
f1
ea
cc
b9
c4
0c
ed
0f
f9
f8
c9
02
04
1e
05
e2
00
08
fc
07
1e
ee
1e
d1
2e
36
0d
f0
ff
02
1d
18
26
e2
df
fe
05
18
fd
f8
23
fe
22
0d
1a
39
f8
23
02
ea
1b
19
f7
e0
16
fe
07
fb
eb
1f
17
f0
05
2f
04
2f
2c
3a
c1
0f
da
16
db
f4
12
0d
0b
e7
dd
e2
f4
08
f4
f8
08
f6
ea
0a
ca
06
f5
13
13
20
1a
d2
d9
02
1c
cf
12
01
e4
0a
1a
f2
18
05
ee
08
11
20
de
df
09
f9
ed
fa
ef
13
f3
e9
38
0a
1c
21
f9
16
2a
38
fb
e1
e4
0b
1c
f7
06
0d
da
14
09
03
e4
09
f3
fb
19
f1
e0
08
0f
00
20
08
ee
1a
28
e4
00
00
00
00
00
00
00
00
00
00
00
00
00
00
00
00
00
00
00
00
00
00
00
00
00
00
00
00
00
00
00
00
00
00
00
00
00
00
00
00
00
00
00
00
00
00
00
00
00
00
00
00
00
00
00
00
00
00
00
00
00
00
00
00
00
00
00
00
00
00
00
00
00
00
00
00
00
00
00
00
00
00
00
00
00
00
00
00
00
00
00
00
00
00
00
00
00
00
00
00
00
00
00
00
00
00
00
00
00
00
00
00
00
00
00
00
00
00
00
00
00
00
00
00
00
00
00
00
00
00
00
00
00
00
00
00
00
00
00
00
00
00
00
00
00
00
00
00
00
00
00
00
00
00
00
00
00
00
00
00
00
00
00
00
00
00
00
00
00
00
00
00
00
00
00
00
00
00
00
00
00
00
00
00
00
00
00
00
00
00
00
00
00
00
00
00
00
00
00
00
00
00
00
00
00
00
00
00
00
00
00
00
00
00
00
00
00
00
00
00
00
00
00
00
00
00
00
00
00
00
00
00
00
00
00
00
00
00
00
00
