ec
e4
f3
36
02
fb
f6
eb
15
28
f4
0c
f6
03
f0
0a
fd
e7
12
06
f7
c6
ea
06
f6
32
38
10
f3
bf
05
18
1b
d3
21
19
01
e2
ed
f5
41
00
ec
f4
ec
2f
e9
15
0a
20
04
1e
bb
31
24
f9
0a
01
28
07
ce
dd
fd
f3
0c
41
26
cc
e4
0f
17
ec
31
26
1e
d6
fd
1b
c7
04
d9
0a
f8
26
05
e3
fd
f9
fb
3d
23
33
f3
09
e9
ed
0e
fc
11
17
f1
f8
d8
eb
08
fc
df
e6
17
cf
e0
1b
0e
22
d7
f3
0b
1d
0c
01
ec
25
ba
0e
0c
f0
e5
05
e6
04
f9
08
fb
eb
12
14
df
d4
1c
09
19
23
fd
fc
e5
16
ef
ee
0f
18
f6
bd
ff
e0
14
29
05
c0
21
fa
08
da
2f
d1
e9
d8
fa
f7
e1
cf
f8
02
fe
09
dd
f4
e6
13
21
ed
f6
18
17
f0
24
f5
f8
18
1f
17
1d
f4
d8
23
e4
08
12
31
3d
fb
03
fd
0c
f0
18
f3
05
17
dd
ed
05
00
f3
e7
ff
f3
db
20
08
17
f5
f3
06
33
da
0b
0d
f4
e5
fc
cf
fb
19
f9
fe
f5
ff
09
c9
f1
2b
da
fa
01
1b
10
ef
29
dc
e5
d0
3a
08
0a
fb
f1
2d
f3
f1
e0
ea
0c
e8
e7
02
f0
0d
ca
33
13
ea
cd
13
ea
32
2d
ed
f6
e5
26
11
da
f3
fc
08
08
34
f2
fa
31
fd
d6
ed
f0
1d
2f
e3
16
e6
d9
d7
2a
f8
ff
18
d7
fe
d5
f3
e3
e7
fe
07
07
fc
0f
e0
04
0e
da
f8
e5
32
f9
f4
d7
c4
fe
19
3f
04
d9
ef
ff
e0
f7
0f
f6
2e
cf
2b
02
22
f2
fc
ec
07
0d
f4
ec
05
f8
fa
06
df
19
2b
09
19
e2
f6
f3
e5
dd
22
01
1f
03
fa
cf
e9
f3
e9
27
fd
f4
e4
de
ba
1a
ea
ef
cc
26
0f
09
16
f8
ef
11
17
32
d9
0c
2a
d5
da
11
0e
22
02
22
f5
fc
ff
33
f4
f0
ee
1e
e5
ff
0d
1f
1c
e8
0a
fe
16
b5
eb
d3
e9
01
ee
02
1b
1d
e8
1a
10
2e
07
16
29
1c
fb
d3
c9
09
2e
bd
de
04
d9
04
db
19
01
ee
f9
29
13
23
20
44
c2
ec
f8
f2
d9
f9
e9
fb
14
e3
fa
14
1a
c5
11
e2
fb
e7
f7
f7
09
24
ee
fd
21
02
17
28
d7
f7
f7
08
23
08
f7
02
25
09
07
00
10
25
0c
15
29
db
1f
e8
e8
25
d3
24
ec
19
3f
25
e9
2d
0c
2f
02
29
fa
12
ca
de
f7
01
f1
b5
e4
f8
43
ca
f4
ef
ff
2e
fa
05
0f
39
fc
40
f0
3b
ac
15
f1
d7
d5
da
e7
05
fe
30
e9
10
40
e3
07
0d
18
fe
f4
32
e6
f8
f4
08
fe
23
e9
23
eb
ff
ef
fb
0c
13
17
f4
b1
f4
18
e9
eb
0b
11
05
fb
fa
e8
22
06
1c
ed
06
0c
0d
2a
10
ed
22
f9
f1
f6
06
1d
ed
dd
0e
f8
04
f7
00
f6
0b
f8
0d
df
11
04
0b
22
1a
04
03
2c
fb
08
de
15
da
da
04
c8
ea
b1
fa
d6
22
de
09
fd
fe
24
05
fa
02
24
fc
0b
fe
10
18
18
04
f6
17
f5
40
e3
30
24
26
d2
17
e1
32
17
0e
fd
2f
f4
cd
1c
d0
06
05
ec
08
23
e9
ff
ed
f2
1f
0a
ef
15
1a
f6
15
18
cc
22
19
10
fc
1c
00
01
f1
1d
fb
0b
f6
f1
fb
00
ec
2c
e5
f2
1b
f1
e4
0b
ec
28
b3
1c
f2
fc
e2
ea
b8
e2
ed
10
f4
ea
d6
06
f9
21
fc
fc
d6
d5
01
3e
0c
18
f5
0b
f3
0e
09
f6
05
27
37
f8
fb
fe
22
0a
e6
06
36
ce
1e
f6
13
12
35
33
ed
08
03
f9
e4
e2
01
fe
35
e0
03
14
f2
15
f4
28
ef
ce
f2
00
00
00
00
00
00
00
00
00
00
00
00
00
00
00
00
00
00
00
00
00
00
00
00
00
00
00
00
00
00
00
00
00
00
00
00
00
00
00
00
00
00
00
00
00
00
00
00
00
00
00
00
00
00
00
00
00
00
00
00
00
00
00
00
00
00
00
00
00
00
00
00
00
00
00
00
00
00
00
00
00
00
00
00
00
00
00
00
00
00
00
00
00
00
00
00
00
00
00
00
00
00
00
00
00
00
00
00
00
00
00
00
00
00
00
00
00
00
00
00
00
00
00
00
00
00
00
00
00
00
00
00
00
00
00
00
00
00
00
00
00
00
00
00
00
00
00
00
00
00
00
00
00
00
00
00
00
00
00
00
00
00
00
00
00
00
00
00
00
00
00
00
00
00
00
00
00
00
00
00
00
00
00
00
00
00
00
00
00
00
00
00
00
00
00
00
00
00
00
00
00
00
00
00
00
00
00
00
00
00
00
00
00
00
00
00
00
00
00
00
00
00
00
00
00
00
00
00
00
00
00
00
00
00
00
00
00
00
00
00
