02
da
3d
d2
d3
ea
c9
e8
3a
26
e6
16
27
d9
1a
ed
d9
fa
d1
f5
da
f9
cb
16
0e
04
da
00
ff
03
18
f4
f9
20
39
fb
32
d4
03
ef
13
07
12
1f
c5
1a
1b
1e
f9
fb
fb
ec
db
1a
1a
17
f4
ec
e3
32
13
ec
0b
e1
bc
2b
12
e6
1c
ff
e8
08
12
d9
0d
d8
19
14
e8
dc
12
eb
f2
d9
0f
04
f3
fd
fe
f2
d4
1a
e3
15
02
21
11
01
19
d9
f0
de
2e
f3
e4
2b
36
d9
f0
06
ed
ec
0f
0f
20
fa
f6
04
25
e0
2f
06
f3
ee
f3
fe
19
28
dc
fc
f3
ee
c0
c4
ef
dc
e8
25
2f
0b
d4
07
03
d5
0e
fb
c3
29
cf
0c
0c
d0
0c
f8
f2
0a
df
1e
ed
e1
3a
f5
be
cc
34
c2
1b
01
13
fd
f4
4f
03
db
14
f7
f0
d8
e6
e2
14
f3
04
0f
d1
45
0f
f6
13
fe
25
fd
02
e4
f1
fa
c2
dd
e7
f3
d6
04
36
f7
f3
02
c3
1f
10
cf
05
e8
19
c8
ee
05
c3
09
1d
ec
d1
25
e3
d3
0c
e8
0e
fd
01
0d
2c
06
fd
17
f1
ee
07
03
0d
f6
e5
06
05
1a
27
37
08
f1
d5
24
e3
08
02
07
2c
18
fa
0c
dc
25
e7
1f
fb
f4
f2
09
db
04
f8
21
ff
2a
eb
32
da
ee
fa
eb
26
d8
ec
2c
e1
e5
3a
f6
1a
ff
fd
ec
37
0f
ef
ed
f2
06
12
d2
06
06
14
2c
0d
c4
0c
10
1e
0d
01
08
f1
59
e1
fc
ff
2c
c8
d8
f5
f6
10
ee
ff
ec
ed
d9
f9
0d
22
fa
e7
fa
d3
d7
1b
09
14
f6
db
fa
0c
f4
02
e8
d1
d1
f6
d6
4c
06
f9
fc
fc
df
1f
25
2c
24
17
d3
f2
1d
06
14
06
e9
ef
4a
24
09
d5
f4
01
e1
28
1a
f8
02
f5
e1
0f
e8
f9
32
e7
e9
0b
05
0c
14
20
e5
06
e4
2c
ed
30
05
d9
fd
f0
e2
f3
13
dd
0b
ee
03
18
f2
a3
03
16
e2
23
f4
ff
1b
05
00
0f
09
f4
f5
11
11
e4
11
2e
1e
ba
05
2f
10
20
ea
29
07
14
eb
fb
f6
16
f2
2f
d9
bb
19
e9
e5
0b
fe
fc
f3
e2
17
dd
d9
0c
09
d7
30
fb
f3
0a
b1
ee
1b
dc
ed
e7
03
03
0b
04
0d
28
e2
d3
0c
f8
1c
04
0b
d0
0e
14
fe
ef
15
29
cb
d6
e8
27
1b
2d
e6
e9
ef
dc
0e
18
04
cb
0e
18
fe
1a
1f
26
0a
05
0b
fe
fd
06
b3
01
e9
1b
31
03
25
e3
f6
0a
05
04
ea
f3
dc
fa
f8
15
f7
07
d3
f5
13
2c
e5
20
07
16
f1
f6
ea
f1
e9
f7
ee
05
e3
df
f9
ee
10
df
ef
c7
35
eb
1d
c9
22
e6
ee
d4
df
d8
07
e8
02
df
db
e2
16
21
d2
1d
1e
da
f6
f3
0a
0c
ee
e7
35
00
1d
ea
ee
28
01
fc
f8
19
cc
0f
e8
02
23
de
f0
08
1a
17
09
fe
df
e9
20
1c
f1
f5
e1
2c
23
2f
fc
f7
ea
e2
26
03
f1
fc
f0
26
28
11
f4
2b
f9
fe
d5
e3
0b
e4
fd
e6
40
eb
d9
14
08
fe
0d
f6
2b
1d
0c
08
b3
c1
db
f9
e0
fd
d1
de
f2
02
10
12
0c
1d
dc
f2
da
00
e9
13
12
ef
fd
4f
0c
13
fb
15
f7
1a
13
11
d9
db
0a
08
fb
03
16
f1
e9
db
fd
00
f1
11
f2
20
d9
dd
2d
22
30
c6
e0
ff
fa
39
fc
f4
f7
1c
ff
d3
e7
02
ea
12
fa
45
ef
d8
ef
da
0c
03
16
fe
c5
0a
b8
ed
23
fb
e8
fa
fc
26
ca
0e
29
f4
08
df
10
fb
ea
19
f1
e4
fa
fc
e7
29
24
38
06
06
cd
0e
07
14
f3
1d
0d
c9
1c
e0
11
08
2d
e0
15
0b
f1
fe
0b
15
18
00
00
00
00
00
00
00
00
00
00
00
00
00
00
00
00
00
00
00
00
00
00
00
00
00
00
00
00
00
00
00
00
00
00
00
00
00
00
00
00
00
00
00
00
00
00
00
00
00
00
00
00
00
00
00
00
00
00
00
00
00
00
00
00
00
00
00
00
00
00
00
00
00
00
00
00
00
00
00
00
00
00
00
00
00
00
00
00
00
00
00
00
00
00
00
00
00
00
00
00
00
00
00
00
00
00
00
00
00
00
00
00
00
00
00
00
00
00
00
00
00
00
00
00
00
00
00
00
00
00
00
00
00
00
00
00
00
00
00
00
00
00
00
00
00
00
00
00
00
00
00
00
00
00
00
00
00
00
00
00
00
00
00
00
00
00
00
00
00
00
00
00
00
00
00
00
00
00
00
00
00
00
00
00
00
00
00
00
00
00
00
00
00
00
00
00
00
00
00
00
00
00
00
00
00
00
00
00
00
00
00
00
00
00
00
00
00
00
00
00
00
00
00
00
00
00
00
00
00
00
00
00
00
00
00
00
00
00
00
00
