fe
f3
e2
1f
0d
12
2e
06
0c
13
f3
d6
18
08
f0
f5
0e
fb
01
f9
fd
1c
ed
02
29
e4
05
e6
27
29
1a
be
fe
24
1b
24
19
f7
cd
24
18
1b
f1
15
f9
3f
07
02
f0
f2
08
fe
eb
fb
ed
ca
f3
27
ef
ec
1f
f0
16
2e
0e
ed
f0
e8
f6
0b
0e
e7
16
0c
df
02
f7
2e
ef
ef
0a
09
0c
f5
00
f0
08
e5
f5
e5
3e
26
08
f3
fc
ef
0f
25
e7
da
f3
32
fc
ff
2b
16
ed
fd
0e
f6
fa
d2
12
d3
fa
ff
f2
e6
fc
20
06
d9
1f
03
09
e0
11
d4
eb
bc
ec
0c
e8
10
fd
f2
03
d1
00
dd
25
f5
0b
13
10
ea
f0
ed
ec
fa
e6
00
00
fd
fe
3d
15
1a
fc
e9
16
1a
f3
f8
cc
0d
04
13
f1
ef
f0
00
1e
c7
0a
df
fa
fb
da
0f
07
11
f8
e8
20
0a
ec
f9
06
15
f1
07
f0
0e
dd
47
12
14
ce
09
df
09
27
e2
09
0f
f0
f2
dc
f2
09
27
c2
cf
0b
f3
ef
10
ee
2b
14
32
1c
00
36
ff
e2
e1
19
ec
ed
10
1e
d1
da
0f
01
0d
e7
fd
03
e2
f2
db
37
0a
cf
0f
23
fb
d8
0e
ce
fd
05
eb
27
e6
14
f8
14
e9
f4
21
d6
bb
ec
05
07
eb
e6
08
e5
2b
fb
e4
e8
f1
ef
3f
04
f4
f8
cb
e8
f7
08
01
06
0c
05
14
d5
f4
01
f7
f9
08
24
04
ed
0c
e6
07
00
28
fa
15
4c
df
07
fa
cf
13
d1
0e
1f
f5
0e
f2
0c
07
f7
1b
ea
f3
2c
cf
1e
2f
d8
d6
e4
06
2c
ea
14
09
00
d6
f6
fd
f3
39
f1
0e
e3
e0
f0
13
fd
ff
f9
fa
16
ea
f8
11
fc
0c
ef
f4
e5
0b
0e
11
05
f0
b6
0f
d4
35
02
4a
02
f7
dd
07
29
e9
03
26
ec
e6
ee
de
cf
e8
d2
0b
1b
f0
e1
1c
0e
be
07
13
b8
23
08
dd
23
22
27
dc
cc
01
26
b8
f5
01
ed
f1
da
dd
d1
ff
e2
05
12
1a
01
09
38
07
10
ff
fd
27
17
ef
e5
0c
fb
ce
15
fa
0c
fb
39
fe
ff
e7
0b
11
1d
d8
39
de
f5
00
f0
f1
00
fb
34
eb
f5
04
08
ea
f2
e1
d4
07
e5
11
4b
f3
07
01
32
fb
d0
00
1b
d0
05
d1
0b
ef
0f
09
e2
2e
e6
f5
db
27
04
e9
eb
16
1d
f4
ff
01
09
ed
03
ef
04
0c
d2
f8
fc
d2
12
16
18
f3
16
d1
e3
f1
fb
e6
43
e4
14
18
f8
02
f8
e6
13
2e
fd
0d
02
f0
f5
00
f4
d1
0e
04
0e
1d
1b
f9
f5
f5
ed
12
14
fc
fd
e0
10
04
30
23
e5
f4
ec
ff
db
c5
f6
42
08
0b
fa
16
e7
fe
ee
11
e2
e5
0c
d9
05
f5
f8
10
1d
0f
e3
22
07
04
ec
13
f9
1f
10
fc
ce
0a
ec
e1
17
04
0d
12
bc
ea
1a
f5
d0
e6
27
07
e4
c8
eb
f5
e9
fb
ef
f5
f8
ea
f9
ec
ea
ec
43
13
ed
fd
e5
1f
0b
2f
eb
cf
20
22
09
ec
eb
d0
fb
d1
0e
f2
f2
4a
39
2a
e6
fd
06
e1
fa
1f
da
0b
1d
ec
19
e3
ff
f6
e0
03
0c
ca
c8
1a
08
11
f1
20
e3
e5
d4
27
e2
e7
de
ee
e2
09
fa
f8
fd
1c
02
26
08
0f
b5
dc
0f
16
00
b1
f7
2a
14
f4
db
f1
1a
1d
f6
02
12
fc
19
ef
11
0d
0f
1d
23
fc
f3
0b
03
34
02
ee
41
25
e5
1f
14
fd
f2
07
0b
27
bc
19
d6
24
19
14
43
52
01
01
ed
fd
c1
ff
27
f0
1c
ab
ff
15
2e
17
2c
e5
25
f0
fe
f6
2b
da
0e
2a
f6
0c
2a
02
07
ee
30
28
e7
0b
03
fe
d8
07
0c
28
0f
ec
0f
fe
d8
49
10
0e
00
00
00
00
00
00
00
00
00
00
00
00
00
00
00
00
00
00
00
00
00
00
00
00
00
00
00
00
00
00
00
00
00
00
00
00
00
00
00
00
00
00
00
00
00
00
00
00
00
00
00
00
00
00
00
00
00
00
00
00
00
00
00
00
00
00
00
00
00
00
00
00
00
00
00
00
00
00
00
00
00
00
00
00
00
00
00
00
00
00
00
00
00
00
00
00
00
00
00
00
00
00
00
00
00
00
00
00
00
00
00
00
00
00
00
00
00
00
00
00
00
00
00
00
00
00
00
00
00
00
00
00
00
00
00
00
00
00
00
00
00
00
00
00
00
00
00
00
00
00
00
00
00
00
00
00
00
00
00
00
00
00
00
00
00
00
00
00
00
00
00
00
00
00
00
00
00
00
00
00
00
00
00
00
00
00
00
00
00
00
00
00
00
00
00
00
00
00
00
00
00
00
00
00
00
00
00
00
00
00
00
00
00
00
00
00
00
00
00
00
00
00
00
00
00
00
00
00
00
00
00
00
00
00
00
00
00
00
00
00
