04
f6
17
07
30
f0
0b
d2
fa
fd
fb
21
0f
e3
29
fa
d0
f8
07
f1
c9
ea
d8
01
17
de
04
ed
22
07
ec
37
10
cb
f6
16
0c
1a
ef
03
eb
ee
11
2b
3f
08
18
d5
23
16
fa
0c
28
21
1c
e8
3c
cf
20
e2
36
1d
0b
50
3a
16
e9
18
21
d3
1a
16
1d
f6
09
27
e5
12
04
ea
10
17
fc
ee
fd
1a
27
05
04
18
0a
20
e3
0c
dc
17
f0
08
e9
03
03
03
d1
18
fd
b6
ee
02
e4
f5
14
e8
14
c6
fb
e7
0e
d6
ff
23
1b
df
05
2b
f4
f8
d7
e4
05
e4
04
26
f5
12
0c
10
ea
0c
46
1b
1f
03
ef
ec
07
1d
e2
d8
e8
d7
0f
12
d3
03
fa
ed
f5
26
20
03
f9
1d
1c
dc
e5
38
eb
df
e6
f2
27
d4
39
f3
0d
d5
e2
35
28
e1
06
0b
02
08
44
0c
02
f9
f8
fe
2d
19
ec
ba
d4
ff
db
01
18
08
ff
ea
24
18
02
02
4a
f8
38
02
fe
e6
ee
ec
15
f8
1d
ef
f6
16
03
0b
0b
d5
13
d2
d4
05
e4
e5
1a
4a
0d
e0
28
0e
2c
06
10
fe
f5
ec
ed
df
f0
0e
f8
e7
fc
ff
c5
e7
3b
2d
eb
31
0d
f4
f6
d5
e5
e1
15
ee
15
b4
d9
0c
02
17
ee
23
e5
dd
ff
0f
10
d4
fb
f4
1f
25
14
f2
ee
f3
1c
cb
f0
d6
16
f9
1f
08
01
fa
ca
04
c0
e0
1c
ef
1f
e2
fd
f7
09
ef
ef
fd
1b
04
18
18
e8
f1
23
06
f9
27
00
26
d1
03
ef
f5
ec
e8
e2
ef
f1
ed
fc
fd
25
fb
0b
f3
19
c5
16
15
26
25
df
c9
0e
dd
14
ff
fd
07
e7
22
22
0d
ef
d4
00
0c
ed
cf
e0
0e
07
ca
01
2c
c8
2b
ec
f5
0b
0e
03
db
d4
ee
2d
e7
13
ef
fd
23
01
ec
ec
24
e4
f9
03
04
16
0e
f4
11
f8
ef
f7
f3
01
f9
12
1a
1c
1d
0a
33
23
00
e9
1c
0c
f5
f9
f3
08
17
db
dc
1f
1b
f6
29
09
01
c4
e8
0c
ec
22
09
e9
0d
1a
ea
fe
f1
2e
17
12
02
08
e4
14
d8
e8
d7
de
f0
42
16
da
2c
16
ed
d6
f8
fe
03
20
f1
18
e2
02
25
c3
05
2e
55
0a
dc
c5
b8
f7
44
fd
20
e1
f5
e6
e1
14
f1
07
e0
02
0b
09
dc
1e
c2
e5
df
ec
df
41
e7
25
db
11
e5
1c
f0
06
10
17
21
ec
1e
f3
fc
fb
e3
a4
2b
d5
e9
d3
1b
1f
14
05
1f
10
1a
21
f0
0f
01
f7
fe
35
07
fd
18
de
2a
21
2b
22
e8
fc
d6
d3
08
fc
0d
17
1d
2e
15
ff
c6
df
d5
04
5b
01
08
0c
e3
39
f3
1a
07
da
2e
0b
e4
e6
ff
fe
0e
d8
dc
01
10
1d
f2
f6
12
ff
fc
f2
11
34
16
f1
21
0e
f5
ff
e0
23
eb
12
fa
f3
0a
12
19
e1
fd
3b
07
08
f2
fc
fd
1a
26
f7
de
1d
e8
03
ea
d6
07
0b
f0
1e
18
d6
10
15
ff
3a
12
0f
2e
fa
0d
eb
13
db
02
f6
a1
d5
dd
fa
f0
08
39
1e
33
55
be
29
0c
c5
0a
d1
e5
ff
2f
04
f1
1f
10
ed
06
da
f4
1c
1d
3b
fb
27
1a
0f
34
01
0f
ee
03
4c
f7
20
b6
17
1b
0b
d4
12
08
e1
fc
1f
01
d8
f0
28
09
e4
06
e0
d0
f5
0a
18
e9
14
fb
e4
f7
27
29
f1
ef
13
03
14
06
17
f4
e6
06
06
31
06
f6
1a
f6
fa
37
4a
23
23
00
b5
f3
de
e4
16
ed
07
ed
0b
d5
dd
f2
f6
01
14
1a
24
dd
0d
09
f2
e4
ff
2b
ef
dc
e5
e7
b3
dd
25
ca
f1
d1
ee
e2
2c
0f
d4
db
44
d2
ff
13
df
04
1f
31
0b
06
26
fc
00
00
00
00
00
00
00
00
00
00
00
00
00
00
00
00
00
00
00
00
00
00
00
00
00
00
00
00
00
00
00
00
00
00
00
00
00
00
00
00
00
00
00
00
00
00
00
00
00
00
00
00
00
00
00
00
00
00
00
00
00
00
00
00
00
00
00
00
00
00
00
00
00
00
00
00
00
00
00
00
00
00
00
00
00
00
00
00
00
00
00
00
00
00
00
00
00
00
00
00
00
00
00
00
00
00
00
00
00
00
00
00
00
00
00
00
00
00
00
00
00
00
00
00
00
00
00
00
00
00
00
00
00
00
00
00
00
00
00
00
00
00
00
00
00
00
00
00
00
00
00
00
00
00
00
00
00
00
00
00
00
00
00
00
00
00
00
00
00
00
00
00
00
00
00
00
00
00
00
00
00
00
00
00
00
00
00
00
00
00
00
00
00
00
00
00
00
00
00
00
00
00
00
00
00
00
00
00
00
00
00
00
00
00
00
00
00
00
00
00
00
00
00
00
00
00
00
00
00
00
00
00
00
00
00
00
00
00
00
00
