30
fe
0b
f5
29
d8
f9
f2
d5
fa
01
f9
d9
1f
e4
cb
14
fe
0b
df
12
fd
ee
ea
16
0e
19
ee
c6
3a
fa
ee
15
29
0c
f6
f9
e8
10
e6
ff
fb
ff
e0
e7
35
0f
ec
16
ee
d8
20
cc
02
fa
f0
c7
03
09
30
04
fa
e2
3d
f8
fd
f5
dc
e5
f5
ed
52
0a
cd
ea
0f
1f
f6
07
f1
dd
ef
22
fb
34
2b
fe
fa
fc
ff
f1
e0
02
e7
21
ef
2a
0c
fa
d8
2d
c6
1c
4f
1d
14
f4
26
d2
0c
03
0f
16
f5
09
f5
f6
0c
ee
08
04
f6
0b
f8
32
fc
03
f6
0d
db
ce
1e
0e
f5
12
03
d3
26
1c
0b
f5
f0
d4
40
dd
25
fa
b6
1b
0b
0c
09
f3
20
ff
21
04
25
ef
ed
de
1c
25
fa
12
29
e0
04
0c
ff
03
09
f6
41
1c
10
fa
1a
11
c9
28
30
e5
1c
0d
38
cf
2b
f5
05
0a
fa
bc
e9
09
f4
f3
f4
18
2a
44
df
2e
f9
fa
09
12
de
db
0c
fe
0a
0a
09
04
f2
f7
f4
01
19
e6
d3
25
24
ee
24
f1
d0
0c
e6
28
f8
27
27
e8
02
18
be
02
fe
12
08
dc
05
04
f9
06
dd
dd
e7
fa
f7
ef
0c
fd
f2
05
15
10
e8
18
13
ea
0e
ed
11
04
df
f0
fa
f9
fb
f5
10
23
eb
c7
41
fd
0d
ff
00
18
2a
1a
10
f2
2f
e3
04
da
fc
d9
fe
dc
f8
f2
fb
cf
18
f9
dd
ea
df
23
0c
ef
2f
0d
fc
21
18
17
e4
2b
36
0a
1f
e7
16
d4
e2
0a
f7
f3
e9
e4
ee
eb
1b
f3
19
06
f9
04
e4
1a
1c
cc
c6
0b
07
13
21
f0
05
ef
f1
0b
00
bc
09
da
14
08
0b
e3
cc
14
1c
fd
e9
0c
ff
11
ff
ed
c7
05
2b
1e
fd
e2
db
07
e8
0c
e3
19
f3
d1
fb
eb
ef
1c
06
0c
07
1e
fb
d3
06
2a
00
0a
d1
55
0f
fb
03
0d
e4
f7
eb
e7
ee
ed
06
f1
fa
f4
36
12
ef
1d
07
e5
00
23
33
64
d6
dc
15
03
06
22
f2
d4
e7
ed
13
e9
f3
0e
36
19
e8
07
ed
00
1e
f6
e0
d0
14
e1
0b
06
27
d2
f7
df
1c
fe
ea
15
26
07
f3
f7
34
ff
fd
e7
07
16
f5
12
15
17
df
fb
f8
f8
e5
f4
e9
17
fe
c3
33
f2
07
fa
fc
fd
1e
15
06
1b
dd
d2
d2
03
1c
e4
da
14
12
c8
fb
fd
eb
24
fa
30
16
c2
08
f6
fe
f2
0e
3a
0d
06
d6
cf
f1
0e
15
e8
c5
b8
14
37
fb
1e
f7
25
f0
dd
fa
d6
09
ef
fb
f2
06
2c
fd
24
e1
05
e0
0f
27
fa
1d
f1
04
00
da
19
f0
0b
18
fd
e7
d5
d2
09
1d
3a
28
11
13
04
e2
fe
fe
07
1b
22
e3
e1
00
00
15
f8
0d
1a
06
2f
ea
2d
04
ef
12
f7
c0
ff
2b
f7
c3
11
f0
0b
00
ed
d1
ff
ee
f3
22
08
db
0a
f4
d6
f8
fa
f8
fe
15
0a
f2
21
f6
32
e5
c5
47
d8
d9
fb
05
e6
14
11
fd
00
26
f4
2b
14
12
0b
f3
ec
13
29
18
ff
01
15
fd
23
11
e4
01
d6
d4
1c
e7
fc
d3
30
32
07
f9
ed
d9
f7
f3
0e
1c
e5
05
06
fc
2c
f1
12
0d
1e
04
c4
04
19
1c
d3
f2
e2
c4
3e
18
f9
05
13
21
ee
f4
44
19
25
ed
18
f8
21
0d
03
f4
2c
10
01
12
e2
e1
15
29
23
23
e1
e5
00
1d
18
c5
03
f4
e3
04
0f
f8
e1
fb
fd
e2
03
12
1b
ec
fc
f0
1d
52
dd
20
f4
f6
2f
17
00
f2
01
db
e2
e7
15
39
2a
1b
0a
26
24
08
ec
ff
11
f9
2a
f5
f4
2a
e0
ed
1c
ed
03
21
1b
0d
ce
09
c6
ff
14
27
23
da
d6
d3
00
00
00
00
00
00
00
00
00
00
00
00
00
00
00
00
00
00
00
00
00
00
00
00
00
00
00
00
00
00
00
00
00
00
00
00
00
00
00
00
00
00
00
00
00
00
00
00
00
00
00
00
00
00
00
00
00
00
00
00
00
00
00
00
00
00
00
00
00
00
00
00
00
00
00
00
00
00
00
00
00
00
00
00
00
00
00
00
00
00
00
00
00
00
00
00
00
00
00
00
00
00
00
00
00
00
00
00
00
00
00
00
00
00
00
00
00
00
00
00
00
00
00
00
00
00
00
00
00
00
00
00
00
00
00
00
00
00
00
00
00
00
00
00
00
00
00
00
00
00
00
00
00
00
00
00
00
00
00
00
00
00
00
00
00
00
00
00
00
00
00
00
00
00
00
00
00
00
00
00
00
00
00
00
00
00
00
00
00
00
00
00
00
00
00
00
00
00
00
00
00
00
00
00
00
00
00
00
00
00
00
00
00
00
00
00
00
00
00
00
00
00
00
00
00
00
00
00
00
00
00
00
00
00
00
00
00
00
00
00
