2f
26
16
00
04
2a
f3
d3
03
13
07
f6
0a
0a
fd
32
e7
12
ea
22
21
da
10
be
18
fc
00
09
f1
28
3d
fd
f9
d3
f8
2c
f6
fd
e8
f3
ee
f4
3d
f1
f4
0b
12
01
f7
0e
df
ea
0b
09
0e
48
12
0f
ef
f9
dd
de
f5
0c
fa
df
0c
05
13
1c
1e
dc
f5
1f
19
20
ed
25
3b
14
b9
0f
31
ed
07
0f
fc
12
e8
f3
43
e7
14
c8
e1
ee
ff
ed
05
18
f2
1b
ee
13
fa
ff
e4
44
f4
f2
1a
ed
fc
0f
08
d8
e5
2a
18
ce
05
37
01
01
03
e7
0d
e7
f8
e4
20
03
27
f3
b6
f3
0b
0c
fa
fa
fd
e7
fa
d7
09
14
e6
e0
34
e9
dd
f2
eb
d0
08
fe
13
f5
e7
27
f3
4b
11
15
d3
ed
df
07
da
07
e1
01
06
25
1f
f7
32
e5
38
cb
1e
07
01
d8
00
f5
12
f0
d2
25
d7
09
fe
0b
41
0b
05
07
27
1f
0a
e7
40
e3
05
25
06
13
08
ed
04
df
0b
06
df
fc
02
ff
f8
ea
dd
ef
e7
1d
11
e6
18
21
1a
01
f2
e6
c8
e7
04
16
c9
ea
07
ec
05
b1
35
0c
f3
f7
04
00
16
20
e7
10
19
2a
13
ef
03
bf
12
f9
ed
09
f4
03
1f
eb
09
f5
f5
0c
2e
f0
1b
ee
05
12
25
d8
d1
d0
fa
13
01
fd
c7
ef
17
0d
e8
04
01
09
07
15
d3
e0
fb
08
f2
e2
de
f3
03
fe
2e
0e
0a
06
f9
e1
ea
ff
3d
e7
e8
ec
07
10
04
e1
1e
f2
e6
f7
df
1e
02
27
16
20
0c
17
2f
22
d6
26
e4
17
fc
f5
50
ef
09
07
0c
d5
07
0d
f0
f8
f0
04
0e
da
1d
0e
24
ed
0b
ef
e3
e9
d2
fb
ae
0c
41
0b
04
08
f2
f7
02
07
17
db
f7
16
ed
0c
1a
0f
18
e6
ec
02
eb
02
f7
17
0b
fa
e9
e8
09
0c
0d
f7
d2
cb
f3
e4
0e
f4
06
10
15
e1
e2
ec
e4
e4
f4
e0
df
f2
13
33
fa
f4
e5
db
0c
db
11
d5
fc
16
15
05
eb
04
16
da
16
15
3c
06
f5
f9
1b
b0
b9
f0
04
14
ee
1d
10
bf
24
f6
fe
f0
00
09
e8
05
f6
09
08
ef
f4
30
04
e7
12
f3
df
20
04
e7
e2
35
f4
30
40
fa
cb
0a
fe
e9
fb
f7
04
06
e0
08
ff
07
dc
f2
df
db
e0
18
fc
d8
f4
00
fb
fa
fc
d7
2b
d0
e1
0d
de
e9
12
11
f5
12
0a
fd
d2
41
1e
ef
f9
06
e9
ef
3d
0a
ff
ca
07
1f
f9
ff
03
0c
f3
1d
f4
09
43
10
db
e4
13
ff
1b
0d
07
20
f8
e2
20
f3
22
0b
36
f7
ee
1e
fa
ed
24
17
2b
0f
fd
fe
16
00
e5
d5
2c
2a
0a
21
f6
f5
f1
f3
09
00
eb
21
e6
20
17
24
19
25
f4
fa
f6
18
f8
f8
04
12
07
d5
27
cc
e2
e1
01
d1
07
09
da
d8
eb
18
18
ea
10
00
16
f8
1b
f8
e4
d2
24
05
1b
fb
0e
14
25
1a
e8
24
f1
f3
d8
11
cb
2b
d9
ed
dd
0b
1d
11
db
15
27
25
0d
15
eb
12
c4
20
21
fa
17
f9
02
08
f6
1c
03
02
d0
1f
3b
f9
e7
1a
21
fe
06
f7
09
4d
03
23
23
fd
ef
fd
ee
36
f1
1c
0d
f2
f4
2f
de
fc
3b
de
d3
04
22
f6
d7
17
0b
0c
01
fb
0c
19
dc
10
f3
fc
eb
2e
2c
34
f0
1e
ca
f5
1d
fa
f8
28
f0
fa
e8
15
fb
ef
e2
10
10
f5
03
1d
17
fd
ed
0e
12
d0
ec
07
04
fa
ea
05
db
1a
07
d5
14
16
ec
0f
e0
10
27
e9
1c
4a
0b
02
40
fe
df
e1
27
08
fc
2a
ff
28
0d
0f
c9
32
ef
33
04
b6
e5
f5
09
ed
2f
bf
00
00
00
00
00
00
00
00
00
00
00
00
00
00
00
00
00
00
00
00
00
00
00
00
00
00
00
00
00
00
00
00
00
00
00
00
00
00
00
00
00
00
00
00
00
00
00
00
00
00
00
00
00
00
00
00
00
00
00
00
00
00
00
00
00
00
00
00
00
00
00
00
00
00
00
00
00
00
00
00
00
00
00
00
00
00
00
00
00
00
00
00
00
00
00
00
00
00
00
00
00
00
00
00
00
00
00
00
00
00
00
00
00
00
00
00
00
00
00
00
00
00
00
00
00
00
00
00
00
00
00
00
00
00
00
00
00
00
00
00
00
00
00
00
00
00
00
00
00
00
00
00
00
00
00
00
00
00
00
00
00
00
00
00
00
00
00
00
00
00
00
00
00
00
00
00
00
00
00
00
00
00
00
00
00
00
00
00
00
00
00
00
00
00
00
00
00
00
00
00
00
00
00
00
00
00
00
00
00
00
00
00
00
00
00
00
00
00
00
00
00
00
00
00
00
00
00
00
00
00
00
00
00
00
00
00
00
00
00
00
