9b
e5
0c
72
eb
f0
1a
c7
f3
2d
f0
fd
e8
d3
0b
00
39
1c
eb
02
f5
10
0a
fe
14
1c
10
e1
f3
38
f3
0e
30
dd
20
ee
e7
07
fd
0f
f9
ea
d0
10
ee
f6
3c
21
2a
0a
12
c1
dd
25
35
ea
db
e9
11
03
2c
f0
4f
b6
1e
d9
bb
fc
3e
ff
fd
ed
08
e2
db
f3
03
e5
08
40
3e
e7
d0
1f
f8
fd
1b
22
ff
4b
2d
e0
36
2c
f3
f4
00
d0
19
d6
3a
23
fb
c4
3a
28
bf
0e
b0
ec
fa
e4
f0
e9
19
17
42
46
13
de
0b
df
f9
41
d4
f6
d5
f1
