f3
06
03
36
1c
f5
05
12
08
f2
f7
31
eb
08
0e
e5
db
ed
0b
36
30
e3
fc
09
d3
01
16
03
ef
f8
fb
c7
24
5d
fe
1e
0c
04
03
10
d4
f5
d5
24
1d
e3
05
cc
1e
29
f7
09
c1
eb
ea
e3
fd
0b
ec
3b
03
e7
e7
f8
25
f1
d2
19
ee
ce
0f
e5
0c
f3
0c
17
20
03
de
d9
ff
35
24
13
14
31
c7
31
f8
f6
20
d0
11
21
e1
01
e6
39
e3
f1
de
db
ef
16
fb
16
0e
26
0b
15
10
cc
19
31
bf
f8
0e
3e
0e
09
0b
11
e7
e1
e3
29
21
fa
