0d
d2
f4
cf
ea
32
ec
0b
0a
ee
ea
38
1e
15
19
06
e8
1f
30
f8
3e
cd
f2
2e
ff
d2
d5
0b
0a
e9
1e
b3
f5
07
10
d7
f7
09
ca
e8
0d
e0
f3
34
05
f9
ef
f1
1d
c6
fe
fd
e1
04
07
1e
07
bb
e8
16
36
03
34
16
12
1d
dc
05
48
e2
f2
d5
07
eb
0f
f1
06
f1
06
33
3e
eb
f0
f5
f7
1e
38
f8
0c
e4
33
ec
18
1a
0c
01
d6
b7
12
15
de
ca
28
d9
da
09
1f
ea
ba
ce
11
39
37
5d
38
22
9d
ea
d2
d2
1e
3d
f1
fa
dd
e2
fb
db
