f5
b5
fa
26
15
2b
43
f9
b8
1b
04
e7
31
3d
18
f4
39
24
f3
e2
f6
12
2c
04
4c
e2
40
1e
36
bb
25
e6
fc
0b
08
f5
ef
cd
f0
24
0c
09
1a
cd
f8
04
d9
ea
04
d8
24
e0
fe
ed
1c
cc
2d
eb
2d
0e
17
fc
ef
ff
27
22
0d
cc
f7
39
da
f1
ed
e7
09
12
59
0c
f1
57
bd
2c
0b
f2
ef
e6
03
04
dc
bf
ff
05
06
ee
12
12
e7
0f
0e
0a
f6
ee
ec
00
20
42
ea
b7
e2
2b
27
29
4f
07
34
d8
d8
1d
34
25
31
19
03
c3
db
05
0f
e8
