2e
0f
f6
00
ea
f0
fc
eb
16
ea
05
17
15
1d
3d
39
0c
32
04
fe
f1
e4
2c
fa
d9
36
f1
27
0a
05
f0
e1
f5
f9
08
20
b8
d9
10
06
e9
39
ec
10
0e
fa
e9
e4
f5
ec
08
10
e3
df
fa
27
02
b4
06
ff
38
d1
e6
f6
25
2d
1d
02
dd
fa
c1
21
ed
ff
0c
0b
f2
24
ea
65
ec
3f
f6
24
0f
e3
fa
f0
e0
13
e2
e1
f1
f3
27
15
06
cf
0c
de
e2
13
2d
13
21
28
0b
0d
3a
fa
fb
f1
05
f6
e4
0d
06
33
f5
01
ec
2c
f8
e8
e4
0f
1c
e1
dd
18
02
01
01
fa
05
0d
d5
e3
03
ec
0d
2c
02
29
d1
16
22
fd
09
04
e5
f5
f7
25
21
f4
26
e6
e8
f0
0a
26
30
07
e1
dc
fd
ff
40
51
07
da
fc
f3
c3
a6
07
0f
ff
ca
16
06
d0
f9
fc
0d
f3
fc
d2
e6
1c
fd
e9
04
f5
13
fd
d8
08
f0
fc
3b
16
fe
fc
ef
cf
cb
f2
e6
09
f7
fc
fb
0b
29
29
2b
23
04
f5
e1
2d
23
05
36
2a
eb
1b
03
0c
1f
fa
d6
13
db
0f
23
ee
f2
e8
11
13
2c
0d
14
08
27
f1
01
17
1b
fd
11
f9
0e
2c
ef
15
12
e0
10
07
f0
0e
22
1a
fc
36
f5
fc
10
00
0c
13
08
d5
fc
dc
03
2f
c6
16
16
fc
20
f2
ff
27
0b
12
e7
ef
2d
f5
30
1c
0f
09
fd
fa
09
d5
01
ef
d9
e3
0c
25
14
de
0e
08
de
04
14
d2
fd
15
33
fd
20
19
fe
e1
0d
f0
fc
08
0e
19
fb
f0
14
0e
f1
fc
ea
26
2c
12
04
e1
20
11
c8
f6
f8
f6
10
16
13
e5
ee
e6
22
e0
da
f4
39
e1
e3
1c
c0
e3
0d
ee
d6
fb
fb
10
2e
d1
29
eb
04
0f
3d
1a
42
03
04
ea
2c
0f
25
19
18
be
02
e1
fe
02
0f
d6
03
17
fa
f8
ed
de
fd
12
f5
f1
cf
f7
08
ec
1e
c0
e3
e6
f0
15
fa
09
44
d5
ed
fe
cd
13
f0
0b
2b
f0
fd
cd
e9
f5
f8
d7
27
31
46
12
fe
e2
f6
ce
0a
e6
00
31
13
0a
0e
18
12
20
e4
28
ea
ef
e9
fd
d9
e3
09
01
11
37
df
dc
e8
c4
18
d8
eb
16
f9
f3
f2
0c
24
f1
d4
db
d3
07
17
09
09
15
ff
ea
f3
28
16
3b
f6
f5
21
04
05
eb
dc
09
2e
e8
01
01
f3
2e
f0
db
03
1e
e9
ba
cc
e7
33
f9
1d
0c
03
ff
0c
0a
f0
d4
12
e7
c8
0c
ca
a4
fd
08
fc
f3
f4
f7
f4
de
0d
e0
f7
1e
00
19
0c
e6
f6
19
f7
dd
05
ff
f7
c5
1c
09
fd
1e
12
fd
fc
f4
e7
26
2b
f0
b6
0f
cf
e6
08
40
dc
0f
f0
00
c0
e2
09
00
01
e7
d5
14
c6
f4
28
f4
d1
0b
1d
30
eb
e6
dc
ea
12
c7
e6
fe
22
12
5c
b7
10
e7
fd
14
d5
b4
05
fb
ea
e8
0d
e6
dd
03
09
e4
d1
22
f2
fd
11
04
01
db
e0
0d
0b
35
ef
f6
fa
00
ff
d2
04
fb
ce
fd
e9
00
ee
d5
0e
0a
fc
c0
38
1f
0c
01
03
18
03
12
e8
ff
f0
d4
ec
ff
ee
ed
20
04
22
e2
04
e0
d6
14
1b
22
ee
05
d6
fa
27
1a
e4
1d
ef
29
f7
fa
20
12
06
e2
e4
f2
24
08
23
19
f2
19
06
ed
f0
1f
f7
fe
f0
ec
0d
fa
f9
17
f2
f6
11
30
08
10
f5
1e
fa
f7
0e
0b
fd
ef
01
f5
27
30
10
f2
fc
ec
e7
cb
e9
f5
f7
fe
05
19
ee
3f
f7
fb
05
21
fe
00
26
d5
01
12
f3
e8
e0
e9
46
d5
00
e8
d0
fd
e9
15
f0
18
f7
07
11
0e
2c
1a
0c
fd
d0
fa
f0
00
1f
19
0d
0d
0b
00
00
00
00
00
00
00
00
00
00
00
00
00
00
00
00
00
00
00
00
00
00
00
00
00
00
00
00
00
00
00
00
00
00
00
00
00
00
00
00
00
00
00
00
00
00
00
00
00
00
00
00
00
00
00
00
00
00
00
00
00
00
00
00
00
00
00
00
00
00
00
00
00
00
00
00
00
00
00
00
00
00
00
00
00
00
00
00
00
00
00
00
00
00
00
00
00
00
00
00
00
00
00
00
00
00
00
00
00
00
00
00
00
00
00
00
00
00
00
00
00
00
00
00
00
00
00
00
00
00
00
00
00
00
00
00
00
00
00
00
00
00
00
00
00
00
00
00
00
00
00
00
00
00
00
00
00
00
00
00
00
00
00
00
00
00
00
00
00
00
00
00
00
00
00
00
00
00
00
00
00
00
00
00
00
00
00
00
00
00
00
00
00
00
00
00
00
00
00
00
00
00
00
00
00
00
00
00
00
00
00
00
00
00
00
00
00
00
00
00
00
00
00
00
00
00
00
00
00
00
00
00
00
00
00
00
00
00
00
00
