1e
0f
26
df
da
f0
ef
24
fe
08
08
4c
09
e6
ce
dc
e3
f7
ef
d9
fa
ea
0e
be
f1
ee
be
40
01
f7
f4
17
11
2b
ea
00
e5
31
eb
d6
eb
f5
c7
f8
1a
e6
27
fc
33
05
11
e3
e3
13
ea
f9
08
15
ec
2a
da
26
30
09
c2
f0
fc
e5
c4
3b
00
0c
c4
0e
14
ee
ed
ed
02
08
df
f0
d7
27
06
0e
f6
d9
05
09
fd
1a
1a
3b
2a
04
df
e9
19
05
c8
35
12
ec
e7
f1
f4
de
42
31
03
fc
0f
15
ff
e9
24
1c
e6
c6
09
d2
28
e9
0b
bd
de
fa
c2
2e
f1
00
2c
f4
c2
df
0e
ca
0c
df
17
0e
15
fc
f1
f9
01
25
ff
03
0e
e6
09
ff
f1
f1
c3
14
01
2f
21
e8
09
17
fe
15
08
cc
05
fa
e5
f2
03
15
31
f9
ea
0d
04
0f
00
ee
ef
1d
04
ca
01
ec
3a
30
ff
28
1f
e5
e2
10
0c
02
eb
0a
28
fd
e9
c3
e4
06
14
f2
0b
3c
ec
e6
22
04
02
e7
1d
03
e2
0b
07
03
06
05
db
ec
0c
07
e6
12
e5
08
1a
28
22
06
12
1b
f7
ec
19
e9
ff
0b
03
e3
f5
00
fa
cb
d3
39
08
1b
e8
ff
df
0c
ec
f2
ca
f2
fe
fc
e4
2b
d6
fc
22
d5
cf
e6
f1
f5
c9
0f
ff
ee
01
c6
09
d4
11
29
16
d5
d0
f7
ee
2c
1c
06
1e
f2
2c
fc
07
0e
f4
ea
1c
ee
07
f1
05
fe
0b
0c
0f
01
47
fd
08
16
ee
fa
26
2a
e3
22
d4
13
01
06
0b
0b
f5
c3
07
d3
e3
f1
d2
d8
0d
e3
15
1b
0b
2a
d8
ef
45
02
25
d0
ea
31
04
f1
fb
f7
32
17
07
ca
d2
25
e6
fc
08
d6
ee
e4
e1
20
e4
f9
1d
18
0f
09
ee
01
dd
fe
0a
e4
04
24
e7
3b
07
00
ed
e0
22
e6
be
fc
f7
0e
2f
b8
f5
14
cb
0a
f3
06
04
18
d0
fc
ed
ff
05
de
e4
02
d6
01
ea
35
f2
cf
0b
bb
29
1f
f0
1f
21
ea
2c
e0
e9
ca
0b
1a
f9
5b
f8
1d
fd
09
16
fa
04
24
f6
ed
f9
08
f9
1c
f8
e5
0a
11
ef
f4
d3
12
ff
12
fb
27
f3
0f
b9
f0
e6
2e
13
e2
1f
fb
07
1d
ef
1c
e6
d4
03
13
f9
39
0b
ff
db
00
27
d9
fe
d3
fa
26
11
2c
e0
a1
fc
0e
02
f1
f9
e5
d7
df
26
db
57
20
05
ed
04
07
f4
11
f3
1a
05
12
08
fc
1e
cc
05
11
ec
f7
c7
e8
f4
20
1c
f6
fe
c8
fc
ff
40
02
f6
eb
f7
1d
f0
ef
2b
08
00
e7
f1
f6
dd
27
ff
ef
23
d3
f0
07
f0
d0
eb
0b
e7
f6
17
cb
26
00
1b
ea
11
16
cf
09
12
f4
01
c7
1d
27
13
27
14
fe
c0
10
12
fb
01
d7
16
02
25
f2
14
e7
fa
2c
e2
fc
32
2f
db
3f
ff
2b
f3
ec
0d
fc
1d
c7
db
24
f7
06
20
f0
f4
db
f1
20
fc
0e
f0
13
bf
07
d7
e3
0c
06
04
16
fc
fa
31
e7
f8
19
07
1b
31
ec
f8
01
32
fc
06
1b
05
fb
1b
03
36
22
1a
15
dd
0c
fe
12
bf
ea
e7
0c
00
f8
1b
05
ea
fc
14
e1
d1
d8
e9
05
01
03
19
07
23
df
f8
09
ee
e7
e8
ea
fc
19
fa
fc
16
08
07
f9
d1
22
0a
f9
11
f0
16
3b
c0
e8
24
26
00
f9
0c
e0
03
d4
f2
d1
fd
06
0a
e0
05
1e
01
3b
f8
07
1b
e8
17
fd
20
3a
d0
f8
1c
10
e4
1c
f4
e5
eb
f1
24
f5
22
e0
d8
0e
3b
06
fb
12
f0
ef
2a
ff
de
ee
f8
03
f9
f7
16
d3
08
17
2d
05
0f
0d
0c
f5
d2
22
0d
f6
18
f9
e9
df
05
fc
18
da
ed
fc
00
00
00
00
00
00
00
00
00
00
00
00
00
00
00
00
00
00
00
00
00
00
00
00
00
00
00
00
00
00
00
00
00
00
00
00
00
00
00
00
00
00
00
00
00
00
00
00
00
00
00
00
00
00
00
00
00
00
00
00
00
00
00
00
00
00
00
00
00
00
00
00
00
00
00
00
00
00
00
00
00
00
00
00
00
00
00
00
00
00
00
00
00
00
00
00
00
00
00
00
00
00
00
00
00
00
00
00
00
00
00
00
00
00
00
00
00
00
00
00
00
00
00
00
00
00
00
00
00
00
00
00
00
00
00
00
00
00
00
00
00
00
00
00
00
00
00
00
00
00
00
00
00
00
00
00
00
00
00
00
00
00
00
00
00
00
00
00
00
00
00
00
00
00
00
00
00
00
00
00
00
00
00
00
00
00
00
00
00
00
00
00
00
00
00
00
00
00
00
00
00
00
00
00
00
00
00
00
00
00
00
00
00
00
00
00
00
00
00
00
00
00
00
00
00
00
00
00
00
00
00
00
00
00
00
00
00
00
00
00
