d3
1f
06
12
0b
f9
d9
38
d6
d2
ee
02
29
eb
0d
5a
00
50
fd
bb
01
da
f0
f1
48
c9
ff
d4
ff
f8
2b
f4
f2
27
ef
fb
17
f1
d2
ea
e5
fd
28
cc
f6
d3
0c
21
c2
d1
da
0c
23
fd
eb
2c
4f
02
f3
2a
db
24
39
06
d0
d9
f1
37
fe
19
00
0f
fe
c3
e8
e1
3e
4d
e0
f9
00
ad
48
23
07
04
da
e3
d6
a2
20
08
12
c1
05
08
02
d9
e3
f2
1e
eb
c8
07
12
eb
08
02
e4
34
e5
2f
d8
37
b9
ef
0d
e2
07
f9
18
e5
fd
07
db
fc
ef
cc
