3a
e0
cc
02
21
15
09
12
d0
18
33
cc
03
12
0c
0d
0e
e2
02
04
e4
f0
00
df
fd
10
0a
0e
f7
03
0e
ff
0a
e9
09
1d
ec
45
10
ea
d5
fc
18
1c
cf
e3
13
07
d4
f3
f1
25
b7
11
fe
19
d1
3f
e1
dc
dc
fb
f8
d1
ef
11
0e
e7
f0
fa
17
30
eb
fe
e7
35
ec
df
c7
f3
e0
1e
1b
1d
e2
cc
18
3a
dc
f6
0b
fd
13
ff
e8
07
18
f5
1e
fc
24
14
e7
23
09
0a
2b
07
d7
14
fb
b8
f5
fc
25
f9
eb
4a
00
ff
ea
d2
f0
d7
13
f0
0c
1c
e9
f4
24
e8
1a
04
d7
fb
0c
ec
c7
e6
b8
ee
bb
04
fe
01
f1
fa
0d
0f
e5
20
2a
0a
fe
09
3c
0a
f3
36
f6
d2
23
e9
04
1c
13
ef
f9
ef
26
25
19
fb
f4
f4
21
1c
da
42
1d
1d
0e
12
13
0c
db
db
06
46
1a
e1
fa
41
04
fd
fd
f9
17
df
f4
2b
1a
14
05
e6
ff
21
17
eb
1b
1e
f1
10
f1
10
15
f6
e4
08
dd
1e
fc
17
0d
fe
ed
f4
dc
e3
05
04
02
09
03
e1
02
e5
31
01
40
05
eb
f5
f1
f4
16
e9
14
0e
38
f0
fa
b4
fe
19
33
dc
ec
12
20
ed
28
e5
1d
f8
e3
38
02
f1
14
18
06
0a
48
0e
df
e9
2e
10
10
05
17
26
df
08
dd
f0
26
f6
e5
e7
cd
e2
12
0d
11
10
3c
17
1c
da
0c
e9
d5
2b
e5
17
fd
13
08
07
0d
12
ef
e1
f2
fa
df
16
0b
cc
07
d2
10
e6
04
e4
e2
22
18
07
17
d3
23
0d
eb
e4
1c
f0
00
f6
c0
0d
eb
15
e0
21
15
02
d4
eb
27
06
ff
0e
f6
02
21
01
e1
f7
15
e6
11
f4
26
d1
d0
09
ed
f1
e9
da
f0
0a
e6
15
de
1a
03
2d
fb
06
f5
05
1c
1c
fa
23
2b
10
10
09
ea
ee
0f
cf
0b
0c
e6
04
24
f5
ba
08
fa
1a
ff
0a
2b
f5
06
2e
0b
f7
0e
ea
e5
e5
19
10
00
07
fe
1f
fe
ee
f5
22
ef
24
2f
1d
ec
fa
1b
06
0b
fe
1a
2c
f6
2e
3e
0f
05
fa
01
cc
f6
2c
f3
f4
2c
fb
51
fd
f8
f8
02
fd
16
3b
0c
13
ea
fa
2c
db
df
d7
20
08
ee
ea
04
15
e5
20
18
fe
15
e0
1b
0a
14
37
e2
ec
20
f6
12
0c
17
cd
ee
f2
02
ee
da
34
0f
fd
1e
28
28
f9
fd
20
08
07
15
d5
f7
f3
24
16
0a
37
22
fd
17
ff
e5
25
05
ff
fb
fb
20
fc
dc
ed
ee
f4
e7
1a
18
03
e3
0b
f9
0d
0e
17
bb
22
d0
11
22
0d
ff
fd
ff
01
1f
15
0b
f4
03
21
0d
32
12
ea
16
cc
f4
08
45
19
e3
31
e7
f8
f4
19
09
27
ff
f7
0e
03
f1
d2
f8
ef
15
1c
ff
00
2a
06
f7
3c
05
fb
f7
e6
1d
35
07
43
0d
f6
ff
16
0c
0b
10
f8
ec
f0
bf
61
25
10
23
19
13
1b
2a
06
03
ee
2c
f5
ed
e9
fd
fc
0b
41
17
ee
fa
12
24
d6
19
fc
06
3e
f5
c4
17
0e
e1
ef
e5
f4
00
09
cd
1a
fb
ec
06
06
d9
f6
16
f0
f7
0d
25
1b
e2
f9
fc
10
cf
f4
17
fd
1a
fa
d6
0c
f5
e9
f0
d2
ea
13
e7
20
ef
0e
14
dd
fa
f2
e9
d9
16
39
f5
18
0b
0f
f8
29
0a
e9
08
14
09
00
1e
ff
22
d2
ec
11
11
f4
08
fb
12
37
05
fa
03
c3
00
33
08
37
2d
0e
f2
d9
4d
d9
ee
bc
ed
0a
13
15
24
03
d8
f2
09
fc
12
ec
e6
05
04
19
11
2d
de
0d
f1
23
6d
ff
20
e0
02
e5
08
13
f8
0f
35
d2
17
05
25
01
e3
10
11
0a
0e
fa
fa
f5
00
00
00
00
00
00
00
00
00
00
00
00
00
00
00
00
00
00
00
00
00
00
00
00
00
00
00
00
00
00
00
00
00
00
00
00
00
00
00
00
00
00
00
00
00
00
00
00
00
00
00
00
00
00
00
00
00
00
00
00
00
00
00
00
00
00
00
00
00
00
00
00
00
00
00
00
00
00
00
00
00
00
00
00
00
00
00
00
00
00
00
00
00
00
00
00
00
00
00
00
00
00
00
00
00
00
00
00
00
00
00
00
00
00
00
00
00
00
00
00
00
00
00
00
00
00
00
00
00
00
00
00
00
00
00
00
00
00
00
00
00
00
00
00
00
00
00
00
00
00
00
00
00
00
00
00
00
00
00
00
00
00
00
00
00
00
00
00
00
00
00
00
00
00
00
00
00
00
00
00
00
00
00
00
00
00
00
00
00
00
00
00
00
00
00
00
00
00
00
00
00
00
00
00
00
00
00
00
00
00
00
00
00
00
00
00
00
00
00
00
00
00
00
00
00
00
00
00
00
00
00
00
00
00
00
00
00
00
00
00
