01
ce
22
f5
e1
0e
46
15
f4
0a
2d
09
f8
ee
f7
b3
03
ff
0e
fb
1d
1b
46
2a
17
06
f3
d5
eb
be
01
14
e5
0b
13
1d
d8
fe
fa
48
ec
07
10
30
e1
05
24
1a
c7
2e
f1
0a
00
22
08
f9
d0
f0
21
0d
fd
f7
fd
f5
04
e3
fc
2b
1b
de
fb
02
d5
ff
f9
06
f9
f9
07
fa
09
03
00
fd
dc
e2
0a
fa
e4
0d
f2
02
f1
01
f9
d0
0e
27
e5
05
0c
e8
1b
f4
27
ed
18
ff
02
f4
04
26
0e
bf
08
de
17
dd
ee
0c
f0
c7
f5
da
fc
17
2c
07
17
ee
08
01
bf
34
f5
e6
fb
23
f4
0c
16
09
f5
0c
04
eb
10
1d
b4
e7
ea
e8
38
11
f7
00
0f
e1
f8
1e
12
2b
15
3f
0c
f9
16
f7
26
fe
1d
20
08
f8
e4
16
d6
d8
d0
eb
01
11
f8
e8
d5
20
dc
f2
22
d4
24
2d
2e
1d
16
f0
ec
e4
ed
dd
13
fe
f7
e3
d9
1e
13
00
f9
f0
0d
02
f6
14
18
15
f7
15
f5
f9
1d
d6
de
2e
f4
f3
08
21
fc
1b
e5
15
ef
bf
c6
ec
1f
0e
08
d6
ea
ea
f1
02
e2
fe
ff
31
f4
f3
02
04
26
fa
10
39
e9
e8
fb
ed
30
e4
e3
03
07
dd
fb
db
de
08
d5
be
f3
1c
eb
19
bb
e2
17
07
0f
34
cc
da
04
fc
00
07
1f
f2
ea
00
06
04
ed
27
f9
dd
16
06
e5
06
06
bb
0b
24
05
0e
1e
2a
11
22
03
15
f3
19
d9
fb
27
3c
2f
22
fd
cf
1f
f1
fe
eb
fd
38
ff
03
04
eb
ee
36
0a
f6
1a
e6
f8
06
f8
07
1c
06
17
19
2d
05
eb
11
10
c6
11
30
08
16
d6
1b
08
de
ea
18
e7
da
ff
3a
15
17
20
e5
e9
ce
f1
f4
eb
e9
c7
06
1e
24
02
0e
ba
01
2d
0a
24
ec
11
df
05
f4
c9
d6
fd
1f
10
fe
0e
13
e8
22
0a
ff
10
0b
cd
fd
dd
fa
2c
1a
10
2b
05
fe
23
dc
14
03
ec
29
27
24
f4
f7
0c
d2
f0
e7
f6
1a
e7
ea
10
e0
0a
17
f4
e1
2f
1e
f9
b9
13
0a
07
0d
1e
18
de
eb
3b
fd
d8
08
15
38
0c
f3
fc
f5
03
14
18
06
0a
fa
35
e7
0c
00
fa
e5
f0
12
0c
26
ff
d1
ff
08
d2
f5
fb
21
fb
eb
fc
ec
03
11
38
0f
2e
c8
17
03
ee
26
e8
db
b6
0b
e3
ae
ec
ff
c4
b0
03
ef
d4
f4
fb
e2
e7
0c
e7
37
0c
0d
f1
f2
08
da
03
0c
08
09
f7
fb
16
08
f4
0f
2b
e8
03
0c
03
1f
11
00
12
18
05
fb
ed
11
02
ec
eb
02
11
14
0a
f1
f7
1e
20
13
f3
1d
13
f5
e8
f7
d1
16
05
0b
dd
f8
db
f6
ee
e9
e5
26
02
06
03
1e
22
10
e4
fb
ec
0c
13
f2
0b
f0
cb
ec
0f
0c
fe
0b
28
f8
d7
13
44
f1
42
f8
ef
e7
e6
eb
03
25
ff
04
04
06
04
e4
32
d4
ce
fa
42
f9
ec
20
f9
2d
f5
13
ed
25
d3
cd
0b
3d
0b
fa
e2
ec
c8
0e
f4
0b
f7
3c
0f
c9
d7
dc
df
05
e6
f8
f5
e1
2e
23
0b
34
c3
21
fd
fb
0e
e3
3d
08
e0
ec
c4
06
24
19
f5
f4
0e
15
d6
f7
2c
5c
31
19
dc
e8
4f
fd
2b
ee
21
ea
09
f6
d2
ff
1c
f9
03
ef
e0
11
f5
1b
ec
0a
da
10
fa
10
dd
05
1f
ed
ff
25
32
25
37
0b
fb
e8
14
10
fb
0a
10
e9
16
24
ea
fb
fc
01
03
d7
04
0c
11
2a
13
18
0f
de
06
f1
e5
f1
cf
ff
08
d5
05
d8
df
28
0c
1e
00
13
07
ee
2d
da
e7
f8
fe
23
ef
ea
ea
13
27
e4
00
1a
ef
0d
20
02
00
00
00
00
00
00
00
00
00
00
00
00
00
00
00
00
00
00
00
00
00
00
00
00
00
00
00
00
00
00
00
00
00
00
00
00
00
00
00
00
00
00
00
00
00
00
00
00
00
00
00
00
00
00
00
00
00
00
00
00
00
00
00
00
00
00
00
00
00
00
00
00
00
00
00
00
00
00
00
00
00
00
00
00
00
00
00
00
00
00
00
00
00
00
00
00
00
00
00
00
00
00
00
00
00
00
00
00
00
00
00
00
00
00
00
00
00
00
00
00
00
00
00
00
00
00
00
00
00
00
00
00
00
00
00
00
00
00
00
00
00
00
00
00
00
00
00
00
00
00
00
00
00
00
00
00
00
00
00
00
00
00
00
00
00
00
00
00
00
00
00
00
00
00
00
00
00
00
00
00
00
00
00
00
00
00
00
00
00
00
00
00
00
00
00
00
00
00
00
00
00
00
00
00
00
00
00
00
00
00
00
00
00
00
00
00
00
00
00
00
00
00
00
00
00
00
00
00
00
00
00
00
00
00
00
00
00
00
00
00
