f1
f5
09
32
f6
f5
e9
cd
a7
2b
25
ec
26
f2
2c
fb
00
02
13
1c
14
e1
ed
14
10
40
c8
e9
e9
ec
06
e6
bc
fd
f2
22
0c
35
ff
04
d9
e8
fb
35
03
ea
ca
14
be
00
2a
21
09
f0
04
dd
b9
2d
ff
e3
bd
09
f5
c3
0a
0a
31
de
fe
f2
c5
00
1e
4d
f8
cf
01
23
fe
0e
2c
ea
fe
0d
0f
08
20
07
f1
21
b7
f6
53
18
d1
e8
c3
46
25
48
e5
2e
fa
15
da
05
a0
2f
fc
fb
10
17
48
eb
d2
0c
ec
1b
e2
33
11
3e
11
24
27
c4
26
fe
