05
ff
e5
e1
ea
17
f7
05
e3
10
c9
0e
31
fa
01
e1
19
00
20
f8
00
19
f7
fc
24
ed
f7
1a
fe
ec
22
fc
19
1b
c1
26
1e
19
de
0e
10
f2
d6
22
f8
fe
3b
00
d7
f3
16
e9
fe
f9
f6
f7
e1
df
14
e2
09
06
15
00
15
00
17
01
00
2b
f5
fe
de
16
13
d9
fe
0e
d6
e4
e6
ff
fc
05
3d
11
ff
14
fa
05
24
f6
15
f6
ea
35
bc
0d
4c
33
bb
e9
f8
ce
16
01
eb
c7
fd
2a
08
04
0f
f1
12
fc
02
f1
0e
2d
db
eb
0e
df
00
f9
f6
18
e7
05
16
f0
f6
f2
08
fc
16
11
14
f6
3c
0b
0a
fc
19
19
0e
1a
f6
10
05
03
da
e8
03
f3
05
0b
ef
f3
ff
30
03
06
d5
25
0a
e4
11
d4
1a
11
d5
15
f5
3e
15
e9
f3
15
1c
eb
37
18
24
f7
12
f3
4a
fd
1d
fe
0b
17
c4
03
e9
f4
ea
13
1d
f8
0e
0d
f0
1c
20
4c
ff
03
da
f2
3a
f9
19
dc
48
14
ff
06
05
2e
24
03
fd
08
01
0a
f6
05
0a
17
1b
fe
0c
19
f6
0e
1b
0b
fe
23
ed
00
f1
de
1b
11
d7
21
0a
f8
01
e0
f7
16
e3
1c
2b
ee
01
0d
1d
13
d4
cb
00
f6
e1
d9
11
fb
d8
0b
f5
02
27
10
fc
12
c6
f2
0b
e4
f5
ee
f9
45
0e
1f
0f
05
2f
e9
03
e4
06
e9
f2
f7
fc
ec
ff
f7
c6
1b
2d
12
14
f4
0b
28
19
fc
21
1f
fd
10
c4
0c
0f
18
22
d1
00
0a
1e
03
11
01
16
c1
dd
ed
f5
1c
e4
f4
14
c1
f6
e6
e0
f7
e3
f0
fa
21
e0
d3
1f
d6
fd
dc
e3
e4
e2
25
e4
f3
12
e3
1f
de
e5
24
06
12
22
ff
01
d8
1f
37
db
de
d4
de
08
14
26
07
fa
ed
04
1a
01
10
05
f3
f0
fc
f6
1f
1e
0c
fc
ee
f0
ec
f0
d7
15
03
eb
f9
f7
19
f1
08
07
0f
1f
3b
e6
59
e5
ec
0c
28
fb
f3
ef
03
f9
fd
da
f4
1c
ee
d2
18
ce
df
f5
15
fc
06
d9
13
20
09
fb
22
05
e8
1f
07
fa
0c
f3
1b
cb
ca
06
ef
16
29
06
e8
2b
e8
ef
45
e5
06
f1
fe
52
ed
ec
05
05
cb
e7
15
46
3f
fd
e2
2e
01
ea
d0
e0
05
f9
e6
00
fd
f1
22
16
d7
fa
c9
1b
22
02
17
f4
c7
db
0b
28
ed
04
0c
f1
03
e5
f4
f8
1c
c8
07
e6
21
e8
0b
0f
02
19
fa
1b
fc
17
05
e8
01
d7
02
e7
fc
34
d1
1c
ec
dd
fd
e2
23
18
12
8b
10
fa
e5
da
09
b7
09
ed
f1
ec
01
37
19
00
05
e7
3a
fe
05
c5
43
37
fb
f6
d1
08
18
07
d0
06
de
28
0a
4d
12
e3
fe
eb
03
ea
fe
2b
02
da
f6
2d
0e
fe
e4
0d
e8
f2
e8
dd
9c
ea
f7
13
fe
eb
c7
07
f7
07
d7
d5
1b
09
f6
dd
e9
11
e9
f5
0f
0f
03
12
ef
f8
ea
0a
eb
14
20
fe
17
1c
a7
17
23
f2
f5
e9
1d
d7
f3
15
1a
18
f2
03
ea
dd
f3
28
d7
f2
33
07
f1
e4
f7
11
f4
ee
0d
24
f5
d4
0f
01
10
ff
5f
d6
1e
e9
fe
07
31
f3
24
0f
ed
f7
e7
0b
d4
fe
f6
1a
ec
24
f7
ef
d5
0b
c3
10
0f
5f
df
0e
17
da
f1
16
0b
19
de
df
e0
03
fc
0e
fb
02
bf
05
f9
f1
14
fa
fd
e8
05
fc
ec
fc
fc
f9
ed
00
f4
21
18
d5
e0
e0
cb
12
fa
11
2d
22
f2
00
27
10
0c
fd
16
e8
fa
07
0c
f0
14
e5
0b
21
ce
1d
f8
05
ba
01
21
0f
14
22
f7
e8
d8
f2
fe
40
f7
ec
30
cc
ea
12
fc
f2
00
50
1c
00
00
00
00
00
00
00
00
00
00
00
00
00
00
00
00
00
00
00
00
00
00
00
00
00
00
00
00
00
00
00
00
00
00
00
00
00
00
00
00
00
00
00
00
00
00
00
00
00
00
00
00
00
00
00
00
00
00
00
00
00
00
00
00
00
00
00
00
00
00
00
00
00
00
00
00
00
00
00
00
00
00
00
00
00
00
00
00
00
00
00
00
00
00
00
00
00
00
00
00
00
00
00
00
00
00
00
00
00
00
00
00
00
00
00
00
00
00
00
00
00
00
00
00
00
00
00
00
00
00
00
00
00
00
00
00
00
00
00
00
00
00
00
00
00
00
00
00
00
00
00
00
00
00
00
00
00
00
00
00
00
00
00
00
00
00
00
00
00
00
00
00
00
00
00
00
00
00
00
00
00
00
00
00
00
00
00
00
00
00
00
00
00
00
00
00
00
00
00
00
00
00
00
00
00
00
00
00
00
00
00
00
00
00
00
00
00
00
00
00
00
00
00
00
00
00
00
00
00
00
00
00
00
00
00
00
00
00
00
00
