ed
e9
e9
22
09
d5
26
1f
cd
08
23
17
02
1d
2b
f8
11
04
26
12
1b
08
28
f8
06
fa
07
17
ca
21
0f
bb
03
e6
06
0b
ef
f8
21
0b
2d
10
fe
11
1a
08
44
0f
d2
06
12
f1
e6
04
20
13
07
0d
e4
04
2f
21
1f
de
0b
22
11
f6
ff
12
eb
ef
f7
fb
02
da
10
e6
21
f0
e1
15
2c
f0
f6
cb
15
df
10
dd
c6
18
12
2e
d2
16
c5
e9
f9
dc
10
03
06
fa
37
ef
09
e9
02
0f
28
ed
00
00
df
f2
0c
16
12
09
1d
35
1d
e4
16
da
00
0d
25
d2
d1
06
d9
16
ef
40
ff
fb
09
e9
21
c2
0f
00
d3
14
16
f3
dd
ea
dc
f7
1f
12
e3
11
1f
02
2d
e6
11
e1
18
e4
4e
1b
e7
dd
05
f1
19
f5
1d
23
04
ed
fe
0a
d7
14
be
26
1c
de
1a
c2
09
fa
0d
e3
f9
f5
f3
19
19
39
eb
3a
10
12
d2
be
e8
0d
1a
12
1f
f5
fb
f0
db
f6
f1
e3
bc
06
0e
ee
1a
db
2d
ff
30
02
08
19
33
1e
08
28
28
0c
26
fd
fe
f0
05
02
f9
4c
03
0c
fc
e6
00
df
c4
e0
f7
db
f0
e9
0d
10
0e
1f
07
f3
0a
16
da
e8
06
f0
de
fd
1a
f5
19
01
31
1f
3d
f0
d5
0b
33
21
00
0b
d8
cc
1d
d1
f0
e5
e8
ef
07
ed
d1
28
c3
e9
1a
f6
fb
30
0b
ca
f7
e1
fd
04
1c
15
f8
ea
ec
cc
fd
d1
f4
f3
cd
15
05
06
e3
f1
06
e1
03
09
e8
d8
2e
08
e1
e6
08
13
16
f9
fd
dd
ee
64
07
f9
d4
ff
07
cd
f4
0a
35
e9
05
ce
3f
f4
0d
ed
f4
12
ea
e6
26
dc
1f
34
da
cf
e0
22
22
0d
08
3c
02
ef
03
fd
cb
f9
db
ff
f4
1a
28
e4
04
08
0f
ef
e5
f9
2e
e7
04
fd
0f
fc
e7
05
f2
fd
03
0c
ea
bb
02
f7
1b
18
02
fc
2c
14
01
f6
01
02
cf
eb
f2
ef
f7
e0
31
07
07
dc
dd
04
fb
0f
02
24
24
09
21
2f
17
e7
0e
e5
0b
f7
d7
13
00
0f
fa
d6
09
1b
1a
e8
10
fc
12
0f
00
cc
e5
f0
e7
e1
26
08
19
ef
dd
04
0a
1b
cc
f2
0c
18
f9
f4
18
ff
ee
f1
f4
12
f0
f6
e2
ed
12
19
06
0a
57
01
ea
05
04
ed
18
28
0e
ed
01
01
f2
ed
15
21
da
0c
01
fa
ff
eb
ff
f2
15
0a
3a
09
38
29
19
10
f5
03
e1
f6
da
e6
fe
eb
28
32
03
29
07
f5
2c
e9
20
f6
02
ec
02
ff
2b
1c
13
fe
f6
dd
0b
28
e8
f6
0d
f7
f8
ee
f2
08
cc
37
da
f6
16
fc
e7
f2
fe
f8
d5
fb
17
f4
1b
0a
fa
f5
2c
10
08
f4
e6
fb
fe
ed
ff
0f
09
1e
d2
09
24
0e
17
f1
f0
e5
d1
02
db
de
f7
16
3d
10
c8
ba
11
1e
24
e3
22
34
e2
e5
17
fd
23
f1
24
ef
08
1a
26
e5
f6
09
ef
cf
db
c7
e9
26
12
15
d8
fa
10
c1
2e
f9
e3
e5
0c
f5
1f
18
1a
07
ef
f7
f9
f9
ee
e7
f7
ed
09
11
d8
cf
16
f5
cd
f5
fb
ed
4c
f0
e5
fb
07
f1
e7
05
18
0d
29
1c
05
e7
46
09
f0
25
fa
e0
df
fa
ec
08
c6
2d
02
ea
41
f1
e3
2a
1e
0f
0a
16
18
ee
dd
15
01
01
e5
e6
09
20
da
fa
f5
ef
d1
fc
09
10
fa
00
17
f5
28
3b
13
db
e6
ed
00
e5
0c
38
4c
ed
02
d9
f3
e6
ef
01
ea
1b
e8
df
23
d1
26
2b
ff
0e
ef
03
1b
0a
05
fd
f1
0d
17
fa
fd
22
e1
ec
ef
07
16
e7
bc
a9
d6
0b
10
f5
14
e6
f7
fc
fb
ff
ce
36
00
00
00
00
00
00
00
00
00
00
00
00
00
00
00
00
00
00
00
00
00
00
00
00
00
00
00
00
00
00
00
00
00
00
00
00
00
00
00
00
00
00
00
00
00
00
00
00
00
00
00
00
00
00
00
00
00
00
00
00
00
00
00
00
00
00
00
00
00
00
00
00
00
00
00
00
00
00
00
00
00
00
00
00
00
00
00
00
00
00
00
00
00
00
00
00
00
00
00
00
00
00
00
00
00
00
00
00
00
00
00
00
00
00
00
00
00
00
00
00
00
00
00
00
00
00
00
00
00
00
00
00
00
00
00
00
00
00
00
00
00
00
00
00
00
00
00
00
00
00
00
00
00
00
00
00
00
00
00
00
00
00
00
00
00
00
00
00
00
00
00
00
00
00
00
00
00
00
00
00
00
00
00
00
00
00
00
00
00
00
00
00
00
00
00
00
00
00
00
00
00
00
00
00
00
00
00
00
00
00
00
00
00
00
00
00
00
00
00
00
00
00
00
00
00
00
00
00
00
00
00
00
00
00
00
00
00
00
00
00
