f3
db
2f
03
d6
d5
02
ee
0a
21
49
06
1f
29
e0
e3
0d
2c
d9
e3
02
31
f4
e0
ba
06
fd
23
c9
03
15
f5
20
f3
08
1c
05
f9
23
00
da
18
cb
d4
f2
01
e7
da
eb
ef
2b
e8
04
1c
d8
0e
00
0d
24
0f
04
0c
cd
14
0e
f5
10
fd
10
f1
e6
dc
d2
f5
07
c0
13
b8
1b
05
f1
02
c7
1f
f0
05
0a
06
fc
f3
0e
e1
df
df
29
0b
18
f8
22
11
1a
29
18
d1
0c
2c
27
06
24
eb
fd
09
03
fe
f9
37
f6
ee
01
f6
26
df
f7
04
f9
ea
ed
03
21
13
05
db
fb
ff
05
e7
d1
ee
f6
0b
f0
23
2b
e9
1c
fd
06
f7
07
e3
dc
29
eb
01
11
d6
01
ed
eb
30
04
11
0d
ea
f7
f3
28
fc
f5
06
dd
01
0b
ee
dc
3f
20
e0
fe
0a
14
f4
10
fa
cc
01
1c
fd
1a
ef
0d
16
2e
13
fd
eb
c3
02
04
18
26
cd
da
19
1c
03
ea
1d
44
1a
ed
dc
cf
07
0e
0e
18
0e
08
fb
c7
0b
30
de
f9
1e
f3
1a
1c
0b
08
35
17
02
2b
fe
0e
e5
01
fe
c1
11
f9
ce
f6
13
fb
11
fe
e5
23
eb
15
fd
18
e3
4d
ec
ff
eb
0f
09
c9
28
07
ee
2a
ea
e9
e6
ef
fb
11
fa
d8
f7
df
ea
20
b4
fc
05
ed
16
2b
f2
ed
e1
e4
0d
fa
e5
f2
fe
ea
ea
e0
fd
3e
53
16
e5
32
ee
fd
12
f9
41
ea
15
1b
f8
f6
23
03
f3
de
10
17
15
d4
d3
29
f7
e6
d1
e1
e0
fe
0e
d7
f3
ca
2b
ec
0a
e0
00
2f
33
16
0c
20
fa
0f
1a
08
f6
d6
17
d8
02
02
f7
fa
0a
1e
00
23
d7
22
f6
1c
03
1d
05
04
ee
15
ef
e5
09
e6
01
da
ed
f4
0d
c1
08
08
04
34
00
18
fb
f1
fc
e7
e4
2a
cf
f1
fe
39
e8
df
f9
06
13
29
f5
0c
fe
0c
4f
e3
e4
0f
e1
fd
15
f6
00
19
e0
f0
10
14
e4
e1
2a
21
f1
f2
11
e8
06
07
ca
f7
06
3a
d8
01
05
d5
00
05
df
1f
ca
f8
00
2c
e3
27
0b
dd
32
f7
e2
f9
f1
0e
27
ff
fc
cf
08
e7
03
da
05
2b
fe
fe
33
03
e5
f2
26
15
14
0d
be
e0
0f
e4
f7
e7
41
fb
3e
11
04
df
11
45
30
10
ed
39
11
fa
bc
20
d2
ed
19
06
25
16
0c
11
2a
cb
ca
ec
01
20
ed
e9
27
d6
f4
04
13
19
f1
f3
18
12
d9
d9
05
0f
cf
f0
20
e7
f0
34
ed
e2
30
27
08
f9
fd
2c
d8
16
fe
2b
07
03
fa
f2
10
fe
3a
df
28
04
21
e9
eb
0f
ee
12
e2
00
2d
f7
0b
00
1d
2c
f2
06
1b
0a
00
0f
fc
18
ea
1f
10
22
ef
f9
12
1a
ea
0a
1e
11
ed
30
ed
f9
21
f7
e8
dd
0c
1c
db
16
f4
04
08
37
e7
03
0d
ea
03
0c
15
db
e4
b2
d0
38
15
13
12
02
03
d2
ff
04
09
05
fd
f9
fd
fe
d5
21
ee
e6
03
f8
f7
f4
25
fb
f3
25
fc
ea
16
bf
db
38
06
20
02
27
f4
07
f5
f0
fd
fe
00
0c
e5
fe
1c
2f
02
1d
dc
1d
04
cd
00
f7
e5
d8
e1
2b
10
13
11
ee
df
00
0e
13
fe
09
cd
e6
bc
42
0f
d0
f5
10
0e
ca
20
d8
05
0f
ee
20
f9
2c
25
32
f9
e8
ee
0c
db
ee
06
e5
fc
eb
1b
0f
d8
17
f5
e8
25
17
01
00
fc
3a
fa
ff
fb
02
ed
e7
ef
f8
4d
ef
0e
22
d9
e3
ef
1d
0f
f4
cd
f1
14
25
0e
ef
d7
d7
1f
fe
2d
e5
d0
15
08
ee
e7
cf
ec
15
ff
df
f5
f9
c5
f1
07
02
f9
eb
fc
00
02
34
c8
ed
e8
00
00
00
00
00
00
00
00
00
00
00
00
00
00
00
00
00
00
00
00
00
00
00
00
00
00
00
00
00
00
00
00
00
00
00
00
00
00
00
00
00
00
00
00
00
00
00
00
00
00
00
00
00
00
00
00
00
00
00
00
00
00
00
00
00
00
00
00
00
00
00
00
00
00
00
00
00
00
00
00
00
00
00
00
00
00
00
00
00
00
00
00
00
00
00
00
00
00
00
00
00
00
00
00
00
00
00
00
00
00
00
00
00
00
00
00
00
00
00
00
00
00
00
00
00
00
00
00
00
00
00
00
00
00
00
00
00
00
00
00
00
00
00
00
00
00
00
00
00
00
00
00
00
00
00
00
00
00
00
00
00
00
00
00
00
00
00
00
00
00
00
00
00
00
00
00
00
00
00
00
00
00
00
00
00
00
00
00
00
00
00
00
00
00
00
00
00
00
00
00
00
00
00
00
00
00
00
00
00
00
00
00
00
00
00
00
00
00
00
00
00
00
00
00
00
00
00
00
00
00
00
00
00
00
00
00
00
00
00
00
