f2
08
ac
0c
d5
e3
e0
ff
0a
03
17
1a
2f
4c
06
fa
ed
4e
f0
34
30
05
06
ce
e3
d3
08
d5
18
0a
bd
fb
0a
28
21
12
fa
2a
0b
fc
32
0f
d0
1e
04
eb
29
25
f9
0c
e3
e9
eb
11
f9
24
b2
e6
4c
cd
1b
c6
ed
cc
0f
35
06
05
2b
0d
09
ec
f6
ef
f5
e9
d0
fa
0c
f6
08
a2
2c
c9
f1
44
11
da
f9
c9
13
2d
10
e4
ea
07
0e
ed
f8
fe
07
0e
d5
ea
05
0b
08
30
c3
09
29
c0
0e
ea
e3
2c
30
f5
da
d6
03
42
1a
dc
ea
38
01
f7
