33
08
c7
f8
ef
e1
e8
fa
f2
df
bc
14
20
0a
e2
fd
f4
dd
52
fe
0f
20
f5
e4
0d
ff
f9
db
0f
fa
23
00
1e
fb
30
08
f3
25
01
38
d4
fa
00
e5
f7
11
d8
0b
01
1b
24
10
fb
42
f0
f5
16
1f
ec
ef
e9
f3
f7
17
e2
dc
4e
eb
ff
e5
01
e5
bf
ef
fc
ed
12
24
00
0c
29
f3
f5
bd
06
1b
dd
d5
1b
04
03
ee
39
d8
0b
cf
31
f8
fa
de
fc
15
e2
10
34
28
dd
0f
ac
1e
ed
04
e9
fe
14
1f
e5
14
de
08
eb
ff
13
37
01
ef
f9
f4
09
dd
d8
fa
16
eb
db
03
2f
1a
d3
f6
ed
05
d9
da
d6
fd
10
1a
09
14
05
da
04
08
00
fd
c7
01
d4
1a
fe
e4
22
e3
df
ff
06
15
3d
f9
0d
fe
c0
ca
fa
d7
05
43
ef
23
ef
d9
f4
03
18
16
0a
fb
0b
fb
d4
fd
f5
cb
27
45
f7
23
20
1c
c1
05
05
12
08
32
f4
01
18
15
07
ee
0c
ec
0b
07
ea
f2
e5
eb
e7
ed
cd
ed
f2
ee
f1
36
ed
18
f1
28
0b
16
ec
d2
ce
2b
0e
f3
0a
d6
26
02
f0
e8
0f
1e
02
e5
34
d7
e3
ef
35
e2
13
f4
05
0c
bf
23
0d
eb
0f
ec
0f
f4
eb
f6
e7
de
27
0e
16
1d
d4
e3
11
03
03
24
f8
29
f8
d9
1c
03
c2
e6
06
ce
d7
e8
cf
07
01
01
29
ce
31
f6
16
f7
ff
00
dd
13
19
1c
d3
03
14
f6
04
45
c6
0b
0c
fb
fe
f2
e4
16
e3
17
eb
da
e1
0f
fd
1a
1c
1f
13
c6
10
10
2a
0a
f0
06
02
f7
0a
1b
ef
f9
e0
05
0b
e8
fa
db
0f
30
06
f2
17
20
dc
25
d3
38
0b
27
ef
01
2e
31
1c
15
0f
e2
f1
d0
e5
f5
03
12
1f
cc
f0
17
f6
fe
fb
d2
3b
fa
e4
21
fc
d9
16
fb
e2
0a
1a
f0
e9
02
0b
fa
23
d8
17
f2
e9
2b
f6
05
12
20
fe
ce
1c
ef
f4
ea
07
da
15
17
f9
eb
ef
fb
14
09
e4
08
12
05
15
2d
09
3e
11
dd
de
f2
e8
03
05
dc
ff
fd
1d
05
d7
ed
e3
c5
ee
d8
4b
ef
09
20
f3
42
d1
1b
ff
fe
31
1c
3b
de
17
e3
e9
c0
eb
0f
f7
f5
fb
1d
16
f1
f7
f7
d9
12
db
18
ef
2d
eb
f4
19
15
0b
fc
da
fa
10
05
f3
22
02
ef
34
14
e2
f5
db
f5
e8
e0
e4
0e
f7
00
2f
dd
03
17
13
fc
0b
08
f1
06
0f
e3
1e
d7
d6
0e
da
fb
ea
c5
2b
19
f6
12
00
ef
0e
1a
02
41
e3
f3
e9
ee
b2
ec
04
f2
06
ee
24
0b
e9
c3
00
ee
e3
f3
0f
b0
f3
f6
1b
eb
b9
1c
e9
08
e4
f0
04
2a
0c
f7
eb
1f
0c
1d
f3
d8
17
fb
36
fe
f3
19
1a
1d
dd
23
10
0a
f3
f8
d3
e8
f6
f9
0f
fd
27
f6
fe
00
0e
ea
c4
26
eb
e3
06
0d
1f
18
f7
0c
15
13
e7
02
ee
e2
e8
e7
0a
0d
2a
d9
e3
e2
04
fd
13
fd
c7
ef
01
35
e5
1a
ed
e1
f4
f7
db
dd
eb
05
fc
1e
ef
04
ee
d1
13
0f
f4
f2
17
de
1d
ff
f8
1e
0d
2b
ff
e4
14
c5
03
0b
09
08
ff
0d
05
d8
20
25
f0
c3
0d
f5
e9
03
ef
29
22
2c
d6
fa
04
fe
29
2d
fc
21
fe
e2
07
d8
d8
de
ea
06
2d
00
0c
1b
17
0a
f9
e5
e2
fd
15
23
2f
18
fe
d0
11
f6
35
10
1f
ea
2d
03
ee
ea
1c
05
15
e5
f9
16
cb
26
09
1a
23
14
b8
e5
00
cf
37
33
04
ee
2b
00
3f
28
05
e4
dc
e6
c7
02
e0
27
f8
0e
13
ef
eb
21
ef
27
06
1d
12
24
0c
e3
00
00
00
00
00
00
00
00
00
00
00
00
00
00
00
00
00
00
00
00
00
00
00
00
00
00
00
00
00
00
00
00
00
00
00
00
00
00
00
00
00
00
00
00
00
00
00
00
00
00
00
00
00
00
00
00
00
00
00
00
00
00
00
00
00
00
00
00
00
00
00
00
00
00
00
00
00
00
00
00
00
00
00
00
00
00
00
00
00
00
00
00
00
00
00
00
00
00
00
00
00
00
00
00
00
00
00
00
00
00
00
00
00
00
00
00
00
00
00
00
00
00
00
00
00
00
00
00
00
00
00
00
00
00
00
00
00
00
00
00
00
00
00
00
00
00
00
00
00
00
00
00
00
00
00
00
00
00
00
00
00
00
00
00
00
00
00
00
00
00
00
00
00
00
00
00
00
00
00
00
00
00
00
00
00
00
00
00
00
00
00
00
00
00
00
00
00
00
00
00
00
00
00
00
00
00
00
00
00
00
00
00
00
00
00
00
00
00
00
00
00
00
00
00
00
00
00
00
00
00
00
00
00
00
00
00
00
00
00
00
