f8
d2
2f
e5
fa
fb
36
fe
ef
f0
05
0a
0e
4a
1c
42
fd
fb
f6
ff
1c
0f
f9
34
01
c4
08
e5
fc
e2
24
03
e5
02
e2
17
eb
fe
e2
d8
04
01
0a
1a
31
ea
f4
29
e0
da
ff
f7
d6
ed
19
c4
05
0b
11
14
dd
27
e6
d3
17
e3
22
e0
ee
1f
f0
f7
03
f9
15
06
f4
e0
0c
eb
0a
01
ea
14
14
13
00
26
ef
fd
ea
08
19
11
04
04
fe
eb
17
28
fd
ed
ef
0f
2a
f7
22
e4
de
e3
16
34
20
20
a1
f6
27
06
dd
1b
0c
fc
17
13
f5
15
f4
04
07
1b
ee
1c
0c
e5
16
23
0c
eb
27
27
f5
16
d6
3c
f6
ea
12
25
0c
ec
3a
0f
17
02
46
fd
37
fb
16
39
52
0a
11
c9
18
b2
c5
1f
fb
1f
13
26
cf
28
e6
09
d4
3d
f6
09
06
08
15
01
e9
ee
37
fb
1d
06
fe
0f
0f
12
e7
fc
1b
10
0c
06
06
ec
d8
30
14
11
ef
f5
17
ec
f6
ea
21
fa
05
fd
ee
10
f3
0b
35
f0
f7
f2
26
4c
f0
17
ed
fb
2c
05
07
ee
07
28
1a
00
1b
fb
f9
fc
10
05
30
07
26
1f
fc
0f
0a
e7
24
f0
d0
e7
f3
dc
1f
da
fb
20
cd
cc
27
ce
fa
ff
23
1a
f9
30
e2
fe
e6
dd
f5
cb
ef
20
ff
ea
bd
f6
0d
0b
d7
e5
e3
13
d9
fe
eb
eb
33
e6
26
f7
02
e1
0d
f4
ff
0d
c9
c8
10
fc
17
f5
f6
08
de
f4
15
0d
da
f2
fb
fa
13
b8
25
ff
ea
05
20
05
0d
ef
f4
ea
e8
03
b6
26
f9
30
fc
14
3b
08
ed
e1
13
1f
1c
22
ff
12
f5
00
0e
10
1a
df
fb
e2
f3
44
fc
fe
00
0f
0d
ef
12
d4
f3
cb
f8
f4
f2
d5
f1
f8
f5
f2
12
01
16
4d
f8
ee
14
36
1a
df
1e
eb
f2
f0
fd
07
01
f6
eb
f7
17
0c
08
f0
05
f5
d5
07
2e
2c
e1
1c
fd
ec
01
da
05
e8
0c
fa
12
f3
ec
2e
fc
1f
26
fa
e3
eb
07
3f
d2
15
e7
14
18
06
ff
1b
20
23
14
1d
10
01
01
0b
f5
c4
0e
23
0e
f3
0b
e6
21
d7
22
fb
ff
f3
f8
01
1e
16
d6
11
e3
09
16
05
26
f6
1b
16
13
2b
fe
fb
12
22
1c
c6
08
12
e9
fa
08
e6
11
fd
12
13
12
14
25
0f
2e
0e
ec
23
1b
d0
1d
db
fb
05
05
0f
35
ef
2d
e5
fa
f4
f4
2c
05
49
35
0d
20
38
07
05
ee
12
ed
39
1b
ee
25
fb
fa
f3
fc
ee
0c
04
21
20
04
0e
19
2b
ee
f5
ed
1c
1c
fb
00
06
06
14
12
e3
e0
01
ef
ea
d7
f0
08
20
f9
2d
10
36
1f
db
cb
ee
04
e9
1b
0f
c5
00
ff
d6
04
09
e5
f6
bd
29
fd
01
e1
00
f6
2a
e8
fe
dc
f3
f8
1c
2f
fc
1e
09
fb
f2
26
0e
fe
f8
03
13
2d
18
e4
10
ec
f4
de
1d
c8
19
26
10
33
09
0b
fa
fe
12
13
dd
12
fa
ef
fd
28
fc
1a
1a
0a
c8
ce
c8
07
06
01
f9
d2
c9
20
fd
13
12
c4
30
23
00
0f
dd
04
1d
3d
ff
d3
e2
0a
da
ec
e3
f1
ef
fe
ed
b6
17
00
0d
bd
cf
e9
df
26
fc
1b
09
12
21
08
eb
d7
06
d4
01
16
17
fb
f3
02
de
ec
03
27
ed
03
fb
06
e4
16
f0
db
26
de
ff
da
fb
fb
df
ff
0a
f4
05
c4
ad
ec
37
11
ea
fb
1c
00
0f
22
0a
fe
de
e6
f4
ec
06
ee
08
e1
0e
f0
19
fa
e8
17
d8
ee
fa
1a
d6
fa
25
fb
17
dc
f8
0c
16
01
ee
ef
1e
19
e8
27
f6
00
f5
0b
ff
10
39
08
01
d0
1b
25
d3
fe
09
ed
ec
00
00
00
00
00
00
00
00
00
00
00
00
00
00
00
00
00
00
00
00
00
00
00
00
00
00
00
00
00
00
00
00
00
00
00
00
00
00
00
00
00
00
00
00
00
00
00
00
00
00
00
00
00
00
00
00
00
00
00
00
00
00
00
00
00
00
00
00
00
00
00
00
00
00
00
00
00
00
00
00
00
00
00
00
00
00
00
00
00
00
00
00
00
00
00
00
00
00
00
00
00
00
00
00
00
00
00
00
00
00
00
00
00
00
00
00
00
00
00
00
00
00
00
00
00
00
00
00
00
00
00
00
00
00
00
00
00
00
00
00
00
00
00
00
00
00
00
00
00
00
00
00
00
00
00
00
00
00
00
00
00
00
00
00
00
00
00
00
00
00
00
00
00
00
00
00
00
00
00
00
00
00
00
00
00
00
00
00
00
00
00
00
00
00
00
00
00
00
00
00
00
00
00
00
00
00
00
00
00
00
00
00
00
00
00
00
00
00
00
00
00
00
00
00
00
00
00
00
00
00
00
00
00
00
00
00
00
00
00
00
