fe
0a
3d
01
e1
24
0c
f3
0a
e5
ea
0e
f3
fa
f3
12
f4
11
ca
f0
fb
f5
e1
e3
16
1d
2d
19
f5
f0
00
33
f1
eb
f1
d7
cc
ea
10
11
fb
17
c0
18
01
ed
0b
11
fe
db
fa
1b
fa
e7
0c
c8
27
2b
0f
e3
25
f5
16
25
04
f8
bd
05
12
ff
07
ea
15
38
b4
07
da
e9
d5
0a
e1
0a
fe
02
ec
07
28
1a
e6
ef
02
ff
f5
0f
ec
05
12
07
f0
29
10
10
0a
06
f1
0f
1d
f8
f6
04
f6
e7
ee
e7
04
fb
0d
ef
4c
07
19
f7
f9
18
dd
2e
d4
07
e9
ef
ee
fb
e1
14
1b
ea
37
07
d4
03
08
f7
d5
f5
f4
16
11
33
e9
f3
ee
c6
ed
00
2d
d9
fc
0f
11
e8
fb
fd
fd
e9
e8
d5
db
df
00
e4
0b
0d
17
ed
db
f2
eb
e7
fd
f2
cd
dd
e4
19
1e
12
f1
d8
c6
8e
0b
d1
b8
05
08
29
fc
16
25
f5
f9
f3
1d
e9
ee
c0
e2
f7
05
2a
fb
f2
09
e8
d4
05
ef
d5
15
f0
f2
f2
07
1f
f3
ea
16
06
e1
f6
11
18
0a
0d
2b
53
03
12
09
fa
23
fa
f2
23
ef
fc
cb
e3
28
12
ee
fa
19
fa
f4
fc
fa
16
09
a9
14
e8
25
1d
02
27
f0
3b
da
11
ce
fa
05
cc
0e
e2
ff
00
15
ea
32
f3
ff
0f
d6
fd
e0
eb
f6
f3
ed
f7
f4
14
10
d5
f6
22
c5
11
17
eb
d4
3b
df
06
f4
e2
16
fc
e9
e4
c7
30
f7
d1
0a
e8
fd
f2
01
08
fb
0a
df
f0
f2
e9
09
fe
f5
b9
ed
fa
08
17
0c
05
2e
34
d8
f2
1c
1d
e5
1a
03
18
ec
3e
f8
3c
ff
28
ef
c6
02
02
bf
e9
23
0f
fe
4b
d4
1a
ff
e2
dd
ef
d3
17
04
0c
ee
dc
f1
f6
32
fb
22
e1
d9
f4
fc
29
f9
29
ea
fd
32
0a
fd
0e
ea
d3
12
02
eb
fa
f5
12
27
29
fe
14
14
49
07
d3
f8
fa
07
ff
ef
0b
0d
03
2b
e3
0e
ed
09
fc
12
ff
09
f6
26
ec
2d
1a
0f
17
b6
f8
da
0e
04
15
0d
28
c4
09
25
29
ac
da
e1
15
14
e9
04
f8
fe
29
03
1b
f7
2f
bf
ee
20
f6
07
16
ff
15
22
38
0a
fb
ed
0a
fa
00
e0
03
11
29
0a
f3
e9
cd
00
23
17
14
29
30
13
0b
29
ed
3f
ef
21
fc
31
11
f5
01
ed
24
09
24
0b
f9
29
02
f5
00
02
15
02
ec
02
f5
09
14
14
e5
0e
09
d7
1d
ea
e1
ce
20
04
10
f5
fa
ed
d7
04
ff
fe
df
ee
f4
f3
d8
0d
1a
1e
fe
d6
d5
e2
dc
ff
f1
f3
04
39
d3
f6
e0
22
ea
d5
04
ea
ee
18
d4
b2
f1
38
04
fc
11
fd
f0
0f
02
fd
e7
fd
e4
d3
d4
e9
01
fb
fd
14
d2
17
fd
cf
e2
dc
ec
ef
cc
03
e1
f7
07
13
d7
12
0e
df
f1
fd
08
46
23
09
de
f7
eb
fe
f2
2c
fd
09
ed
12
e5
dd
23
26
21
f8
fc
13
f0
ff
06
18
eb
f9
f7
c9
0e
23
e9
e8
f6
f1
f3
5e
01
12
07
de
04
e2
cb
40
f3
f6
ec
e4
10
22
c0
0f
2f
03
17
ea
01
11
fd
f8
48
1b
db
d5
ed
0c
04
0d
dc
08
08
02
ff
0b
eb
da
c7
4c
f1
1e
ef
d0
f4
0d
16
10
19
22
0e
cd
f2
f9
1a
e6
2a
13
e0
eb
14
08
15
11
0c
eb
d8
04
eb
ec
09
ea
34
eb
3f
13
0f
f5
26
38
db
05
19
fb
e9
09
d4
03
23
1f
d9
ec
d4
2b
f8
e4
0d
12
03
1f
15
40
ef
f7
fc
ee
ea
ff
13
0a
37
dd
e7
e5
30
c0
f8
1a
f6
05
2a
39
f4
d3
08
e1
21
33
d0
f1
fd
04
f6
f6
2a
00
00
00
00
00
00
00
00
00
00
00
00
00
00
00
00
00
00
00
00
00
00
00
00
00
00
00
00
00
00
00
00
00
00
00
00
00
00
00
00
00
00
00
00
00
00
00
00
00
00
00
00
00
00
00
00
00
00
00
00
00
00
00
00
00
00
00
00
00
00
00
00
00
00
00
00
00
00
00
00
00
00
00
00
00
00
00
00
00
00
00
00
00
00
00
00
00
00
00
00
00
00
00
00
00
00
00
00
00
00
00
00
00
00
00
00
00
00
00
00
00
00
00
00
00
00
00
00
00
00
00
00
00
00
00
00
00
00
00
00
00
00
00
00
00
00
00
00
00
00
00
00
00
00
00
00
00
00
00
00
00
00
00
00
00
00
00
00
00
00
00
00
00
00
00
00
00
00
00
00
00
00
00
00
00
00
00
00
00
00
00
00
00
00
00
00
00
00
00
00
00
00
00
00
00
00
00
00
00
00
00
00
00
00
00
00
00
00
00
00
00
00
00
00
00
00
00
00
00
00
00
00
00
00
00
00
00
00
00
00
