e1
ca
e2
23
10
f5
f2
d1
3e
17
f4
ec
18
e7
21
ca
fc
00
69
27
12
04
e2
cd
de
c1
d4
ee
fd
0f
d3
f5
04
f7
19
16
fe
eb
f5
ea
ff
f8
06
1a
10
3e
df
3d
01
ec
f9
2d
27
23
29
f8
d6
f1
f0
f1
f0
bf
e2
fa
f7
0c
05
10
31
62
42
20
d6
dd
c0
ea
e0
b5
00
f1
27
20
24
ee
fd
c2
ea
27
e6
e6
51
e4
05
f4
ec
3a
08
14
b2
26
e5
e0
f4
fd
e6
f9
f6
02
bf
fb
c4
e4
f5
f4
ed
e4
0d
eb
c9
e8
cd
33
29
f4
39
19
06
fe
