dc
18
08
05
31
d9
28
14
06
cf
e9
0c
cb
e3
fc
2d
f6
27
fe
e6
f9
20
04
f4
24
0d
fb
db
1e
e3
d4
e3
01
17
ef
28
f7
06
1e
0f
0b
07
06
22
fa
e7
dd
0f
12
e6
19
fc
ed
10
f7
0a
e9
0a
19
2c
f4
cb
02
17
2e
12
1d
09
f4
15
03
17
01
d9
18
f6
e3
f6
14
0b
00
02
03
cd
f1
ef
f4
08
e1
05
c2
1d
23
e5
f4
d6
e3
18
ee
07
1d
e7
08
b2
10
eb
1d
ff
1c
f4
23
0b
07
ee
fa
dc
e0
14
04
e4
0f
da
03
f5
f7
d4
2e
ea
fd
b3
fa
cd
d0
f2
b1
23
29
f0
04
0b
f8
f3
28
0b
f7
ca
fc
08
e4
0c
46
33
03
17
0f
fb
da
f6
26
e8
29
b6
dc
04
e4
ef
09
0a
fa
1d
b9
e5
07
27
19
fc
ce
f2
07
1c
e1
08
0d
09
0a
f9
fb
52
10
04
27
ef
14
fc
fb
11
fe
eb
f4
30
0d
e3
1a
14
f1
da
27
1c
ee
bc
04
20
f2
33
f1
f3
e3
fd
ec
fd
e1
05
07
c5
fc
f4
ec
0f
f1
d3
2b
17
00
00
06
ee
06
1a
19
13
03
01
e9
fc
04
0b
d8
fe
d4
eb
26
18
28
0a
f0
f5
ea
1a
c6
06
31
2b
09
fe
08
04
fc
bf
02
0d
0a
15
20
05
fd
0f
0e
06
19
01
f3
0d
00
11
11
bd
f6
0f
04
de
27
fa
f6
0b
04
f1
fe
e9
e4
16
f1
34
29
f3
fc
03
ed
06
df
d5
4f
08
ba
fd
08
f4
22
47
e4
ff
1d
f4
e1
10
f4
f8
f3
00
06
09
19
20
c5
14
09
15
cc
de
0c
fc
47
00
21
03
2e
d9
0d
08
da
13
13
c5
c8
d2
02
25
e0
fe
fb
e1
12
fc
15
e3
f5
17
17
00
d7
ec
e7
02
00
f1
d5
40
e4
d0
e3
d7
99
da
dd
fa
f3
08
29
18
f2
1e
db
fe
20
da
de
0c
30
29
04
e9
d6
32
09
f9
e0
f6
20
fd
f8
1e
07
0d
ba
cd
e7
11
1b
39
e1
fd
09
fe
0b
10
ec
00
dc
2d
d6
f4
32
ec
c3
f4
04
c6
0c
e3
0d
06
16
ab
17
f8
e0
da
fe
f8
0a
0c
f9
f7
1e
47
ff
6b
eb
01
ee
c3
1c
d9
c4
de
e0
e1
fd
02
db
08
4a
e9
e9
1a
e1
2d
2e
04
1e
f8
18
17
04
0c
1f
03
ef
20
f4
08
08
e3
ee
fa
04
c6
f4
01
fb
d5
13
1c
20
1f
ed
07
16
d8
ca
1b
2a
ec
18
1f
f1
13
ea
f1
0d
fe
ea
f7
e3
1a
d3
0a
28
15
23
f4
e6
57
21
1e
e5
25
fd
00
fd
f6
1f
f4
f1
c9
ee
03
0d
2e
f8
21
f3
15
02
0a
15
eb
bb
f5
1a
f3
c7
ea
2e
fb
f7
41
ec
17
f6
0f
12
d9
1a
fc
03
f5
10
11
10
e9
11
fe
31
f2
06
d6
1d
0d
cf
01
f2
41
ae
ef
f5
fd
f3
14
f6
ec
08
f7
44
f0
e8
e4
28
f6
13
f1
f6
40
12
10
fe
1c
dd
dd
00
fc
33
0c
f7
24
0d
27
13
ed
33
fb
e1
04
f5
ec
08
1d
16
d6
ee
04
e5
0a
f5
13
1f
df
0e
0f
03
05
19
0d
24
f7
f6
f6
00
cb
20
e2
e2
14
00
17
20
2f
1c
01
12
e4
0f
f6
de
dc
e7
1e
ea
13
db
f3
0f
34
0f
15
dc
f7
37
01
da
06
20
0b
13
02
09
01
26
23
f8
fa
ea
df
07
e5
0e
c3
3d
fc
ec
fe
f8
f6
02
f2
19
11
ff
ed
d6
d3
0b
dc
c5
f9
2a
17
0d
0d
ef
d9
e2
24
ce
0e
39
1d
10
11
16
0f
13
e9
03
23
0a
ef
ef
f3
2e
0b
bd
ed
25
20
df
23
fd
d9
e1
e2
f5
1d
18
ec
d5
1f
3a
2f
1a
00
08
00
fc
ef
01
c1
2a
81
10
06
16
df
27
fa
00
00
00
00
00
00
00
00
00
00
00
00
00
00
00
00
00
00
00
00
00
00
00
00
00
00
00
00
00
00
00
00
00
00
00
00
00
00
00
00
00
00
00
00
00
00
00
00
00
00
00
00
00
00
00
00
00
00
00
00
00
00
00
00
00
00
00
00
00
00
00
00
00
00
00
00
00
00
00
00
00
00
00
00
00
00
00
00
00
00
00
00
00
00
00
00
00
00
00
00
00
00
00
00
00
00
00
00
00
00
00
00
00
00
00
00
00
00
00
00
00
00
00
00
00
00
00
00
00
00
00
00
00
00
00
00
00
00
00
00
00
00
00
00
00
00
00
00
00
00
00
00
00
00
00
00
00
00
00
00
00
00
00
00
00
00
00
00
00
00
00
00
00
00
00
00
00
00
00
00
00
00
00
00
00
00
00
00
00
00
00
00
00
00
00
00
00
00
00
00
00
00
00
00
00
00
00
00
00
00
00
00
00
00
00
00
00
00
00
00
00
00
00
00
00
00
00
00
00
00
00
00
00
00
00
00
00
00
00
00
