f6
e5
1a
f6
15
f5
f8
e1
fb
05
0f
0d
fa
d0
0b
2a
0e
fa
1c
14
d5
0e
35
ff
c4
fb
1a
e5
29
d9
13
06
ea
1e
e1
fa
bf
04
04
27
15
fc
29
ec
e2
ef
f2
eb
0e
b4
f9
e9
14
f9
dc
1e
35
2a
11
05
01
ef
f4
1e
fe
31
f4
dc
f9
f6
20
1d
29
3f
e7
ed
0c
de
e4
ee
f7
e6
e1
48
fe
07
2a
fe
1b
05
d8
06
15
19
21
d1
19
47
c2
e4
0e
1b
d4
19
f3
d8
05
f3
0a
fb
ed
f4
08
f6
f8
a5
20
0f
24
cf
c7
f6
29
02
34
df
01
fd
