0f
18
da
17
f0
e3
be
13
ed
d0
17
14
42
12
0d
17
f9
fe
00
1f
1d
17
01
ea
00
f4
ec
0b
2e
0a
0f
3f
16
03
f9
03
05
d9
15
45
ed
ec
14
06
ed
02
08
ee
ef
16
1c
e2
fc
fc
1f
ea
2d
1e
db
de
f6
17
ea
3a
26
12
fe
1b
ea
29
12
d8
19
ed
0d
4b
01
fb
07
ec
2f
05
f9
07
ec
ed
f5
18
1c
29
07
f9
08
d6
ed
d8
05
00
1b
f5
0c
0a
1b
07
c1
01
04
f7
07
fa
ec
31
d8
db
ed
1a
0c
f0
1a
23
04
06
ee
fe
f5
12
02
f6
1a
19
e3
12
2d
14
39
00
f2
ed
f8
0e
11
ee
50
10
1e
cc
f8
0b
b8
0d
30
0b
f2
ce
e6
f8
fd
ec
ef
29
20
ff
21
0e
f3
cc
e9
f1
e8
eb
2a
1f
d9
c2
f4
f7
2b
e7
fd
20
2b
ee
f9
12
f9
f7
06
e2
fa
03
ed
14
ea
05
eb
1d
32
07
ff
dc
f0
09
c7
2f
ee
cb
07
27
d5
f1
e0
2d
15
24
d3
16
e7
eb
d3
fa
ec
f6
0a
f8
e0
e5
0a
13
17
02
38
20
d7
ec
0d
f3
05
f4
00
fd
f2
fb
f6
0b
df
dc
1a
be
e3
07
2b
bf
ea
f1
18
0f
24
d5
11
04
f6
16
0b
e1
ec
f0
06
07
23
08
ec
0e
0a
20
03
12
f6
d4
df
18
e9
03
f4
ee
0f
18
31
b6
0e
ca
df
02
f9
04
02
05
09
ff
02
1c
15
e0
d6
19
26
31
1a
e2
0a
08
02
f1
ff
0d
08
37
e6
16
07
0f
3a
14
22
fb
00
2b
17
17
fa
fc
07
ff
e7
19
df
0d
10
ef
f0
fc
f0
e3
f9
ef
0f
d7
ca
14
cb
ed
22
20
0f
28
14
f1
f6
ce
f3
28
ee
09
f3
fc
ce
42
fb
15
e9
11
f2
fc
07
e4
cf
16
f5
0b
06
f7
01
d3
f9
df
0c
f7
d7
d5
30
18
0b
c8
ec
18
01
d9
27
1c
0d
1d
10
fe
dd
05
e5
f0
1d
e6
e3
1a
2b
eb
f0
0f
1b
09
e8
ed
12
1f
d8
18
fd
11
f7
f6
2e
0b
f1
02
06
e3
f7
e6
f1
ef
da
16
e6
07
e7
ff
23
0f
05
cd
03
f9
ef
e0
e8
f1
eb
d5
1f
ea
1d
fc
d1
e3
f1
ea
0a
09
13
28
93
ee
f5
d6
00
dd
ff
ed
21
e4
fd
ec
3d
08
23
02
ea
d4
0b
18
19
d3
e8
19
1a
c1
0d
18
be
06
ff
f7
06
07
fc
07
ee
e1
01
1f
0f
c1
e4
11
07
f5
f5
10
04
04
12
1c
09
0e
fa
f1
02
2a
fa
00
10
06
29
fb
e5
19
22
24
cb
f3
df
38
06
03
f2
05
ed
3d
e1
dd
09
0b
15
f8
d4
c7
f4
1c
12
e0
1f
f5
f6
02
fc
26
fb
04
2e
02
f1
11
07
0d
1f
e2
13
1a
f9
07
f0
2b
17
fb
cb
e9
07
f5
41
d7
f2
33
e2
d7
17
09
da
ff
0a
0a
ef
0e
f5
ef
f2
fc
e6
fb
06
ce
de
e3
f7
fd
f8
f7
19
ef
ec
4b
0b
df
db
00
ea
ef
d5
13
f7
f8
18
01
da
16
fc
1b
18
f5
12
0e
13
f0
1e
f1
1d
fc
ed
27
14
0e
ff
e9
de
10
0f
f8
d4
fe
d9
1a
fa
c4
11
e6
ef
e6
2d
f2
2a
ed
f1
c0
e8
11
f6
e7
03
01
0d
f7
19
09
e0
0f
da
16
21
13
21
f1
ff
04
f5
17
0b
06
cd
01
27
0f
0b
e4
ee
14
05
e5
de
f2
2a
ee
f3
f3
10
0a
e9
10
de
01
ec
1c
1b
f3
e9
cc
25
f3
21
fb
fc
29
25
2a
26
fb
06
20
01
fb
f4
1b
16
17
13
08
fc
e0
1b
13
fa
1f
22
21
08
02
e9
1e
14
22
ee
e6
fb
de
14
fb
ed
5a
f9
23
3a
30
de
f3
09
de
f5
f0
fc
08
d5
14
14
1a
13
eb
13
0a
f1
21
00
00
00
00
00
00
00
00
00
00
00
00
00
00
00
00
00
00
00
00
00
00
00
00
00
00
00
00
00
00
00
00
00
00
00
00
00
00
00
00
00
00
00
00
00
00
00
00
00
00
00
00
00
00
00
00
00
00
00
00
00
00
00
00
00
00
00
00
00
00
00
00
00
00
00
00
00
00
00
00
00
00
00
00
00
00
00
00
00
00
00
00
00
00
00
00
00
00
00
00
00
00
00
00
00
00
00
00
00
00
00
00
00
00
00
00
00
00
00
00
00
00
00
00
00
00
00
00
00
00
00
00
00
00
00
00
00
00
00
00
00
00
00
00
00
00
00
00
00
00
00
00
00
00
00
00
00
00
00
00
00
00
00
00
00
00
00
00
00
00
00
00
00
00
00
00
00
00
00
00
00
00
00
00
00
00
00
00
00
00
00
00
00
00
00
00
00
00
00
00
00
00
00
00
00
00
00
00
00
00
00
00
00
00
00
00
00
00
00
00
00
00
00
00
00
00
00
00
00
00
00
00
00
00
00
00
00
00
00
00
