f1
ef
07
f1
2c
ec
0f
04
f7
ff
fb
ee
e3
0b
ee
ec
20
c8
e7
20
f0
09
09
e1
27
f2
0e
0d
fe
ea
f6
fd
ff
25
28
ae
fe
fe
e2
ff
01
df
10
d6
17
08
cd
da
1f
ed
f8
e5
f4
04
f6
f4
2f
fa
fa
15
cb
d6
44
ed
06
e8
df
1a
e7
0c
f1
14
fd
d3
2b
18
f2
fc
ce
e1
02
04
f0
d0
16
dc
f3
1c
38
ff
14
ea
1a
da
01
fc
04
15
d8
e8
c4
fb
e4
07
16
13
08
f4
fd
d9
f6
c9
00
0b
d5
e3
22
0a
15
f0
e2
ee
07
1b
03
1b
0a
00
fa
27
2b
f9
06
45
2d
32
12
1b
0a
c3
38
35
07
f3
e4
17
c3
0d
e6
15
21
2f
14
e0
18
16
13
17
db
03
0c
df
31
12
f5
11
e9
17
f0
0e
fe
fc
ee
05
e6
f6
01
f8
18
f1
0c
f2
01
fc
01
fd
dc
1d
c0
04
f0
18
17
07
21
1c
f1
f2
fc
27
1a
20
f3
31
24
0f
e9
08
fd
06
0e
e6
03
f7
e1
27
d1
e6
01
e1
f7
05
fd
d5
0b
f5
34
04
00
1b
12
f2
04
f2
06
c2
fc
e1
fc
18
bc
ef
b9
22
d7
de
11
09
c1
e6
e3
08
01
f3
dc
0e
04
00
24
de
f2
14
07
2e
12
0c
eb
ef
0e
24
11
fa
f1
c2
d4
04
23
13
f0
f0
1f
09
f5
e9
0e
ee
f7
22
de
10
d7
24
12
1f
fb
40
9b
ee
e3
e5
17
d8
dc
37
18
00
09
07
f3
ed
13
32
08
13
28
0e
f5
fe
11
e3
22
fb
e5
fb
db
d4
f0
fb
03
da
09
f2
e7
08
09
ec
e8
ef
dc
fe
16
f5
13
0e
26
34
e8
07
df
b3
0e
f2
0f
26
0b
ed
f9
d7
0a
da
01
ec
fc
05
e6
42
da
37
0a
e9
e1
0a
ee
09
e4
e7
1a
10
04
ef
0a
14
f2
1e
2c
f2
bf
f7
fc
f0
07
42
21
21
dc
48
d8
d4
1e
14
c1
fb
e3
28
c2
04
17
04
12
ed
06
08
10
f4
2a
ec
07
13
50
ee
01
f8
b4
0d
f1
4f
fb
e7
dc
fc
db
04
14
1b
01
14
17
f8
cc
11
df
1d
31
04
36
0c
12
06
e5
f1
ce
e9
f2
e6
02
f3
e7
25
e2
d2
0e
fd
12
ee
f1
0f
f4
e2
ff
e9
2a
fc
f4
26
02
15
34
e3
b5
f4
16
d6
07
fd
2b
0d
00
15
12
fc
ca
19
02
12
26
0c
37
e3
f7
d1
16
26
2a
03
dc
ff
e1
f7
e1
20
dd
bb
e0
03
e4
e9
39
16
22
03
ff
16
04
17
e9
0a
0a
18
0b
06
06
29
2d
be
1b
e0
17
00
d8
0f
cf
f0
29
17
3f
25
01
34
1f
19
0f
f2
0c
00
f8
e7
ff
e5
06
26
f1
e4
18
d0
e0
ef
f0
e2
1e
0c
03
e9
fb
dd
0d
f1
0e
19
19
14
0a
0d
05
22
e8
2a
0a
26
0d
ea
db
e6
40
c2
34
29
21
1c
e8
21
ea
f3
19
20
0c
fe
01
e1
16
f6
27
cb
00
f5
fd
06
e7
24
19
e1
0b
e0
06
d9
0f
f3
d2
19
24
d3
f6
21
d8
e9
00
e5
f1
f3
0f
e7
ec
13
f1
dd
09
ed
04
e4
08
39
32
02
1e
07
ed
e9
f4
0b
f1
ec
f5
f9
ea
15
16
0f
fe
ec
dc
eb
ec
e7
03
0a
d7
f9
1d
1a
07
fe
0f
23
ec
06
e4
0e
2d
f1
0a
14
17
f5
0f
fd
23
fd
21
12
04
f8
f1
c6
09
ef
27
34
e4
1a
02
e8
db
06
2e
e8
18
f0
e1
f2
de
23
0d
fc
ff
04
df
33
f3
d7
e7
fc
18
f8
12
16
f6
14
16
44
36
fe
f1
01
06
05
c6
f2
2a
20
e7
f9
2b
0c
1a
28
1d
09
d8
f7
10
0d
c8
05
0b
fb
3a
fe
06
ea
1f
e0
e7
15
f4
ff
0e
0b
20
f1
07
37
22
08
2a
f1
00
00
00
00
00
00
00
00
00
00
00
00
00
00
00
00
00
00
00
00
00
00
00
00
00
00
00
00
00
00
00
00
00
00
00
00
00
00
00
00
00
00
00
00
00
00
00
00
00
00
00
00
00
00
00
00
00
00
00
00
00
00
00
00
00
00
00
00
00
00
00
00
00
00
00
00
00
00
00
00
00
00
00
00
00
00
00
00
00
00
00
00
00
00
00
00
00
00
00
00
00
00
00
00
00
00
00
00
00
00
00
00
00
00
00
00
00
00
00
00
00
00
00
00
00
00
00
00
00
00
00
00
00
00
00
00
00
00
00
00
00
00
00
00
00
00
00
00
00
00
00
00
00
00
00
00
00
00
00
00
00
00
00
00
00
00
00
00
00
00
00
00
00
00
00
00
00
00
00
00
00
00
00
00
00
00
00
00
00
00
00
00
00
00
00
00
00
00
00
00
00
00
00
00
00
00
00
00
00
00
00
00
00
00
00
00
00
00
00
00
00
00
00
00
00
00
00
00
00
00
00
00
00
00
00
00
00
00
00
00
