37
f9
f8
09
e5
b8
02
f8
04
f6
1b
09
00
06
2d
03
24
ff
15
13
e8
0c
18
ee
f2
e9
27
e2
fb
e0
e7
1d
08
04
f5
0c
f3
03
fd
f3
09
f9
c0
f4
0e
e9
07
e7
38
cc
e5
1d
27
1b
48
f9
fd
f8
fa
03
13
f1
23
fa
ae
e1
f6
03
34
f7
14
13
29
f5
14
15
04
e0
08
19
15
fe
0e
05
13
00
12
e6
2b
c4
d8
f8
2e
2a
0f
21
d8
00
2a
e5
eb
e7
0d
d2
08
0e
e2
08
24
0b
2e
1c
17
e1
dd
f9
e3
eb
f1
1f
01
06
08
d5
18
07
17
35
e4
10
0b
f4
e7
22
e3
02
0d
fb
e1
fb
f2
f4
0f
01
ef
07
e9
23
05
e4
f8
04
09
dd
02
ed
01
fb
26
f1
e3
f8
d5
2a
fe
2b
04
f4
f3
f7
cf
b9
f0
24
14
c0
05
e2
21
fc
06
0d
05
0e
f4
30
e7
0f
0e
e4
17
f1
11
0b
04
fe
f0
fe
f0
12
09
14
0e
11
16
ca
08
01
ff
e4
0e
f1
ea
d2
fd
05
1a
15
0f
de
ee
0b
dc
eb
00
06
0a
2d
ea
db
01
0f
21
c7
f3
06
ca
00
53
30
fa
db
ff
f4
1c
e9
05
09
0f
f4
1b
f4
f1
10
31
25
05
1a
f3
00
d3
0b
c3
c9
fa
f0
db
21
f5
f8
19
2a
e4
d8
0a
f4
dc
f2
ff
f1
17
05
f7
06
ca
08
de
ec
2f
fb
ec
20
b1
02
18
0e
2b
2e
1d
fc
1f
33
13
0d
2d
e1
f6
fa
d9
00
27
16
e5
f6
0e
06
c4
e6
e5
e1
e6
02
f4
ea
23
e3
e8
23
13
f2
f8
13
fb
fe
03
c8
26
29
ca
04
1c
10
05
00
c6
e5
f0
27
3a
40
10
11
f6
dc
b9
0d
b2
0b
08
f9
f9
ed
00
c5
16
17
ed
f4
12
07
d6
05
f8
15
09
f6
b1
e6
fc
ec
04
de
55
fa
fb
fa
ce
06
1b
eb
02
fe
2a
f5
0c
e4
31
26
f4
23
ff
d0
be
e8
1d
0c
32
10
f3
f5
01
e1
ed
f3
23
df
02
0d
1a
0b
01
f9
04
fe
f9
18
05
d8
f8
ed
fb
30
21
09
15
cd
1c
17
01
11
eb
dd
07
f8
15
f3
04
30
ce
fb
c9
3d
fd
e5
04
df
de
d4
f7
21
f7
0a
21
06
07
e7
ff
f3
da
f2
04
24
19
08
f1
eb
13
fd
1a
0e
1a
0b
07
27
2e
f6
ff
af
16
e4
f7
fd
c0
f3
11
22
23
fd
d6
1a
07
16
f6
30
df
e1
fd
f7
e7
f7
13
07
ef
da
14
e2
eb
01
13
c6
e0
2b
fa
bd
ec
cf
eb
06
00
0a
d4
2a
ed
16
b2
f6
14
fd
1a
13
f4
04
f7
06
ef
21
e6
0e
2f
04
e5
be
09
01
ff
11
ee
12
fe
08
21
df
fa
15
db
cf
01
da
1a
1c
de
4a
f7
27
d7
14
f5
01
fa
18
0f
d9
fe
07
26
ee
ff
e2
f4
f2
0c
f4
0b
0a
09
01
10
02
01
e8
fd
0b
f2
08
0b
f8
ff
f3
e9
f7
fb
35
ee
12
f8
23
e9
13
ce
c8
04
2f
39
0c
e8
54
22
fb
0f
29
1d
fd
fd
e8
0f
ce
fe
27
e6
29
1c
0b
0e
1b
e5
17
33
ec
36
0f
fc
05
20
0e
ec
1c
e5
f8
44
1e
00
34
15
21
fd
26
ec
05
f3
fb
0c
3c
07
e5
29
1a
d6
0f
06
00
03
0f
18
ec
18
fb
ce
2a
24
d9
d7
d7
11
24
01
ce
00
c3
b7
0b
13
16
ff
2d
25
27
05
f2
28
f5
d1
09
05
14
f8
08
34
17
f3
da
2d
10
04
02
fb
05
de
fe
12
0b
13
0f
fc
00
04
d4
13
f1
dc
25
0d
08
f1
dd
fb
34
e8
20
18
10
0c
fe
f3
f0
1b
e1
f9
08
fa
29
3a
09
fb
ec
14
fe
04
0c
f5
1d
28
ec
d2
1b
f7
fb
fa
16
ee
ed
1e
e0
02
1a
00
00
00
00
00
00
00
00
00
00
00
00
00
00
00
00
00
00
00
00
00
00
00
00
00
00
00
00
00
00
00
00
00
00
00
00
00
00
00
00
00
00
00
00
00
00
00
00
00
00
00
00
00
00
00
00
00
00
00
00
00
00
00
00
00
00
00
00
00
00
00
00
00
00
00
00
00
00
00
00
00
00
00
00
00
00
00
00
00
00
00
00
00
00
00
00
00
00
00
00
00
00
00
00
00
00
00
00
00
00
00
00
00
00
00
00
00
00
00
00
00
00
00
00
00
00
00
00
00
00
00
00
00
00
00
00
00
00
00
00
00
00
00
00
00
00
00
00
00
00
00
00
00
00
00
00
00
00
00
00
00
00
00
00
00
00
00
00
00
00
00
00
00
00
00
00
00
00
00
00
00
00
00
00
00
00
00
00
00
00
00
00
00
00
00
00
00
00
00
00
00
00
00
00
00
00
00
00
00
00
00
00
00
00
00
00
00
00
00
00
00
00
00
00
00
00
00
00
00
00
00
00
00
00
00
00
00
00
00
00
