f0
17
18
e1
ff
0d
4f
e6
0d
f7
02
0f
1c
08
ec
b9
fb
21
22
f9
15
05
40
22
e7
bf
da
2f
c7
0b
0c
2b
2d
ed
11
df
fd
1a
09
15
01
e8
38
1d
f0
21
39
4b
ee
ea
3b
03
01
c8
37
00
1f
34
db
1a
f6
d6
fd
29
f8
43
2f
41
18
11
d6
f3
2e
08
39
ed
1c
ed
04
ca
1f
fa
e3
d1
d3
e3
6e
f3
e3
3c
07
fc
fe
24
c4
db
d8
27
1e
27
d0
d9
2a
ab
da
e9
f6
04
16
43
1b
fd
2c
12
01
e9
e8
31
03
fb
1c
2c
31
d5
11
c7
00
19
