f0
0f
1c
45
03
e3
1b
e5
f0
e9
1a
e9
e2
e3
aa
04
cd
27
e2
13
14
18
ec
f8
ce
06
3c
d7
e2
0d
fb
c3
04
d4
23
e8
1f
02
f1
f7
07
0c
f2
ec
02
0c
2e
02
cc
ea
17
e3
e1
ec
e1
fd
ef
01
ec
fb
18
ff
f3
c2
0e
f8
0d
e9
16
fa
d4
e8
d8
0c
e2
1c
d2
07
04
0b
cc
08
e6
d0
f1
03
09
d7
c9
12
e4
ed
06
df
24
32
10
de
f3
1a
f7
c4
2d
fc
f0
f2
1b
15
fc
30
f2
fb
3b
e9
02
38
fc
e4
c4
f2
16
24
da
ef
f2
f6
e3
ec
