d0
16
14
fb
c0
24
20
3a
f5
ee
d9
0a
fa
e3
eb
1d
f5
fa
f5
ec
eb
19
0e
03
fc
16
1f
22
12
dc
e0
0e
18
06
f6
01
04
02
b5
e8
c1
2e
c5
07
05
06
0c
2c
04
2b
00
e6
0a
29
33
e9
41
e1
df
e6
0c
e3
19
d7
ec
c4
e0
2c
eb
14
e2
07
e4
31
f6
0c
cb
1b
0c
e8
21
ea
b8
13
fa
24
1f
fd
38
ee
d8
0c
ec
06
fe
f5
ec
17
d8
2e
2a
05
1c
ed
05
bc
d8
d3
09
07
de
0e
e0
d2
10
f6
08
d9
e8
dc
49
d4
ff
f3
09
25
c2
da
f8
e4
f4
06
f0
e4
e2
13
0b
d5
03
dd
e6
f2
2c
ff
0c
25
d3
dd
b4
13
fa
05
06
e7
19
f8
21
f5
f7
18
ff
f8
1e
f1
ff
06
e9
09
ec
dd
f3
f0
d0
0c
04
f0
04
4e
32
1e
f1
fb
fc
fd
e9
2b
09
32
f6
fe
e3
0a
f9
f3
0d
0b
f9
15
b8
fd
03
1d
16
f5
37
f7
01
f7
c5
f0
ec
e9
15
df
d6
d5
f8
ef
1d
2b
ef
f8
f9
e6
e0
2e
30
f8
f9
16
f0
40
e5
fa
1c
10
d9
d1
ff
f5
f0
0f
02
06
e0
11
0d
23
08
06
12
fa
ef
f1
0f
f8
0c
fa
f3
f5
0d
17
fb
e9
06
34
f5
2e
00
0e
d8
e4
f5
26
fc
f7
f8
07
dd
1d
07
d9
ff
e9
c8
54
ef
26
ce
e3
1a
04
da
2e
27
21
c6
dd
0b
1c
fe
0e
ff
18
19
21
fe
fb
fc
0f
0f
e9
fd
03
ea
2d
08
ed
26
f4
ca
e2
51
00
ff
18
f1
08
ef
f6
fa
d4
02
f5
f2
ff
e0
0c
ff
22
1c
01
db
f9
ff
b8
fe
31
33
f7
23
fb
1c
e8
ed
e8
fa
f4
01
30
e5
d7
ff
02
d5
d5
f8
3d
08
e4
24
e5
20
2a
0e
03
cf
05
11
00
e4
f8
dc
05
ed
e7
eb
e0
05
e5
2e
dd
fc
fa
e9
ff
df
e9
c3
f0
bd
23
c1
0d
e3
0e
f6
f9
fe
2f
16
ff
01
08
e5
09
1a
fa
2e
f9
c8
29
2c
0d
00
03
e6
2c
12
0c
18
fa
00
ee
f7
1e
27
0d
0e
07
19
1d
fc
22
13
19
10
f3
fa
f5
f9
fc
39
06
2f
f1
d8
06
08
0d
1c
22
13
f5
e5
30
d9
4c
f4
04
f4
d7
01
e2
f8
ea
c0
06
09
21
fe
f3
cd
26
0d
f7
f9
d0
f9
eb
0d
00
07
f1
09
eb
ee
0a
0f
0d
de
da
e6
1a
0b
dc
09
fe
1b
fc
de
2e
1f
44
11
c7
eb
c5
dc
58
f6
23
08
f3
07
13
af
ed
eb
f9
f7
01
10
07
da
20
f6
13
ec
2c
fa
07
e0
e8
00
e2
e3
d7
f6
0d
0f
13
02
36
cd
32
1c
ef
13
02
0b
00
35
12
c9
f8
c3
08
2c
ff
f3
1a
ec
d1
f5
05
34
15
dd
e0
c8
0e
19
0f
0e
f2
f7
23
e4
ee
e7
02
02
da
0a
f4
11
fe
f0
e8
cd
0d
1f
12
e2
21
0c
ee
21
02
f2
04
cb
2e
1e
0b
10
db
21
c8
e4
f5
f8
06
07
ee
df
0a
03
11
e6
04
01
ee
1d
01
e3
19
fd
e3
d8
db
36
0f
f0
19
22
42
f1
c8
e8
c6
f6
f8
1d
1f
07
fc
0c
0c
e6
29
34
18
e9
de
ba
09
f4
d7
e6
eb
ef
e7
ce
e1
e7
f0
f5
ee
49
e5
f2
1c
0b
fd
cf
08
31
1f
06
ec
f4
17
f6
19
df
fa
d7
fb
e4
ec
f3
2c
f2
11
04
fb
ee
02
2c
05
2f
eb
fd
0a
da
14
dd
0e
d8
e2
e7
fd
1e
e6
ee
df
19
0e
20
fe
0f
02
d3
4d
dd
cb
da
19
f8
fd
f3
ee
29
fa
22
f0
23
f7
b1
e9
41
01
11
f8
f7
f6
06
f4
c0
05
db
f8
e9
16
e5
ca
ed
fb
0c
f1
da
07
11
27
07
ec
2d
ff
10
db
26
e9
00
00
00
00
00
00
00
00
00
00
00
00
00
00
00
00
00
00
00
00
00
00
00
00
00
00
00
00
00
00
00
00
00
00
00
00
00
00
00
00
00
00
00
00
00
00
00
00
00
00
00
00
00
00
00
00
00
00
00
00
00
00
00
00
00
00
00
00
00
00
00
00
00
00
00
00
00
00
00
00
00
00
00
00
00
00
00
00
00
00
00
00
00
00
00
00
00
00
00
00
00
00
00
00
00
00
00
00
00
00
00
00
00
00
00
00
00
00
00
00
00
00
00
00
00
00
00
00
00
00
00
00
00
00
00
00
00
00
00
00
00
00
00
00
00
00
00
00
00
00
00
00
00
00
00
00
00
00
00
00
00
00
00
00
00
00
00
00
00
00
00
00
00
00
00
00
00
00
00
00
00
00
00
00
00
00
00
00
00
00
00
00
00
00
00
00
00
00
00
00
00
00
00
00
00
00
00
00
00
00
00
00
00
00
00
00
00
00
00
00
00
00
00
00
00
00
00
00
00
00
00
00
00
00
00
00
00
00
00
00
