01
18
0d
cf
de
16
f0
31
f9
10
2b
d8
37
0f
b7
ec
09
f2
12
06
1e
f9
02
97
bc
f0
45
3c
d3
dc
18
1e
e8
01
25
ba
ee
23
e8
1c
fd
ec
f3
39
dd
26
db
24
ed
f9
05
29
0a
d8
31
f2
e5
3f
f5
f1
18
28
3a
03
bb
fe
ce
b6
ea
d3
05
15
23
c8
ec
f6
12
fb
0e
e2
e5
e6
f5
cd
e8
f8
f5
f2
e9
e6
f0
26
e5
ce
f4
09
10
02
eb
2e
c1
40
15
9a
fd
05
0a
c2
ec
f8
c7
17
14
fa
2d
1f
fc
2e
8f
20
c7
15
d3
ed
01
e9
00
08
