05
02
17
f0
ee
49
15
2a
f9
3d
02
74
25
ec
07
0e
f2
3a
e9
09
15
11
23
37
bd
d3
f3
3b
02
d6
f9
0c
2f
01
07
d1
08
f7
bd
05
10
e4
d1
44
e5
f9
05
1a
fd
13
e3
f6
23
d6
00
f7
f3
12
e9
f4
0f
00
f0
00
15
dc
18
eb
f9
16
0a
3b
63
d0
33
f2
e9
2f
60
14
2a
13
18
28
bc
f0
00
c9
f9
35
1c
fc
4b
eb
25
cf
ee
3b
24
da
0a
06
f0
1e
f2
e9
14
23
0e
bb
16
fa
15
d6
d4
15
e8
22
3f
e7
fb
1a
02
10
36
12
09
09
