f0
34
c3
01
34
d1
df
e5
d1
cf
db
05
e2
de
11
41
14
f2
23
16
11
f1
ed
e8
eb
d1
f6
18
c4
11
06
08
b8
f3
0e
f7
36
1f
14
f6
05
db
21
d7
0b
f7
0f
11
ee
23
1f
ea
0b
ed
ea
2a
05
fd
0e
0b
18
11
f2
fa
fe
f2
f4
fa
03
e6
0e
fb
31
fc
09
0d
eb
05
f5
01
0c
09
4c
13
dc
ec
00
07
fb
fc
07
ea
d7
08
e1
33
07
cb
f1
0e
ea
00
04
06
22
e9
07
16
02
32
f8
21
10
d6
d9
d9
1c
07
14
38
f0
fe
f4
da
f2
f7
20
07
cd
f0
fd
11
d3
e0
15
20
eb
db
f4
fb
04
2f
24
ee
18
fa
e1
e0
0a
3b
25
b3
23
c0
f7
21
ee
fa
0a
fb
f6
ee
ed
04
2b
3a
25
e4
22
0f
14
38
f9
c2
1c
e8
ea
37
c5
0a
04
0a
d8
1c
13
f2
d4
f3
f4
f5
de
ac
ec
35
f5
0e
01
de
f9
df
29
fa
06
fb
14
ec
03
57
f0
21
d1
f0
d2
3a
33
05
f9
2b
1a
d2
0c
fc
ef
14
1b
0e
fc
0c
13
f0
09
ee
e3
0a
10
0c
ef
02
01
f1
b6
05
18
12
be
28
e0
f3
f2
e5
f1
22
c1
1a
2a
ee
08
eb
23
e6
04
da
ec
17
f7
20
0b
02
11
e9
f5
fa
0f
fa
fc
18
16
ed
fa
06
db
08
e8
11
d6
0a
d4
0a
04
e6
04
e9
fb
0a
e9
db
ee
ff
0b
f4
ce
29
15
04
20
f9
fa
f0
1a
00
38
2d
dd
f7
16
17
e3
09
1b
17
f5
04
18
10
e6
e9
eb
fd
1a
05
d5
54
16
17
04
fb
21
0c
10
e6
0e
de
07
1d
ec
08
fe
e1
fd
e3
c2
13
1b
fa
f2
ec
f4
0e
07
f3
ef
fc
00
21
25
fd
db
33
06
12
10
03
ea
f6
1a
e0
0a
21
ed
0f
0c
e5
0c
e7
38
ef
ee
e6
23
0c
11
1f
20
cd
bd
01
ff
df
0d
e1
0d
f1
22
3a
17
f5
00
f6
fd
e0
00
fd
0f
10
cf
23
ed
f2
3d
ee
ce
08
03
21
e5
c6
e0
ea
e7
dc
0e
0c
f9
07
06
06
13
1e
fa
08
37
2a
09
c5
ff
06
ec
2b
06
20
09
26
18
db
fa
20
03
c8
f2
fa
06
d9
fa
ef
2f
25
eb
22
33
03
f8
fb
13
17
24
8d
01
e5
01
0f
f5
fa
01
13
1c
0c
00
15
e4
f0
04
ee
25
ca
fa
f9
02
eb
10
00
f9
dd
fc
f7
0f
dc
ef
08
fb
e6
fb
e6
e4
d3
0a
0b
0b
df
e4
40
02
1d
1f
fa
ed
fb
ea
f4
db
ef
08
14
d4
07
34
05
f4
0b
f8
f1
0f
dd
12
24
d4
03
01
d4
03
0e
e5
09
e6
ed
0b
de
9e
18
e6
22
e3
2f
f8
e4
f7
1d
0f
ee
25
08
e2
1c
03
c9
06
fa
25
f7
16
c0
05
11
18
0b
f1
4f
f8
c7
06
c9
0e
f8
11
e8
c6
f5
e5
13
f4
fe
ec
de
b5
18
e8
0b
e4
18
dc
ef
27
00
0d
e0
f0
01
0d
da
ef
fa
fc
e9
d3
e8
fa
d6
eb
ee
08
03
10
2e
24
03
0e
f4
fc
fc
da
19
05
ff
00
15
0e
ec
f9
00
30
ec
f9
ac
e5
0b
0b
f0
12
dd
ee
ef
0e
bc
0c
df
20
2c
e6
06
12
1d
be
08
f9
01
06
f8
df
01
38
fb
05
34
0e
10
f8
cf
0b
c9
0e
f3
ec
d4
12
12
02
f8
11
dd
28
0c
f2
ff
f6
0d
d9
f9
d1
00
2a
24
0a
1e
e4
f8
c8
0b
1d
e0
a4
08
eb
32
fc
26
2c
0e
36
0a
08
2e
09
d2
f1
06
37
fd
c0
fc
c6
f7
23
f2
de
1f
e7
fe
d9
0f
28
ca
03
00
08
05
fb
07
fb
16
f6
18
1d
d1
fa
0f
dd
0d
1a
c4
f5
06
ea
dd
f1
02
fc
ec
02
1e
fa
fe
14
15
fc
18
00
00
00
00
00
00
00
00
00
00
00
00
00
00
00
00
00
00
00
00
00
00
00
00
00
00
00
00
00
00
00
00
00
00
00
00
00
00
00
00
00
00
00
00
00
00
00
00
00
00
00
00
00
00
00
00
00
00
00
00
00
00
00
00
00
00
00
00
00
00
00
00
00
00
00
00
00
00
00
00
00
00
00
00
00
00
00
00
00
00
00
00
00
00
00
00
00
00
00
00
00
00
00
00
00
00
00
00
00
00
00
00
00
00
00
00
00
00
00
00
00
00
00
00
00
00
00
00
00
00
00
00
00
00
00
00
00
00
00
00
00
00
00
00
00
00
00
00
00
00
00
00
00
00
00
00
00
00
00
00
00
00
00
00
00
00
00
00
00
00
00
00
00
00
00
00
00
00
00
00
00
00
00
00
00
00
00
00
00
00
00
00
00
00
00
00
00
00
00
00
00
00
00
00
00
00
00
00
00
00
00
00
00
00
00
00
00
00
00
00
00
00
00
00
00
00
00
00
00
00
00
00
00
00
00
00
00
00
00
00
