08
dd
e7
e4
2c
22
fb
de
0f
07
da
ee
0a
03
ef
28
ec
e2
09
18
12
42
0d
e0
1a
03
be
00
0a
f5
19
19
0e
e0
13
03
fe
fa
0a
00
00
e4
fb
f4
38
1e
e8
1b
1d
f1
10
ff
fe
da
30
18
21
f6
04
cd
14
f3
1c
07
14
e1
20
ff
dc
f0
1a
1b
3b
ff
e7
b8
db
0d
09
fd
fa
ef
0d
2c
f4
03
fa
09
26
30
21
d9
03
1b
ca
de
25
f4
1e
df
fd
02
11
c3
cb
f4
38
fe
e1
fd
01
11
10
0c
d0
e0
e2
08
df
f3
1c
fc
d7
ee
f2
e8
0f
ea
45
fa
07
e8
dd
f5
ef
13
20
e5
fb
03
f1
d9
34
ec
0f
01
29
0e
e7
ec
1a
e6
b8
f3
21
cd
2a
db
e7
f9
da
0e
ef
ee
17
3a
fc
30
e8
fb
10
15
e6
05
04
46
0a
e7
15
0e
e4
17
22
34
08
f1
0a
3b
f1
e0
f2
17
19
d0
ea
26
09
d9
fd
03
fb
05
21
16
eb
29
fa
29
e1
05
df
26
20
07
04
33
2d
08
22
1e
f2
16
f6
02
eb
19
10
f8
07
17
25
11
f3
f8
fd
0c
fb
0e
f5
0f
06
f7
4d
e7
f3
3c
cf
de
f7
1c
e8
e1
43
ec
eb
0c
2a
28
08
1c
e8
11
16
16
0d
f5
e9
1b
16
fe
23
03
32
00
06
c8
e1
15
a9
08
31
fa
e3
21
0f
dd
13
f7
0b
cd
f6
fb
f5
dc
19
f2
0f
2a
1a
05
2b
e9
0b
22
f7
f2
e0
e1
ee
30
08
04
52
02
fb
12
00
e3
f1
f8
df
05
23
d5
1c
c1
08
ff
17
09
0e
f8
cc
f8
2b
04
1d
0c
1e
1f
e4
0b
d1
06
34
df
fe
15
d5
f8
13
15
2d
27
f1
ee
db
c8
0d
29
fe
f2
16
04
f4
d4
3e
ef
d1
d0
12
f5
04
07
25
d5
0d
ec
d1
05
e4
fd
f5
f5
fe
e2
0e
0a
22
d2
01
d5
fd
09
c8
07
58
22
f7
d7
0c
fd
09
28
fb
ef
e9
c3
e9
e1
27
e7
1a
f4
ca
f5
17
f8
c2
02
d8
16
ec
19
e1
46
31
cd
1d
3e
fd
ed
e5
24
f3
bc
18
15
e8
00
19
26
10
f1
fd
32
25
3d
e8
e0
1c
f2
1a
2a
20
c4
13
06
e8
fb
0d
e6
ce
fb
d3
0c
16
f7
fd
f6
04
e5
f0
18
eb
c7
f7
e8
da
f6
19
f9
0c
05
02
03
e3
06
d4
eb
c2
e7
d5
02
f2
25
0e
ee
fb
06
e8
18
20
0f
cb
e0
fd
31
12
dc
f8
1d
f7
df
e6
dc
06
ec
07
e4
fd
0c
0b
46
f3
fc
fd
e3
13
e8
f2
10
cb
e9
08
dc
e2
e4
1d
fa
de
f6
e8
eb
ce
f9
bb
02
f0
17
0e
2d
e5
23
2c
0e
df
fb
f1
f0
1b
12
40
2e
1b
fe
f8
40
ff
05
f0
bd
40
13
da
e4
2c
f4
ff
df
fb
12
ef
2c
0b
11
1b
16
10
0e
e8
19
04
fd
f3
1f
ec
ef
11
db
4a
22
31
00
fc
e5
06
ea
cb
ec
03
1e
d8
19
08
0b
25
25
2e
09
f4
1b
2d
31
06
2d
3b
52
10
16
10
f1
03
02
06
2d
df
37
fb
02
f4
02
18
2d
0f
1d
e0
e9
20
1f
fb
f9
25
e1
1c
1a
25
22
f7
15
0d
e4
00
24
f2
1d
0e
e1
10
ce
cb
09
12
1a
ee
f2
25
0f
12
ef
fa
ca
19
e4
f2
0d
e2
03
15
1f
06
ec
05
16
ea
c2
cd
33
ef
f6
fe
05
f8
c1
f5
e9
db
d1
fa
16
d8
d4
e3
2b
dc
fb
ff
df
1b
f5
e3
06
e7
15
1c
2d
11
01
2d
f1
0a
fd
f9
f3
fe
07
fe
f3
d3
d6
02
f9
34
f3
08
c5
fe
f1
fc
2f
0d
dd
29
f8
d2
c7
0e
15
ff
f1
d3
0b
dd
e5
cf
28
0d
27
ef
08
02
2f
fe
17
fc
00
04
d7
0c
17
ea
56
11
c0
00
00
00
00
00
00
00
00
00
00
00
00
00
00
00
00
00
00
00
00
00
00
00
00
00
00
00
00
00
00
00
00
00
00
00
00
00
00
00
00
00
00
00
00
00
00
00
00
00
00
00
00
00
00
00
00
00
00
00
00
00
00
00
00
00
00
00
00
00
00
00
00
00
00
00
00
00
00
00
00
00
00
00
00
00
00
00
00
00
00
00
00
00
00
00
00
00
00
00
00
00
00
00
00
00
00
00
00
00
00
00
00
00
00
00
00
00
00
00
00
00
00
00
00
00
00
00
00
00
00
00
00
00
00
00
00
00
00
00
00
00
00
00
00
00
00
00
00
00
00
00
00
00
00
00
00
00
00
00
00
00
00
00
00
00
00
00
00
00
00
00
00
00
00
00
00
00
00
00
00
00
00
00
00
00
00
00
00
00
00
00
00
00
00
00
00
00
00
00
00
00
00
00
00
00
00
00
00
00
00
00
00
00
00
00
00
00
00
00
00
00
00
00
00
00
00
00
00
00
00
00
00
00
00
00
00
00
00
00
00
