f6
fe
2b
23
dc
08
f4
d8
e5
08
1c
eb
0c
0c
23
d6
0e
1a
f8
f4
2a
0e
d5
40
4d
0d
d7
2d
ed
1c
1b
07
f6
07
04
c9
3c
1d
38
0c
01
b0
e7
02
d8
f9
11
fe
fd
2f
e6
fe
24
0e
01
f6
29
fb
04
10
0c
07
21
08
09
cc
26
1a
0c
1a
f9
25
1d
df
fc
17
e1
0d
e2
14
15
e5
36
00
f0
ef
bc
0e
d5
12
0a
1f
ed
c7
14
11
fe
f2
f1
0a
17
1d
1a
19
27
bf
11
04
2e
1d
01
eb
ef
0c
e5
1f
f4
07
07
f6
ea
48
09
ea
00
f3
10
ff
