ef
13
11
11
ee
07
cc
22
f4
0e
ff
17
1e
f7
f5
0a
f5
d1
0e
09
07
0b
18
38
0e
1d
15
b0
30
13
e8
18
19
22
d3
0c
fb
e7
21
fe
10
f9
07
ec
ff
d1
fb
f6
11
f8
fa
ec
d4
09
0e
05
f5
e6
08
fa
13
3a
ff
fc
e4
0a
f6
22
2a
e6
2e
fb
d3
28
f2
0f
e5
1a
d8
fb
10
07
f2
03
fc
0a
36
11
03
11
f5
26
27
cf
35
24
d3
66
2e
1a
ff
00
00
26
08
04
05
0b
08
00
13
e8
f6
1d
25
dc
08
0b
e1
10
23
e7
d6
06
21
e2
3f
f9
c6
0e
19
03
08
0f
35
bf
32
d4
f2
e7
fb
e3
d1
f0
14
cd
38
d5
06
12
ef
e1
eb
e5
fe
f2
df
07
ce
da
ef
f5
ec
fb
fc
e7
0c
ee
19
15
1e
c1
0a
1f
d2
ba
14
1e
1e
bf
1b
03
f3
19
16
cd
d9
22
10
ec
c8
06
22
d9
29
3e
fd
f3
da
03
1f
13
15
1f
0c
f1
d9
1f
eb
0c
25
0a
ef
d0
02
f4
eb
33
f1
f5
f4
fd
e8
29
e4
fc
d3
21
ce
f9
e1
e8
15
e2
fe
f6
08
14
e2
e5
ad
f9
d4
e7
e7
1a
0c
09
eb
e0
0d
cc
1d
e9
26
15
ea
da
07
06
fa
e8
b7
39
eb
00
09
17
e9
f0
ee
d7
f5
05
0e
f9
f1
fb
f9
f9
10
37
0e
bf
14
f6
f1
08
06
e6
09
be
10
12
12
cc
07
ff
db
63
ef
2a
4d
c5
cf
0f
3f
09
ed
fb
28
f0
e5
cb
0b
0f
e3
fe
ff
d7
21
d0
fc
0e
d8
ec
e7
20
05
0d
3c
fc
09
cf
fa
0b
06
18
11
12
0c
f3
f3
03
44
07
05
fa
c7
df
d1
17
f4
35
cd
e6
f0
d6
09
03
f6
04
ca
24
f3
f8
26
d8
d0
23
40
18
18
fc
eb
03
e8
12
42
11
f4
f6
f9
00
2c
2a
c9
0d
08
06
04
fc
f0
f6
10
f4
dd
e1
35
1f
cf
c1
10
ff
ef
f7
19
e8
11
2e
ea
10
e1
05
dc
dc
b5
fa
00
ef
fe
0a
14
06
f6
fd
05
24
d0
d3
fc
18
f2
14
ec
19
ea
e7
e0
23
f0
0e
ef
f3
f5
dc
11
0b
d3
c8
10
22
05
29
13
15
10
15
b3
16
e2
12
df
20
cf
17
ea
05
f9
11
23
04
dd
0f
fd
06
f8
11
3a
f3
02
dd
f8
05
ed
df
20
13
3c
e1
f7
1f
06
d0
0b
d3
eb
06
ee
e4
fc
ce
32
f9
e6
37
e7
f9
de
ec
0b
24
e5
07
01
0d
f2
1c
f7
ef
05
1d
00
2a
ec
0e
fa
fc
06
ff
f6
e2
38
d5
da
f4
dd
11
e1
cc
f9
2c
ed
ee
20
45
e4
fa
ea
01
1c
fe
10
07
22
ff
04
04
0c
e8
c6
03
f6
f1
10
ee
ce
e6
0c
27
e2
27
db
25
1b
fd
09
ff
35
14
19
f7
de
f8
23
dc
f3
12
2a
cf
e8
ff
04
2c
00
fd
0e
f6
0a
f3
13
ff
38
15
de
ed
1a
ff
de
0c
0a
d8
24
ea
14
e7
e7
1b
22
18
ff
07
2f
f5
09
06
dd
59
12
10
01
f7
21
2f
03
d2
d9
05
08
de
1a
d1
0d
e4
d1
f3
1c
ef
08
d8
f6
0b
e6
c8
d8
f2
fa
ea
e9
f6
f6
04
dc
de
ec
f7
17
f9
e7
eb
f5
f9
03
38
13
f1
fe
20
f8
db
f4
16
12
e2
1a
d3
ea
09
01
da
06
09
2f
d1
f2
ed
06
19
2a
26
fc
28
52
ad
f1
02
15
e1
09
05
c8
fb
2b
f9
f1
0b
fa
35
fe
d6
e3
f7
1c
12
29
0c
e8
14
fb
0d
29
0c
f5
d7
17
f9
31
0c
15
0e
2d
fc
ee
0d
1e
2d
ed
15
fa
16
fb
1c
13
0f
de
fa
26
fc
e7
21
07
11
15
e5
f9
dc
03
0c
e8
0c
11
e8
fa
00
0b
e1
f5
1a
01
dd
fc
24
d6
cb
00
00
00
00
00
00
00
00
00
00
00
00
00
00
00
00
00
00
00
00
00
00
00
00
00
00
00
00
00
00
00
00
00
00
00
00
00
00
00
00
00
00
00
00
00
00
00
00
00
00
00
00
00
00
00
00
00
00
00
00
00
00
00
00
00
00
00
00
00
00
00
00
00
00
00
00
00
00
00
00
00
00
00
00
00
00
00
00
00
00
00
00
00
00
00
00
00
00
00
00
00
00
00
00
00
00
00
00
00
00
00
00
00
00
00
00
00
00
00
00
00
00
00
00
00
00
00
00
00
00
00
00
00
00
00
00
00
00
00
00
00
00
00
00
00
00
00
00
00
00
00
00
00
00
00
00
00
00
00
00
00
00
00
00
00
00
00
00
00
00
00
00
00
00
00
00
00
00
00
00
00
00
00
00
00
00
00
00
00
00
00
00
00
00
00
00
00
00
00
00
00
00
00
00
00
00
00
00
00
00
00
00
00
00
00
00
00
00
00
00
00
00
00
00
00
00
00
00
00
00
00
00
00
00
00
00
00
00
00
00
