19
1c
38
2b
ef
0d
14
06
0a
06
fa
15
0e
10
29
04
de
2b
cc
f1
d5
fc
eb
3d
1e
f3
f2
04
af
19
f8
11
ed
fb
fe
18
07
e0
fc
0c
e1
11
21
fd
27
0b
16
de
e6
00
5a
34
c7
0b
ff
1c
1d
15
f0
3d
23
01
f4
05
eb
e5
2a
d3
f3
d2
03
09
23
0e
1c
dc
25
08
fb
00
d9
dc
2a
f6
ed
c4
13
cf
ed
ea
ea
cb
02
d7
0b
06
ef
15
e4
0a
1e
ec
f3
35
e3
d8
f2
fc
e7
16
f6
14
2c
08
1d
fd
df
e0
16
19
05
e2
05
04
22
1b
d3
0f
e5
09
c2
04
e8
dc
f5
fb
05
3d
10
12
dd
ee
1a
13
21
f7
e9
f4
fb
19
0e
28
10
13
d3
12
00
fb
f7
1f
d5
ed
e5
fb
ce
f5
18
14
05
ea
0a
20
05
3d
e7
22
d5
e4
22
f2
e9
e9
02
e4
21
fe
fd
fa
d0
f7
13
d4
d4
c6
08
0b
f5
09
e5
0b
09
10
1f
e2
2f
f3
fa
d8
08
0b
f2
16
f7
01
db
fa
d0
f2
14
f1
f7
1d
de
02
eb
01
cb
17
00
25
2b
fb
fb
fb
c7
ec
07
26
fc
25
45
19
13
f9
c5
cb
f0
f1
10
fe
03
fb
ff
f0
ee
fe
fa
c9
cb
17
f6
25
06
09
07
f3
e3
2c
e8
23
22
1e
d2
02
f3
f2
fc
bc
f1
ff
16
2c
de
ec
fa
fb
e1
1f
02
ee
0d
f5
10
06
cb
03
07
33
f6
38
ec
10
1f
1f
05
0e
e3
09
18
1b
1d
f6
3f
1e
2a
dc
15
0e
26
2a
f3
01
ea
ec
dc
2d
11
28
d4
3b
1e
2f
02
08
d2
fb
19
f5
e0
db
10
cc
e1
f4
fc
05
d5
15
14
e6
25
13
df
e8
1f
d6
34
ca
f3
e7
1d
2e
27
fa
10
fc
f9
d0
15
11
48
23
20
e3
de
09
35
f7
05
dd
f8
22
dc
3a
12
12
e5
00
e4
eb
14
f8
00
18
ed
d7
f5
ee
29
ff
eb
e6
22
f2
fd
0f
d7
e9
0b
e2
07
fe
28
d8
29
11
0a
d8
44
e0
f4
10
f5
e1
d8
f8
db
f0
fc
fd
23
ec
0e
08
f1
f2
ef
3c
0a
e0
1d
f7
0d
0c
e8
0a
fd
f9
28
13
02
da
1b
18
c9
f1
eb
14
24
e3
06
f1
10
c9
04
16
05
0d
fc
2a
13
cb
13
20
e4
f3
13
0d
02
00
e0
0e
0c
12
06
19
ff
f7
29
dd
f8
fa
0f
16
11
ee
3d
4f
04
04
1c
19
3b
cd
2c
10
2b
26
13
e9
01
14
36
14
e5
ca
f9
0b
ed
ff
33
ce
e6
19
de
e6
e4
fe
e2
e8
09
ff
04
08
13
e2
0e
1f
e4
ca
17
e0
d6
c4
03
e1
15
e2
de
12
00
30
25
f8
e4
eb
0e
3c
fd
0d
e4
03
f4
fd
05
f5
c6
2b
13
d9
f0
13
0a
de
06
06
0f
dd
fd
ef
fd
21
e3
f9
15
2d
1c
19
c9
2d
ef
d0
e5
0b
1c
f6
0d
fe
f6
ef
14
0a
07
db
f8
05
06
0c
d8
fb
df
1e
fe
fb
0b
05
ec
09
0e
27
fd
16
02
1f
cb
0c
e1
f1
ed
ee
d9
e8
20
17
d3
fd
fb
fd
14
03
f1
1f
f0
22
20
0f
ed
07
e4
14
eb
1a
fc
02
ce
38
13
e3
e9
3a
2a
ef
ee
12
ed
f7
04
ed
fa
cd
18
fa
f9
f0
f0
e1
11
d6
03
f2
be
ff
11
e5
01
1c
04
e4
fb
03
dc
fe
0a
07
0b
18
10
f7
f6
20
13
0d
db
f3
06
04
0b
eb
d4
07
19
16
53
f2
1f
f3
fb
fc
1e
21
ae
12
17
e2
08
d4
32
ec
1f
11
33
f8
06
10
ec
dc
fb
e0
ef
f7
03
1f
2e
e0
16
13
ee
c6
2a
db
0d
26
1d
12
bd
11
20
18
2d
0f
09
d9
0e
ef
1f
24
07
11
3d
24
13
bf
29
de
e9
e9
2a
f6
f8
1c
0a
d2
b9
13
00
00
00
00
00
00
00
00
00
00
00
00
00
00
00
00
00
00
00
00
00
00
00
00
00
00
00
00
00
00
00
00
00
00
00
00
00
00
00
00
00
00
00
00
00
00
00
00
00
00
00
00
00
00
00
00
00
00
00
00
00
00
00
00
00
00
00
00
00
00
00
00
00
00
00
00
00
00
00
00
00
00
00
00
00
00
00
00
00
00
00
00
00
00
00
00
00
00
00
00
00
00
00
00
00
00
00
00
00
00
00
00
00
00
00
00
00
00
00
00
00
00
00
00
00
00
00
00
00
00
00
00
00
00
00
00
00
00
00
00
00
00
00
00
00
00
00
00
00
00
00
00
00
00
00
00
00
00
00
00
00
00
00
00
00
00
00
00
00
00
00
00
00
00
00
00
00
00
00
00
00
00
00
00
00
00
00
00
00
00
00
00
00
00
00
00
00
00
00
00
00
00
00
00
00
00
00
00
00
00
00
00
00
00
00
00
00
00
00
00
00
00
00
00
00
00
00
00
00
00
00
00
00
00
00
00
00
00
00
00
