f8
ea
fb
dd
fa
00
c6
1b
f5
ad
1b
2b
15
4f
3c
39
d9
05
20
07
d9
e8
36
f2
1c
1e
2c
3f
d5
27
02
06
e1
e9
d1
31
0e
e3
32
c9
e1
1f
12
12
f8
fa
07
ec
e0
23
da
d4
2d
0f
f5
f7
e3
09
fa
e4
f0
f1
c4
26
36
e1
1b
e7
18
42
e5
04
1a
d7
fc
05
d7
28
bb
18
02
38
bd
08
e3
3d
07
29
0f
29
ba
ec
d4
2c
03
1f
e1
f7
23
23
11
d5
bc
e7
e4
0c
06
5e
18
10
10
c2
ed
11
05
04
36
f8
0b
4e
db
da
22
0c
23
0f
02
de
