f8
01
1f
18
f2
c5
f2
f3
28
fd
2f
1a
fa
ee
f1
f3
00
17
22
13
11
27
00
20
f4
f9
0a
e7
f7
0f
09
f0
e1
08
df
12
fd
fe
03
30
0b
15
19
f2
19
29
35
e4
26
fa
1b
f7
e7
ed
21
d3
f9
ef
03
07
e5
0a
fc
ce
e5
de
15
db
fa
fd
c8
f0
d2
fe
01
e2
e3
07
11
12
13
f3
1b
e9
d6
fd
07
f5
0d
1a
f4
16
ee
25
ee
e8
e3
17
f1
df
00
f3
06
06
fd
fa
cf
05
03
f1
f6
39
f3
f3
e8
f8
f7
4d
00
f0
cf
f1
ed
f3
dc
f4
e7
ea
fa
fd
e8
01
06
e6
2b
ec
20
ff
04
07
ee
ed
19
0c
df
00
e3
15
f9
fd
16
f9
db
24
e4
14
04
ef
fc
1e
20
0c
1e
23
2e
f5
fc
fd
1f
22
df
f5
ef
f8
fe
df
2a
e2
0f
2f
31
d6
00
dc
f9
d6
ee
04
e4
04
46
df
2b
0d
eb
06
16
b4
f3
13
db
fc
dd
2e
25
12
ca
13
e2
2e
f1
c8
fc
34
f4
29
08
0d
21
04
f1
26
13
2d
11
0d
f8
0a
d1
08
1c
18
2a
eb
db
f0
24
ec
23
fc
db
0a
ed
fe
17
2e
f6
ed
17
f7
f8
ea
e2
04
d5
0c
fa
e2
c8
2c
1b
23
ca
15
e3
fb
00
dc
27
f5
2a
1f
f6
05
d6
dd
fd
0a
03
d7
00
51
12
29
c9
0c
5b
d9
fc
ba
ed
20
f1
21
ec
ff
1a
fe
fe
20
d3
18
1d
11
14
f8
1e
39
01
d6
ee
00
e6
10
da
e8
05
fa
e1
fc
22
06
01
55
ef
02
10
06
04
09
10
12
02
d8
ed
0f
d0
06
fd
f3
32
ec
00
0f
e9
16
ff
08
23
0b
29
25
f3
c8
d9
27
18
ec
df
1a
d7
1b
f8
f6
ea
08
0a
f8
13
23
0e
35
ed
26
36
e1
26
05
03
df
f0
07
fb
f3
fc
d9
ea
04
1a
0e
f2
eb
24
fa
ea
09
ff
fe
19
e4
bc
ed
1d
da
30
3c
05
fb
04
32
0e
f3
f9
ec
0c
2f
fc
1c
f8
02
22
1e
eb
0c
f9
eb
13
dc
02
03
04
f0
0e
04
f3
2f
f8
ef
0b
d9
01
3a
f1
fe
dd
c6
e1
13
c5
30
0b
d8
04
ca
e6
ef
d8
23
13
1f
f8
f7
25
24
c6
eb
fa
16
0f
e3
e4
da
d3
ea
d3
22
0d
da
04
10
0e
03
1e
04
d8
d8
e7
d4
30
00
09
e5
fc
0a
f4
f7
3f
fd
ec
30
f1
ee
fd
ed
40
0d
05
07
2e
06
e0
fa
e7
f4
ee
bd
f0
f4
10
1c
26
e1
fc
df
fd
f7
09
e7
09
1d
f0
f6
fa
3e
fa
0b
ec
e1
dc
ff
d3
28
fc
23
3e
e0
26
c3
07
fe
dd
e4
f9
ef
52
e8
f7
dd
e3
e9
0d
f1
61
f8
02
f0
23
17
da
12
0d
0b
0c
f0
f9
e2
b5
c4
e7
da
29
d6
fd
f4
0b
03
03
ea
d9
fa
c6
d4
03
f6
df
cb
19
24
fd
f7
e9
03
e7
0c
f9
cf
cf
cf
0c
db
2a
11
e2
04
17
19
2c
17
f8
cf
e2
0f
f7
d9
21
06
f0
d2
eb
d0
e2
2c
09
11
20
f5
05
ee
d0
37
c5
3b
2a
26
34
fb
fc
f2
e6
04
0a
e7
ea
ec
0a
23
d9
0b
0d
dc
f5
e0
ed
dd
e1
e9
00
fa
e8
db
bb
ff
ee
f0
3f
ed
0e
13
e1
2c
11
1e
3e
00
26
e9
ec
20
cd
ca
40
e9
01
f1
0a
e9
35
08
f9
12
ed
01
0a
f4
1c
4f
29
06
06
f8
e4
02
13
10
db
16
2c
02
d3
f3
1b
c2
e7
fb
12
04
0f
fb
0d
ed
05
0a
cb
f1
00
11
f3
fa
13
0d
22
e6
e0
2a
28
39
03
07
f8
03
c8
11
0d
08
05
0c
20
2e
f6
ec
f0
04
39
ee
e0
b0
0a
f9
14
f8
09
00
b8
04
06
df
f7
fc
ec
e7
24
14
13
ea
00
00
00
00
00
00
00
00
00
00
00
00
00
00
00
00
00
00
00
00
00
00
00
00
00
00
00
00
00
00
00
00
00
00
00
00
00
00
00
00
00
00
00
00
00
00
00
00
00
00
00
00
00
00
00
00
00
00
00
00
00
00
00
00
00
00
00
00
00
00
00
00
00
00
00
00
00
00
00
00
00
00
00
00
00
00
00
00
00
00
00
00
00
00
00
00
00
00
00
00
00
00
00
00
00
00
00
00
00
00
00
00
00
00
00
00
00
00
00
00
00
00
00
00
00
00
00
00
00
00
00
00
00
00
00
00
00
00
00
00
00
00
00
00
00
00
00
00
00
00
00
00
00
00
00
00
00
00
00
00
00
00
00
00
00
00
00
00
00
00
00
00
00
00
00
00
00
00
00
00
00
00
00
00
00
00
00
00
00
00
00
00
00
00
00
00
00
00
00
00
00
00
00
00
00
00
00
00
00
00
00
00
00
00
00
00
00
00
00
00
00
00
00
00
00
00
00
00
00
00
00
00
00
00
00
00
00
00
00
00
