1a
e7
0e
43
28
c4
ee
de
fc
e8
e9
d7
14
2c
21
4b
08
fa
d3
2b
e8
fc
d6
06
d1
46
ec
f0
d8
01
2a
53
de
ff
ef
00
04
db
0c
eb
17
fd
1b
ef
49
c0
fa
07
f1
ca
da
14
cd
ea
c3
13
cb
2e
d3
02
1f
11
2f
ec
fc
ea
fc
61
16
19
f3
f6
2e
2b
09
0b
1a
19
a1
00
dc
1e
18
0e
ef
f8
e1
da
0a
af
1a
14
32
f7
ef
28
da
40
0c
fc
0b
f9
dd
01
00
f2
e2
f7
1f
03
ed
0c
03
fc
ff
da
f1
fc
3a
fc
24
2c
fe
09
0f
df
44
09
