f7
e2
fc
ec
ff
ec
0b
c4
e7
03
f8
07
06
e5
da
e9
06
26
e3
f9
f4
fe
f1
e3
d1
05
f5
16
fe
09
f4
fa
eb
01
19
2f
fe
d4
fe
16
fe
2e
1b
14
00
f6
2b
f8
11
f2
fd
f7
05
30
e5
0f
1b
e8
26
19
f2
06
33
e4
ec
e4
f9
ea
34
26
16
eb
fd
0d
bb
f2
35
21
ec
31
f1
27
b5
22
ff
27
14
08
ec
1e
0b
bf
f1
0d
06
11
00
32
12
06
f1
06
fc
09
fd
f4
07
08
cd
f2
f3
e9
01
03
fb
d8
f3
28
0c
13
f0
31
15
06
21
fb
0f
01
d7
1c
12
11
11
14
14
1a
04
f7
0b
e7
0f
e6
00
fd
e3
0a
08
0d
2e
d6
ec
f4
d0
23
07
1b
08
d5
10
ff
eb
cc
1b
07
16
19
0c
d4
0c
00
15
12
fd
db
10
18
12
d2
e0
1d
03
dc
e6
02
f6
10
f0
05
eb
01
f8
24
f1
16
f8
e9
da
d7
f2
db
0c
c6
bb
de
1b
1a
d7
db
4e
09
0a
14
fd
0a
e3
08
11
0c
f9
15
04
f0
04
f2
f6
da
24
25
fb
13
01
f0
ef
04
12
0d
de
05
f7
ff
01
eb
25
01
fb
f3
d7
b5
12
e0
cc
39
e7
19
ff
1a
f2
2a
05
f7
fe
0a
20
19
e2
1d
00
f6
fb
d6
e3
e7
e9
1c
e2
dd
18
ec
05
20
00
ff
14
d9
20
e6
07
d7
f6
f3
e7
36
e6
fc
f9
ee
0c
eb
05
cc
f6
fb
fb
0d
02
e3
19
ec
df
e8
d8
f1
2a
02
33
3c
ce
f7
05
f4
97
f1
ec
e3
1a
0c
16
ff
e9
0e
00
26
ee
ef
fc
0b
ed
eb
1f
10
d6
0f
04
ec
0a
25
ff
05
f4
33
02
0a
e2
f0
12
ea
21
40
f0
09
f0
b2
ce
46
14
33
f3
e3
06
ec
16
f8
e7
0c
01
de
ed
e9
c7
e2
c8
13
e6
30
1f
fd
02
18
fb
1f
11
0d
fe
13
ef
0d
33
fd
ee
16
cf
dd
03
12
f0
02
f5
f7
32
01
da
e3
ed
26
d5
06
18
f2
d6
28
dc
12
17
1e
df
02
ff
e4
ed
f5
e1
e1
ec
f6
13
0d
fb
27
11
de
e4
0e
21
25
f8
f7
f8
11
fb
fc
de
23
06
f6
d8
d4
1c
e9
06
ef
e6
04
02
df
e0
2b
19
04
fd
be
f8
33
f1
b6
d1
19
05
f3
db
3c
18
ec
14
17
15
10
15
22
14
20
09
0c
4e
e0
0c
de
0b
e9
d9
ed
fb
ea
f1
3a
1f
00
ed
08
0c
f6
2d
20
c5
05
12
f2
ca
9d
28
da
05
0d
10
19
fb
15
e6
fc
e6
cb
2c
e0
eb
da
11
03
f6
ce
10
fb
21
fd
04
d2
07
25
eb
e4
f2
1b
1d
fa
03
02
1a
d2
0c
ff
3d
f2
fd
fb
1e
0b
2b
c7
ea
d4
04
fc
e0
1d
1e
06
23
fb
08
3c
fb
0e
de
0e
18
ec
e5
f4
27
ec
ca
11
1d
09
e0
dd
f8
1f
0b
ef
f7
db
07
09
2c
0b
1a
03
0d
0e
19
dd
0d
f8
f4
15
12
06
04
ec
04
e8
e0
f1
02
0e
df
ec
e8
10
e7
fe
2d
e6
e4
ca
42
00
e3
f2
1b
0b
04
1c
13
2c
01
10
fc
f2
ce
e7
1a
f9
3e
f3
0a
e7
02
0e
cc
13
3e
f3
1c
d8
f9
fb
2a
0c
03
06
16
f8
17
f0
ea
fb
0d
f1
f1
08
07
1e
39
34
d8
d0
2a
0b
c2
d5
fa
0e
fe
dc
16
03
f4
10
f3
38
14
d2
e6
1a
9d
05
22
d9
b4
f1
22
f9
00
0a
0a
c9
e0
0b
4d
f9
15
0a
19
0b
e1
e0
e6
07
f4
ef
1f
f1
19
fa
06
2b
11
13
14
e3
ed
1d
fe
0b
ff
04
09
e4
0d
38
11
fa
d0
fd
16
e0
04
48
f5
fc
13
fc
c7
2d
1a
ef
f3
ff
ed
08
07
0e
c6
08
f0
05
11
e5
00
f1
09
14
0c
e5
00
00
00
00
00
00
00
00
00
00
00
00
00
00
00
00
00
00
00
00
00
00
00
00
00
00
00
00
00
00
00
00
00
00
00
00
00
00
00
00
00
00
00
00
00
00
00
00
00
00
00
00
00
00
00
00
00
00
00
00
00
00
00
00
00
00
00
00
00
00
00
00
00
00
00
00
00
00
00
00
00
00
00
00
00
00
00
00
00
00
00
00
00
00
00
00
00
00
00
00
00
00
00
00
00
00
00
00
00
00
00
00
00
00
00
00
00
00
00
00
00
00
00
00
00
00
00
00
00
00
00
00
00
00
00
00
00
00
00
00
00
00
00
00
00
00
00
00
00
00
00
00
00
00
00
00
00
00
00
00
00
00
00
00
00
00
00
00
00
00
00
00
00
00
00
00
00
00
00
00
00
00
00
00
00
00
00
00
00
00
00
00
00
00
00
00
00
00
00
00
00
00
00
00
00
00
00
00
00
00
00
00
00
00
00
00
00
00
00
00
00
00
00
00
00
00
00
00
00
00
00
00
00
00
00
00
00
00
00
00
