d0
33
bd
51
da
32
eb
f8
16
14
b1
07
0a
0b
39
05
59
05
27
24
0d
e3
05
09
12
c6
1a
b5
ee
e8
e8
0c
e0
02
08
22
23
f9
da
fb
21
e1
f9
23
e2
39
eb
04
09
1a
22
10
1c
16
10
bf
c1
ac
0a
d3
1b
f9
f3
1f
23
fc
26
20
fe
02
04
00
01
a5
f9
e4
f9
12
0b
3d
0b
3d
54
fc
f9
d8
cf
0a
06
f6
fd
da
e7
c2
08
54
e9
c5
e9
fa
e3
ef
f6
da
1e
fb
0e
f8
fd
db
51
eb
18
85
02
fd
53
01
5d
eb
0d
e6
20
cd
fa
11
06
12
