f6
e2
da
05
e3
1e
17
d3
07
04
e1
fe
fb
d9
5d
08
bc
1b
16
0b
fc
28
b3
ec
ef
26
c5
39
19
08
e0
df
23
e8
1d
33
db
ce
d9
f2
f2
ec
16
ef
c2
27
2c
f9
ea
1b
03
13
02
c8
05
20
2b
c0
fe
1d
fb
f0
10
fa
43
9a
e0
03
f3
00
fa
ed
fc
fb
12
b2
0e
f3
f2
de
f3
12
ce
f6
db
1e
e5
f9
24
0f
cc
1d
11
b9
0b
0c
17
1e
e8
da
eb
fd
06
06
f5
f3
00
f0
f1
f3
24
cd
e3
f0
e5
04
ab
dc
fd
d6
06
e9
e5
ed
c6
f4
bf
e3
