1f
f6
d0
e0
0e
e6
28
00
31
02
0a
f9
db
23
e1
f3
d5
e6
fb
30
44
27
26
cb
36
18
0b
e8
f7
df
b7
d7
e0
dc
f1
00
f4
1c
d4
19
c3
f3
ec
15
ff
2f
19
01
1e
da
0b
f0
c4
f5
06
41
fd
0a
26
1c
16
09
ee
31
e8
5b
21
ff
1d
1d
2f
1b
e1
10
ea
cf
f0
35
f8
d6
0e
f8
f2
11
08
49
12
e4
ed
24
33
e4
0e
0d
30
e8
e4
14
47
e3
2b
49
2d
01
1c
fd
c9
3f
04
f7
07
e8
19
ef
c1
01
df
00
f5
2f
ec
20
e8
f1
f4
1a
fd
dc
