04
d3
fe
07
fc
ff
0c
fc
10
f9
02
ce
f0
0c
bb
0b
fe
fb
1c
e5
eb
dc
f2
0f
2a
f1
fd
05
02
07
0f
fe
f3
02
ef
21
2c
e2
ff
23
fd
cb
e9
0b
f4
fe
ed
0f
2f
2b
e3
34
f4
06
10
08
19
35
05
ff
d7
e7
13
fd
17
22
28
fc
19
ea
0d
e7
0c
0b
07
fd
19
f7
10
24
26
d5
2e
11
01
d1
bb
e6
e5
d3
11
f4
0d
c8
00
f8
f2
05
f5
17
d1
0b
1c
f4
d6
da
0e
0e
21
04
e5
df
ff
0f
e4
e8
e5
e3
f2
ea
d5
d7
d4
25
fe
08
00
ed
e4
da
15
fe
fc
03
0e
f6
f9
ed
ef
2a
18
0c
01
da
13
df
23
0f
e9
ea
9d
05
07
e8
f8
05
e9
db
13
0e
e6
4b
f7
06
41
fb
2b
1c
e8
01
e8
14
12
e6
0b
0e
f6
ea
1f
f7
25
0f
f8
0c
e4
1c
11
df
00
e5
0a
dd
0e
11
3c
16
15
1a
49
0f
08
fb
e4
11
f9
e1
29
db
e3
00
1a
0f
19
0a
01
e8
f6
f8
1a
f5
f1
0e
25
d6
1e
1b
14
d0
e8
0b
23
18
15
04
3c
07
fc
ee
d3
15
f6
12
26
31
ff
20
d0
0c
fe
f8
e0
e1
0b
ee
fb
4a
28
f1
0b
ff
1c
ef
e2
13
d6
d5
f8
f2
09
e8
2e
e3
ec
03
12
ff
e7
d5
dd
18
c7
04
25
0e
dc
fb
21
13
10
ce
ea
04
16
f9
0a
1e
34
ea
fb
fc
fa
ec
e9
21
19
06
f5
f6
f6
f7
1b
e4
e2
f5
f0
09
05
da
01
48
2d
d7
1d
3d
ff
13
24
1a
14
38
ff
d0
03
f6
e0
23
e6
12
e5
ef
e7
e5
c2
15
1e
13
ac
13
d4
17
e2
06
31
dc
1e
e4
18
ff
07
2d
f3
08
d9
2a
ec
13
19
1c
0e
e7
03
01
ec
18
00
14
1f
36
29
01
18
0e
17
fc
06
e5
04
f5
2c
dd
0a
e3
c3
07
e5
16
e6
37
05
ff
0b
f1
df
e9
15
17
0b
f4
2b
1c
19
37
dd
db
0c
0e
ff
09
ec
1e
02
e6
fb
c3
1a
0c
05
e3
ea
02
d6
e0
fe
0a
07
33
1f
26
f5
16
bb
1c
03
eb
eb
f8
e9
f0
d7
e2
12
03
e1
13
f1
fb
fc
28
ce
f4
0c
05
10
13
19
18
2e
dc
da
15
f5
dc
eb
01
db
05
bb
05
16
34
0f
33
15
eb
f5
28
20
f5
12
1e
f1
ef
32
11
ee
e5
08
ea
0e
0f
e5
f4
ee
0f
18
05
f7
1c
f9
d1
1c
e3
fb
0d
0a
ca
0d
f8
c9
1f
e6
34
f8
c0
d7
e9
ee
f2
d9
b1
dd
f9
1c
f6
12
18
04
1d
f0
cc
eb
01
03
e5
20
40
e5
25
e7
f5
39
05
e5
e2
0f
f4
05
ff
f2
e9
0a
1a
d7
0c
5a
d8
f4
eb
02
f1
0b
11
ef
e6
04
ed
1e
da
1f
f5
1f
ec
32
07
f6
0d
3c
e9
ea
ff
29
2b
06
0c
1a
f9
02
e1
ef
2a
d5
e4
e8
cc
e8
13
0c
d1
06
16
11
05
de
ff
ea
e3
18
20
38
fe
0e
fc
f3
30
f8
05
0d
18
0d
e9
f2
fb
d1
29
cb
2b
0a
ef
d3
ef
fd
1f
0a
20
1c
16
f5
fe
03
f3
1a
36
4e
e0
12
f1
f5
40
2d
11
0f
fc
ee
0a
12
dd
f9
fa
2d
11
cd
04
fb
ff
f9
23
d0
f0
1b
fb
d3
07
0c
00
e3
e7
fe
12
22
0e
1e
0d
3b
ff
08
4d
00
17
f7
16
4c
33
f5
2d
14
f4
e6
f4
f6
ee
0e
bb
f4
11
fe
ff
fe
08
31
e5
0d
05
0b
0c
1a
df
05
3e
c1
d2
15
2a
04
10
ef
b7
de
04
e3
01
19
e7
f5
08
2d
02
f3
fa
02
d6
20
f7
1a
09
1c
1e
f5
04
f4
e9
d4
34
0f
12
fd
1b
fc
06
0a
00
0b
e9
f5
dc
e4
e6
13
d8
f6
11
0e
20
f8
0b
00
00
00
00
00
00
00
00
00
00
00
00
00
00
00
00
00
00
00
00
00
00
00
00
00
00
00
00
00
00
00
00
00
00
00
00
00
00
00
00
00
00
00
00
00
00
00
00
00
00
00
00
00
00
00
00
00
00
00
00
00
00
00
00
00
00
00
00
00
00
00
00
00
00
00
00
00
00
00
00
00
00
00
00
00
00
00
00
00
00
00
00
00
00
00
00
00
00
00
00
00
00
00
00
00
00
00
00
00
00
00
00
00
00
00
00
00
00
00
00
00
00
00
00
00
00
00
00
00
00
00
00
00
00
00
00
00
00
00
00
00
00
00
00
00
00
00
00
00
00
00
00
00
00
00
00
00
00
00
00
00
00
00
00
00
00
00
00
00
00
00
00
00
00
00
00
00
00
00
00
00
00
00
00
00
00
00
00
00
00
00
00
00
00
00
00
00
00
00
00
00
00
00
00
00
00
00
00
00
00
00
00
00
00
00
00
00
00
00
00
00
00
00
00
00
00
00
00
00
00
00
00
00
00
00
00
00
00
00
00
