2d
e2
0d
43
09
07
24
2d
fd
41
15
f0
e9
b9
b9
d2
00
13
f6
03
d3
28
16
38
d6
21
d3
20
cb
ee
d6
f0
21
05
e3
13
fc
e5
ed
05
e1
0c
45
e4
17
df
bd
dd
e1
0d
f7
1d
ef
c4
2e
0a
dd
10
fc
d7
fb
26
d1
19
27
06
2a
0f
3b
16
e9
06
0f
e4
dd
da
16
25
13
e1
e6
fa
01
17
50
d4
e9
43
a5
d6
32
f5
1b
12
f7
d9
e6
02
eb
e6
4a
ff
2a
3b
06
13
22
2d
2d
23
05
f2
e3
e1
1a
ff
2b
fc
24
0f
20
f6
18
2d
af
fb
2b
2a
