f7
18
e8
10
cb
fb
f2
08
0d
d8
ed
07
10
eb
c5
01
f8
1a
ba
3e
17
18
f8
1f
28
fc
c6
d7
19
f6
05
25
0a
28
27
c9
00
00
ea
0f
2f
ea
27
38
21
1a
e7
fb
0f
fe
e4
01
23
06
07
33
2b
f4
cc
1e
21
1c
00
ce
31
e0
f7
01
47
0e
e2
ed
e4
00
12
f9
1b
ef
0f
09
e7
e4
1d
31
17
16
07
e8
16
0b
e3
25
e6
e2
21
02
ee
f4
27
27
e7
1b
f8
cd
d4
48
28
ff
20
f4
2b
01
16
11
d1
19
2f
fc
11
e1
08
e7
08
e7
03
18
02
e9
0f
00
ec
0a
12
25
44
0c
f6
14
05
0c
fe
15
d2
fb
f1
04
2b
18
dc
10
0b
19
08
f4
1a
1b
ed
da
15
eb
0c
05
2a
e4
15
0c
23
03
d0
ef
f2
d1
19
2e
f2
1b
06
fe
1c
15
16
48
03
3c
14
08
f7
11
fc
07
11
11
d4
f9
05
e7
14
15
15
fc
f7
0f
0b
34
28
f4
0c
35
f0
1b
07
1a
2c
48
f7
fc
17
e0
f4
01
1c
f1
f7
1a
dc
26
0b
c8
f6
1f
18
52
24
1b
e0
11
0b
0d
24
0b
ea
ee
05
0f
ee
02
1c
08
e9
00
d8
10
f5
01
4e
02
08
f6
ff
ee
fa
04
15
fd
29
18
08
22
2b
00
06
27
25
0e
0e
ec
f6
eb
f1
1b
17
0a
17
fb
e5
10
0a
42
ea
0d
22
1b
07
de
fa
10
f0
12
ed
e9
13
2c
0b
66
d5
40
c1
fa
13
0d
c2
29
23
20
16
1f
0a
3a
f7
22
f0
f5
31
27
fd
d6
f1
2e
1f
06
1f
42
e7
1c
1e
e7
d6
15
04
f8
3f
14
18
1d
fc
20
f2
f0
fc
bb
2b
16
0c
ee
0d
01
f1
17
16
1c
08
e1
fe
20
38
07
19
05
29
e2
0a
f1
35
16
eb
db
cb
d8
ca
df
d8
c9
fd
3b
ff
31
0d
f1
18
e8
d4
36
fd
12
bf
08
fb
f6
df
06
14
08
e9
f5
ec
2d
37
1c
ea
06
0f
29
fe
24
19
20
e4
d4
e3
29
f0
e3
10
e5
13
ea
bf
11
de
fa
fa
01
00
d1
fe
10
0a
e3
19
21
01
e4
32
fe
02
d3
d7
df
28
dc
ed
03
02
fc
e2
ec
dc
01
25
ef
24
1e
f4
c5
0a
2f
14
2d
fa
bc
da
f2
24
e3
e2
fc
0a
f4
1e
f8
13
f4
d7
dd
1a
0c
ef
0e
07
24
e1
24
b7
f9
e4
f6
f9
f8
dd
05
f7
0a
03
1a
d2
e9
f0
f9
eb
03
f8
ca
22
27
10
fa
ec
27
e8
25
20
00
21
16
00
05
f3
03
12
ea
da
f7
0b
f8
1b
0d
f3
dc
fd
24
1f
21
f3
27
10
22
f5
f0
dd
f5
22
d4
e6
16
e5
12
13
02
11
12
05
00
18
f2
ea
07
ff
09
f2
15
fb
ec
d2
14
f5
0d
0a
11
ff
ec
c4
ea
0b
f5
f1
eb
43
f5
e5
eb
ef
e0
30
15
de
cd
06
06
e7
fb
06
fb
d0
25
ce
21
fc
fd
23
04
1e
18
f6
fe
15
d4
0e
1b
1e
e8
f9
31
d0
1a
f7
fc
d9
24
f3
01
f2
2b
1e
e8
2d
cc
fd
1a
e3
12
f8
d4
de
2f
f3
35
e5
03
d2
0d
0c
c3
1a
e0
2d
e1
1d
0a
07
02
b2
f7
0e
f4
3c
f3
13
f2
13
06
db
f2
23
e9
19
da
07
09
25
1f
19
22
06
04
0e
22
e7
ef
0b
19
0f
30
03
e7
f9
fe
ef
f6
ef
0a
fc
b3
fb
f7
fc
f8
06
20
20
e6
07
ce
fd
22
08
f5
36
09
0e
e3
f8
ea
3a
d9
fd
e1
f0
c1
f7
26
29
f3
2c
f3
f4
d4
23
15
ee
e6
fc
0c
e6
f4
ea
d2
19
ef
fa
08
02
f2
fa
d9
f6
06
0d
10
06
02
df
0d
01
1e
eb
2c
b1
f5
d8
e1
0c
17
1b
e1
18
38
0a
16
eb
13
38
12
21
29
00
00
00
00
00
00
00
00
00
00
00
00
00
00
00
00
00
00
00
00
00
00
00
00
00
00
00
00
00
00
00
00
00
00
00
00
00
00
00
00
00
00
00
00
00
00
00
00
00
00
00
00
00
00
00
00
00
00
00
00
00
00
00
00
00
00
00
00
00
00
00
00
00
00
00
00
00
00
00
00
00
00
00
00
00
00
00
00
00
00
00
00
00
00
00
00
00
00
00
00
00
00
00
00
00
00
00
00
00
00
00
00
00
00
00
00
00
00
00
00
00
00
00
00
00
00
00
00
00
00
00
00
00
00
00
00
00
00
00
00
00
00
00
00
00
00
00
00
00
00
00
00
00
00
00
00
00
00
00
00
00
00
00
00
00
00
00
00
00
00
00
00
00
00
00
00
00
00
00
00
00
00
00
00
00
00
00
00
00
00
00
00
00
00
00
00
00
00
00
00
00
00
00
00
00
00
00
00
00
00
00
00
00
00
00
00
00
00
00
00
00
00
00
00
00
00
00
00
00
00
00
00
00
00
00
00
00
00
00
00
