cf
30
ec
1e
51
0b
e5
f2
40
e9
f5
1a
15
35
c6
13
1e
3c
24
1a
21
ec
04
df
37
1f
09
16
ed
d2
13
56
04
17
c3
f8
09
07
e0
d8
9a
ff
06
f1
1b
0a
30
2a
11
f6
02
21
30
bc
10
e1
4c
fb
c3
1a
28
c9
28
22
cb
ef
f6
e9
00
f8
f3
cd
f1
de
02
0e
38
20
bc
f3
f8
2c
fc
b7
fa
ee
2d
1a
ed
25
b5
eb
0f
ea
06
4a
02
e8
d5
18
01
25
31
51
d7
d6
2f
0f
15
93
d3
29
e4
03
d8
2d
09
16
21
1a
d1
33
f3
08
09
26
02
f4
