2c
15
2d
30
f0
0d
da
f3
03
fe
c7
06
19
25
04
21
03
ff
f3
e0
04
e8
ff
bd
1d
fb
0f
27
d0
f1
f8
ed
14
d3
02
ed
28
e7
17
0f
f6
d9
f7
10
fa
0f
39
16
34
0c
0f
f0
1e
05
10
00
ee
d7
20
ea
fc
13
18
05
ba
ed
fd
d6
1b
17
1a
15
06
c7
fa
26
0d
f6
26
08
00
2e
ce
dd
31
f0
d2
08
13
ff
d4
eb
e8
ed
27
fb
14
fe
fe
f0
0e
1c
cb
1f
19
24
ff
05
f1
0e
05
04
12
af
09
06
02
1c
33
ef
1b
ff
01
ea
f4
da
10
18
11
15
e5
e3
fd
1c
bf
fa
fe
db
d6
0f
13
f8
fc
0b
eb
eb
15
01
f7
05
f5
e5
f5
0d
f3
1a
0f
ef
25
3c
eb
fa
f3
eb
fe
d5
e3
db
02
b3
19
e2
fe
de
ee
19
d9
00
c2
df
fd
fc
f0
f8
12
0e
ef
0b
fb
21
21
15
be
f9
21
ec
fa
c6
07
d6
07
00
06
b8
07
f1
e1
0d
10
35
e6
11
0f
0d
1c
06
17
11
28
28
04
2e
11
df
e3
0e
f9
c9
09
11
33
fc
df
f0
11
52
f7
01
fe
fe
ea
04
ca
dc
03
0c
f2
29
18
ff
01
f2
f0
0d
30
1d
b2
d5
ea
0d
fc
e9
d9
06
ed
0b
db
fc
fb
05
d5
f0
ce
fa
e5
cd
f6
d0
e2
e1
27
f4
d7
15
ea
01
25
c2
5b
de
ee
08
f9
cc
00
fd
39
01
eb
ee
fe
dc
e4
d7
2a
ed
09
dc
f6
01
26
0d
5a
ef
cc
fa
18
03
08
fa
e8
f6
e1
0b
d6
fb
2e
ef
24
f4
c6
ae
f9
4b
ef
21
ec
ca
06
f4
1d
fe
ff
fb
02
12
13
cd
cc
06
0b
37
e3
f8
f7
08
1d
de
f4
26
1c
24
ea
0d
d5
2a
19
36
e2
f2
07
ee
f0
24
10
03
d8
dc
13
e9
2d
1a
ff
cf
1e
0e
db
f2
20
fb
d3
19
00
20
f3
01
f9
07
fc
e5
e3
1b
0d
f2
17
0a
20
ed
ff
1e
eb
1c
fb
fe
02
ed
10
11
cd
ff
c4
0a
0e
fb
d7
16
f5
f9
03
00
e0
e4
04
f4
08
01
fa
f8
dd
eb
0f
03
23
37
df
e7
e9
19
f2
f7
27
f4
0b
04
0a
c9
0c
1f
f9
fa
f5
f9
03
e5
07
fa
d5
ed
34
2c
0a
d2
04
13
f7
dd
f6
22
01
04
17
23
09
38
e8
f8
1b
e2
08
fb
3c
f6
16
e9
03
42
ee
04
ee
19
c8
e6
f2
fa
fc
21
fa
0f
f3
08
d6
29
e4
fe
e5
1b
0b
fb
e2
1b
eb
f2
f7
0d
de
da
fd
ea
dc
15
3c
0b
3e
16
26
e8
03
23
ee
df
e8
0a
16
f1
f3
c7
fe
0f
0f
f1
23
e9
26
fe
cf
1e
35
fd
01
c5
10
09
22
e3
09
04
d8
0a
05
dd
24
06
3d
ee
ef
ec
15
ec
d2
20
f7
33
fd
f3
15
ea
0f
01
fe
d7
34
04
20
ed
24
10
09
f2
26
0e
14
01
01
f2
09
f5
fa
e2
eb
31
e0
2a
fb
04
31
fe
28
0b
08
1f
ed
d7
fa
f7
ed
f7
fc
05
e3
07
fe
fe
ff
ce
01
e5
06
e4
24
23
03
f5
fa
30
2e
25
f7
fd
f6
dd
41
3c
df
07
09
c9
24
c3
e8
2c
f1
e3
f1
0e
3c
ea
dd
0c
d5
2b
0f
08
cc
db
e0
e6
d4
0d
1a
00
13
ec
1c
18
f9
f6
f4
c8
ee
ea
d7
12
d7
ef
0c
06
0f
06
3e
0b
28
2a
df
ce
08
09
01
ef
2e
e2
0f
02
18
e6
d8
22
0b
16
18
04
1f
f0
44
f3
cb
f6
3e
dc
f1
ef
1a
dc
0d
db
09
dd
04
e9
ff
31
11
0a
eb
36
16
f5
2e
10
ea
f0
f3
f3
e1
44
08
02
c3
08
d6
d9
07
d3
f0
e5
f4
d7
ff
25
06
38
fe
fe
ff
2b
eb
2c
0d
13
16
06
0f
03
11
e1
00
00
00
00
00
00
00
00
00
00
00
00
00
00
00
00
00
00
00
00
00
00
00
00
00
00
00
00
00
00
00
00
00
00
00
00
00
00
00
00
00
00
00
00
00
00
00
00
00
00
00
00
00
00
00
00
00
00
00
00
00
00
00
00
00
00
00
00
00
00
00
00
00
00
00
00
00
00
00
00
00
00
00
00
00
00
00
00
00
00
00
00
00
00
00
00
00
00
00
00
00
00
00
00
00
00
00
00
00
00
00
00
00
00
00
00
00
00
00
00
00
00
00
00
00
00
00
00
00
00
00
00
00
00
00
00
00
00
00
00
00
00
00
00
00
00
00
00
00
00
00
00
00
00
00
00
00
00
00
00
00
00
00
00
00
00
00
00
00
00
00
00
00
00
00
00
00
00
00
00
00
00
00
00
00
00
00
00
00
00
00
00
00
00
00
00
00
00
00
00
00
00
00
00
00
00
00
00
00
00
00
00
00
00
00
00
00
00
00
00
00
00
00
00
00
00
00
00
00
00
00
00
00
00
00
00
00
00
00
00
